<unk>	0
<s>	0
</s>	0
▁t	-0
he	-1
▁a	-2
in	-3
▁the	-4
re	-5
on	-6
▁s	-7
er	-8
▁,	-9
an	-10
▁o	-11
at	-12
en	-13
▁.	-14
▁w	-15
is	-16
ed	-17
▁c	-18
or	-19
it	-20
es	-21
▁p	-22
▁in	-23
al	-24
▁of	-25
▁f	-26
▁b	-27
▁an	-28
ing	-29
ar	-30
▁to	-31
ou	-32
▁m	-33
ion	-34
▁and	-35
ic	-36
▁d	-37
il	-38
▁h	-39
as	-40
ent	-41
▁A	-42
▁th	-43
om	-44
▁T	-45
id	-46
▁re	-47
le	-48
st	-49
ro	-50
▁n	-51
▁e	-52
▁"	-53
▁I	-54
ve	-55
ct	-56
ation	-57
▁S	-58
▁l	-59
ad	-60
ist	-61
▁g	-62
▁be	-63
ur	-64
ol	-65
ut	-66
▁for	-67
am	-68
▁that	-69
▁-	-70
▁M	-71
ce	-72
im	-73
ly	-74
ot	-75
▁on	-76
▁The	-77
ay	-78
et	-79
▁is	-80
ir	-81
ig	-82
▁P	-83
us	-84
ver	-85
▁C	-86
un	-87
ill	-88
▁st	-89
ment	-90
▁he	-91
ak	-92
ra	-93
ch	-94
▁sa	-95
ort	-96
ow	-97
ers	-98
▁wh	-99
▁said	-100
el	-101
▁K	-102
▁B	-103
ul	-104
oun	-105
▁it	-106
▁con	-107
ld	-108
ies	-109
▁pro	-110
ith	-111
▁de	-112
▁1	-113
▁al	-114
ter	-115
▁with	-116
▁y	-117
▁as	-118
▁2	-119
▁we	-120
os	-121
res	-122
op	-123
▁at	-124
▁E	-125
▁are	-126
▁H	-127
est	-128
ate	-129
port	-130
▁ex	-131
ity	-132
▁se	-133
▁D	-134
her	-135
▁com	-136
ri	-137
▁N	-138
▁ha	-139
▁R	-140
▁W	-141
istan	-142
▁F	-143
00	-144
ab	-145
rom	-146
▁was	-147
▁'	-148
and	-149
▁k	-150
▁by	-151
em	-152
▁ne	-153
ac	-154
ore	-155
▁O	-156
ant	-157
gh	-158
▁su	-159
art	-160
ial	-161
▁r	-162
if	-163
ain	-164
ge	-165
▁U	-166
▁v	-167
pt	-168
igh	-169
▁have	-170
pe	-171
gy	-172
▁from	-173
▁go	-174
our	-175
ian	-176
ud	-177
▁G	-178
▁(	-179
ess	-180
th	-181
od	-182
iv	-183
▁not	-184
▁L	-185
um	-186
oc	-187
ould	-188
ive	-189
▁)	-190
▁will	-191
▁or	-192
red	-193
▁ch	-194
ber	-195
▁le	-196
ry	-197
▁J	-198
ia	-199
▁un	-200
▁has	-201
se	-202
qu	-203
ast	-204
ren	-205
▁In	-206
ik	-207
▁ag	-208
end	-209
▁sh	-210
ight	-211
ice	-212
ust	-213
ear	-214
ount	-215
ary	-216
out	-217
pp	-218
ib	-219
▁ab	-220
▁this	-221
▁wor	-222
▁off	-223
ich	-224
cc	-225
▁ad	-226
▁their	-227
all	-228
▁j	-229
▁pl	-230
ru	-231
vern	-232
▁pol	-233
az	-234
ations	-235
up	-236
ther	-237
ect	-238
ff	-239
▁Al	-240
ous	-241
ions	-242
der	-243
▁res	-244
▁pe	-245
▁which	-246
▁im	-247
ome	-248
ide	-249
inist	-250
ek	-251
▁his	-252
ding	-253
▁year	-254
ov	-255
▁inc	-256
▁were	-257
▁me	-258
ost	-259
ident	-260
▁report	-261
ational	-262
▁comp	-263
▁ar	-264
▁they	-265
▁govern	-266
per	-267
▁who	-268
iz	-269
▁count	-270
ack	-271
▁all	-272
ilit	-273
ie	-274
ical	-275
ah	-276
▁you	-277
aj	-278
▁its	-279
ard	-280
ign	-281
▁Af	-282
ine	-283
ric	-284
ure	-285
ree	-286
▁int	-287
▁part	-288
ip	-289
▁out	-290
▁government	-291
ans	-292
ated	-293
ag	-294
rou	-295
▁whe	-296
ok	-297
ound	-298
ong	-299
mer	-300
ople	-301
aw	-302
▁."	-303
▁Is	-304
▁As	-305
▁do	-306
gypt	-307
▁cont	-308
▁would	-309
ap	-310
▁Egypt	-311
ces	-312
▁att	-313
▁had	-314
con	-315
▁en	-316
▁up	-317
▁but	-318
▁Pak	-319
ell	-320
▁other	-321
▁been	-322
ub	-323
ep	-324
ence	-325
▁:	-326
tern	-327
ult	-328
so	-329
▁He	-330
▁An	-331
▁people	-332
▁about	-333
du	-334
▁can	-335
▁dis	-336
ime	-337
▁200	-338
▁Th	-339
ress	-340
▁us	-341
▁3	-342
▁new	-343
▁tw	-344
▁acc	-345
▁milit	-346
▁one	-347
ace	-348
▁more	-349
▁also	-350
ose	-351
ghan	-352
▁It	-353
age	-354
stan	-355
illion	-356
pl	-357
ass	-358
▁them	-359
vel	-360
▁cl	-361
▁Pakistan	-362
ction	-363
▁af	-364
▁offic	-365
ition	-366
▁reported	-367
one	-368
ew	-369
ish	-370
man	-371
▁work	-372
ue	-373
▁reg	-374
▁two	-375
ake	-376
▁comm	-377
ities	-378
▁Afghan	-379
lic	-380
▁Ch	-381
ants	-382
ire	-383
▁man	-384
ank	-385
▁sp	-386
▁tr	-387
akh	-388
for	-389
yr	-390
ctor	-391
ays	-392
▁per	-393
resident	-394
cur	-395
▁te	-396
▁inv	-397
ach	-398
oin	-399
▁kill	-400
▁so	-401
very	-402
ade	-403
ile	-404
te	-405
cial	-406
curity	-407
ame	-408
▁rec	-409
▁ter	-410
ajik	-411
▁Minist	-412
▁bec	-413
▁20	-414
ates	-415
▁Y	-416
ts	-417
ase	-418
▁there	-419
pect	-420
aus	-421
ang	-422
gyz	-423
yrgyz	-424
lud	-425
▁am	-426
▁after	-427
▁than	-428
fe	-429
▁some	-430
ally	-431
▁rel	-432
ance	-433
▁pre	-434
▁again	-435
▁Se	-436
▁med	-437
hed	-438
cy	-439
▁over	-440
gan	-441
▁St	-442
ind	-443
ark	-444
ious	-445
ons	-446
ens	-447
▁country	-448
▁dec	-449
▁add	-450
▁qu	-451
▁Kh	-452
ven	-453
day	-454
ove	-455
we	-456
▁bet	-457
ments	-458
▁?	-459
▁/	-460
▁fir	-461
ject	-462
reat	-463
oll	-464
ev	-465
uss	-466
▁4	-467
ild	-468
ted	-469
▁co	-470
uring	-471
ries	-472
▁19	-473
▁We	-474
▁Tajik	-475
▁official	-476
▁prov	-477
▁act	-478
▁ro	-479
▁Sh	-480
▁--	-481
▁5	-482
og	-483
▁Kyrgyz	-484
ail	-485
lam	-486
▁includ	-487
bek	-488
▁Un	-489
▁ind	-490
▁state	-491
rib	-492
ral	-493
▁imp	-494
ents	-495
own	-496
ince	-497
able	-498
▁lead	-499
azakh	-500
▁years	-501
▁no	-502
▁first	-503
▁any	-504
lect	-505
erv	-506
▁against	-507
▁under	-508
▁$	-509
ater	-510
ash	-511
ternational	-512
ause	-513
are	-514
ood	-515
ists	-516
av	-517
▁when	-518
ite	-519
form	-520
▁tra	-521
▁And	-522
ror	-523
▁On	-524
ublic	-525
ied	-526
▁Egyptian	-527
ording	-528
ced	-529
ike	-530
ism	-531
rest	-532
▁%	-533
▁sc	-534
velop	-535
▁our	-536
▁police	-537
▁security	-538
▁time	-539
▁she	-540
act	-541
▁cr	-542
ned	-543
▁attack	-544
ning	-545
▁her	-546
ween	-547
rab	-548
old	-549
uth	-550
conom	-551
ors	-552
▁into	-553
▁what	-554
▁oper	-555
▁between	-556
rough	-557
roup	-558
AN	-559
alib	-560
▁cons	-561
ai	-562
▁Ab	-563
▁countries	-564
▁pr	-565
▁mem	-566
▁told	-567
aliban	-568
ram	-569
▁Cent	-570
ings	-571
▁Kazakh	-572
pport	-573
▁only	-574
oy	-575
vers	-576
ating	-577
ob	-578
air	-579
feren	-580
▁invest	-581
ise	-582
med	-583
▁fin	-584
ink	-585
▁app	-586
ough	-587
▁such	-588
▁Com	-589
ars	-590
▁last	-591
▁spe	-592
▁kn	-593
ting	-594
▁mon	-595
▁terror	-596
uthor	-597
▁ra	-598
ran	-599
ool	-600
000	-601
▁million	-602
amp	-603
uc	-604
▁during	-605
▁polit	-606
ener	-607
ull	-608
▁call	-609
zbek	-610
▁But	-611
iss	-612
▁Islam	-613
ited	-614
▁ass	-615
▁Z	-616
meric	-617
▁like	-618
▁my	-619
▁Taliban	-620
▁need	-621
▁say	-622
▁law	-623
▁Q	-624
ook	-625
,000	-626
▁6	-627
eb	-628
als	-629
▁This	-630
▁him	-631
▁pos	-632
▁Arab	-633
▁sch	-634
wn	-635
ms	-636
▁econom	-637
▁group	-638
get	-639
▁right	-640
ord	-641
▁child	-642
▁bl	-643
▁compan	-644
▁media	-645
oreign	-646
▁if	-647
▁hel	-648
▁killed	-649
ency	-650
rael	-651
▁stud	-652
▁could	-653
▁Americ	-654
▁militants	-655
▁those	-656
ty	-657
ives	-658
▁three	-659
▁develop	-660
▁because	-661
▁De	-662
▁num	-663
men	-664
▁bu	-665
bers	-666
▁Israel	-667
▁produ	-668
▁through	-669
▁rem	-670
▁now	-671
urk	-672
▁They	-673
▁President	-674
▁world	-675
▁201	-676
▁;	-677
▁Minister	-678
▁just	-679
ck	-680
▁get	-681
▁organ	-682
▁help	-683
▁US	-684
▁wom	-685
▁ext	-686
▁should	-687
li	-688
arch	-689
▁eff	-690
▁Afghanistan	-691
ory	-692
ug	-693
▁project	-694
resent	-695
▁these	-696
▁incre	-697
▁according	-698
ility	-699
▁dem	-700
▁7	-701
ower	-702
▁import	-703
fore	-704
▁V	-705
▁meet	-706
▁support	-707
▁mark	-708
▁Kazakhstan	-709
▁fl	-710
▁most	-711
▁Uzbek	-712
▁op	-713
ution	-714
yst	-715
▁how	-716
▁Central	-717
▁rep	-718
▁school	-719
▁political	-720
▁conf	-721
ative	-722
mit	-723
ble	-724
rov	-725
▁em	-726
▁iss	-727
▁disc	-728
▁added	-729
▁international	-730
▁dep	-731
pr	-732
ures	-733
▁billion	-734
▁where	-735
▁many	-736
ased	-737
other	-738
▁ob	-739
▁car	-740
amil	-741
▁10	-742
▁8	-743
▁loc	-744
▁end	-745
▁officials	-746
row	-747
SH	-748
▁war	-749
▁Turk	-750
▁dif	-751
ered	-752
ham	-753
▁Wh	-754
ict	-755
riv	-756
hip	-757
▁minist	-758
▁ins	-759
▁forces	-760
vent	-761
und	-762
▁cent	-763
▁New	-764
ital	-765
rem	-766
les	-767
▁number	-768
▁president	-769
▁poin	-770
ange	-771
▁plan	-772
▁did	-773
▁set	-774
line	-775
ues	-776
▁ann	-777
▁well	-778
cess	-779
▁month	-780
mber	-781
ll	-782
ft	-783
▁exp	-784
▁public	-785
rit	-786
▁bom	-787
▁every	-788
AR	-789
▁gr	-790
AT	-791
uro	-792
▁des	-793
▁head	-794
alk	-795
▁expl	-796
▁start	-797
▁det	-798
ath	-799
xt	-800
aking	-801
▁prog	-802
▁trans	-803
▁prot	-804
▁children	-805
▁Re	-806
▁Asia	-807
▁pers	-808
af	-809
▁market	-810
▁ent	-811
▁def	-812
▁bor	-813
▁being	-814
▁including	-815
raq	-816
ised	-817
▁author	-818
▁elect	-819
eneral	-820
▁ph	-821
▁while	-822
rict	-823
▁take	-824
▁region	-825
arli	-826
ful	-827
io	-828
▁know	-829
▁Iraq	-830
ey	-831
uman	-832
▁soc	-833
▁[	-834
▁est	-835
ick	-836
▁]	-837
leg	-838
▁vis	-839
stit	-840
▁famil	-841
▁bank	-842
hes	-843
uch	-844
ament	-845
▁cur	-846
cond	-847
▁then	-848
▁export	-849
▁may	-850
iet	-851
alth	-852
▁conc	-853
▁ed	-854
▁want	-855
iness	-856
▁9	-857
▁ac	-858
▁bus	-859
ible	-860
ics	-861
▁made	-862
▁partic	-863
▁Pal	-864
ual	-865
iy	-866
▁women	-867
▁bel	-868
its	-869
▁ret	-870
ron	-871
▁sus	-872
rug	-873
▁serv	-874
▁before	-875
urn	-876
▁day	-877
ages	-878
iol	-879
▁even	-880
ines	-881
▁national	-882
▁cap	-883
▁peace	-884
▁sur	-885
▁Tajikistan	-886
▁dire	-887
▁Kar	-888
▁four	-889
hen	-890
ural	-891
▁foreign	-892
cil	-893
ands	-894
▁resp	-895
une	-896
▁high	-897
▁sign	-898
ivers	-899
▁Ministry	-900
▁back	-901
ular	-902
▁members	-903
▁make	-904
▁very	-905
▁ref	-906
▁military	-907
▁sit	-908
▁your	-909
ief	-910
sh	-911
▁week	-912
▁area	-913
ior	-914
▁down	-915
ife	-916
▁sub	-917
▁proble	-918
ever	-919
outh	-920
oth	-921
▁long	-922
ract	-923
ision	-924
▁think	-925
▁sm	-926
▁second	-927
▁gu	-928
▁inter	-929
ared	-930
ork	-931
▁cour	-932
▁dist	-933
ON	-934
ER	-935
▁activ	-936
elf	-937
▁American	-938
ized	-939
ystem	-940
▁Palest	-941
ians	-942
ather	-943
rent	-944
ix	-945
▁recent	-946
lim	-947
led	-948
▁Kyrgyzstan	-949
▁UN	-950
▁says	-951
▁don	-952
▁Ag	-953
▁Pol	-954
▁economic	-955
▁contin	-956
▁15	-957
ific	-958
▁Russ	-959
▁since	-960
▁arrest	-961
tle	-962
ock	-963
pected	-964
iew	-965
▁There	-966
▁Ind	-967
tee	-968
▁open	-969
ollow	-970
▁power	-971
ember	-972
ert	-973
▁program	-974
ret	-975
▁aff	-976
stru	-977
uly	-978
▁way	-979
ouncil	-980
▁National	-981
▁system	-982
ady	-983
▁fe	-984
ward	-985
mad	-986
▁bomb	-987
urope	-988
▁far	-989
▁str	-990
▁At	-991
▁11	-992
ush	-993
..	-994
way	-995
ph	-996
▁fight	-997
▁own	-998
▁local	-999
osed	-1000
▁play	-1001
ond	-1002
▁viol	-1003
▁news	-1004
▁good	-1005
▁commit	-1006
orth	-1007
▁border	-1008
▁12	-1009
▁inte	-1010
▁She	-1011
lear	-1012
ration	-1013
▁Sa	-1014
▁May	-1015
▁Pakistani	-1016
EN	-1017
ivil	-1018
▁see	-1019
▁br	-1020
▁agree	-1021
▁rece	-1022
▁Europe	-1023
au	-1024
▁Mo	-1025
arg	-1026
▁col	-1027
▁relig	-1028
▁For	-1029
▁inf	-1030
ained	-1031
▁follow	-1032
ured	-1033
▁Jan	-1034
kh	-1035
▁exper	-1036
▁requ	-1037
▁still	-1038
imes	-1039
eration	-1040
▁business	-1041
▁es	-1042
formation	-1043
ti	-1044
▁Palestin	-1045
▁So	-1046
ute	-1047
ources	-1048
OR	-1049
▁Abd	-1050
▁human	-1051
▁main	-1052
▁called	-1053
pril	-1054
reed	-1055
ved	-1056
▁person	-1057
ouse	-1058
▁show	-1059
▁press	-1060
ES	-1061
ton	-1062
▁ask	-1063
▁doll	-1064
▁~	-1065
rol	-1066
ided	-1067
▁educ	-1068
▁polic	-1069
ness	-1070
▁...	-1071
▁companies	-1072
▁June	-1073
ayev	-1074
▁~~	-1075
▁differen	-1076
▁train	-1077
▁leaders	-1078
abl	-1079
rat	-1080
eh	-1081
▁water	-1082
▁met	-1083
ss	-1084
▁Ob	-1085
▁join	-1086
▁Sy	-1087
▁mat	-1088
▁use	-1089
▁place	-1090
ission	-1091
▁buil	-1092
▁found	-1093
ax	-1094
wa	-1095
▁ev	-1096
ices	-1097
▁poss	-1098
▁camp	-1099
▁prom	-1100
▁discuss	-1101
▁same	-1102
cent	-1103
ina	-1104
arliament	-1105
▁look	-1106
▁authorities	-1107
▁former	-1108
eld	-1109
▁team	-1110
▁commun	-1111
▁fac	-1112
NN	-1113
▁Turkmen	-1114
▁does	-1115
▁bo	-1116
urg	-1117
▁Islamic	-1118
▁United	-1119
▁Iran	-1120
uation	-1121
▁five	-1122
▁pop	-1123
▁meeting	-1124
▁fi	-1125
▁areas	-1126
▁leg	-1127
▁Ar	-1128
▁civil	-1129
▁going	-1130
uary	-1131
▁talk	-1132
ished	-1133
▁near	-1134
ave	-1135
▁ser	-1136
▁199	-1137
▁Con	-1138
▁cit	-1139
omet	-1140
▁Mus	-1141
esh	-1142
▁April	-1143
ody	-1144
▁run	-1145
IN	-1146
▁air	-1147
▁put	-1148
ases	-1149
▁How	-1150
ued	-1151
▁another	-1152
▁operation	-1153
▁July	-1154
▁drug	-1155
ually	-1156
chn	-1157
ani	-1158
▁much	-1159
veral	-1160
▁spok	-1161
ptember	-1162
ullah	-1163
▁cond	-1164
▁statement	-1165
▁CNN	-1166
▁ap	-1167
▁city	-1168
▁News	-1169
ern	-1170
▁En	-1171
▁interest	-1172
▁Dr	-1173
▁opp	-1174
▁March	-1175
▁among	-1176
▁Khan	-1177
minist	-1178
▁real	-1179
be	-1180
itions	-1181
▁pa	-1182
cret	-1183
hing	-1184
▁January	-1185
▁30	-1186
▁indust	-1187
▁Ass	-1188
urs	-1189
▁bro	-1190
▁inj	-1191
▁development	-1192
▁life	-1193
▁hand	-1194
▁rights	-1195
ctors	-1196
cept	-1197
▁Israeli	-1198
▁rest	-1199
▁Uzbekistan	-1200
▁days	-1201
ale	-1202
▁pass	-1203
arge	-1204
▁September	-1205
ference	-1206
uty	-1207
▁men	-1208
▁Online	-1209
▁result	-1210
my	-1211
▁min	-1212
▁announ	-1213
ajor	-1214
▁establ	-1215
▁ele	-1216
▁next	-1217
ient	-1218
▁cor	-1219
ified	-1220
ross	-1221
ounds	-1222
ober	-1223
▁Aug	-1224
▁Bank	-1225
▁Leb	-1226
cing	-1227
▁effort	-1228
▁attacks	-1229
▁health	-1230
▁held	-1231
ourn	-1232
▁la	-1233
ising	-1234
▁extrem	-1235
oney	-1236
▁happ	-1237
▁ce	-1238
AB	-1239
ling	-1240
▁company	-1241
aim	-1242
▁14	-1243
▁Leban	-1244
▁Pro	-1245
▁both	-1246
▁finan	-1247
ST	-1248
▁cre	-1249
▁tar	-1250
ried	-1251
▁increase	-1252
▁grow	-1253
▁others	-1254
oung	-1255
▁Police	-1256
▁represent	-1257
ization	-1258
▁Ad	-1259
▁several	-1260
▁priv	-1261
▁around	-1262
▁International	-1263
▁18	-1264
▁tak	-1265
▁family	-1266
▁move	-1267
▁come	-1268
orld	-1269
▁occ	-1270
▁If	-1271
▁percent	-1272
iving	-1273
▁25	-1274
▁current	-1275
▁visit	-1276
▁comple	-1277
▁used	-1278
▁office	-1279
▁though	-1280
▁took	-1281
▁parliament	-1282
ploy	-1283
▁information	-1284
ves	-1285
iversity	-1286
▁August	-1287
ering	-1288
▁lit	-1289
▁terrorism	-1290
▁Palestinian	-1291
pecial	-1292
▁ke	-1293
▁special	-1294
▁trade	-1295
▁Part	-1296
▁minister	-1297
▁deal	-1298
▁must	-1299
rain	-1300
▁situation	-1301
▁Oct	-1302
▁free	-1303
ese	-1304
▁Syri	-1305
▁belie	-1306
ets	-1307
▁past	-1308
rying	-1309
idd	-1310
▁threat	-1311
ides	-1312
ived	-1313
iation	-1314
▁World	-1315
awar	-1316
ene	-1317
ison	-1318
▁Security	-1319
▁major	-1320
▁death	-1321
cies	-1322
▁Or	-1323
ination	-1324
▁adv	-1325
ama	-1326
▁che	-1327
▁religious	-1328
▁leader	-1329
▁Dep	-1330
ops	-1331
▁months	-1332
▁might	-1333
ec	-1334
▁old	-1335
▁home	-1336
osp	-1337
▁order	-1338
▁particip	-1339
cember	-1340
▁money	-1341
▁Council	-1342
▁art	-1343
▁That	-1344
▁val	-1345
me	-1346
▁least	-1347
oot	-1348
▁Muslim	-1349
▁great	-1350
▁young	-1351
▁here	-1352
▁party	-1353
▁different	-1354
ving	-1355
▁organis	-1356
▁big	-1357
▁important	-1358
▁few	-1359
▁13	-1360
▁techn	-1361
iyev	-1362
▁State	-1363
▁Mu	-1364
▁without	-1365
▁pay	-1366
▁six	-1367
▁cost	-1368
▁Pr	-1369
▁came	-1370
▁hit	-1371
▁groups	-1372
ote	-1373
▁gas	-1374
ebru	-1375
▁Agency	-1376
ebruary	-1377
▁dollars	-1378
iety	-1379
▁target	-1380
▁each	-1381
▁projects	-1382
▁building	-1383
side	-1384
▁spokes	-1385
▁oil	-1386
▁trib	-1387
▁invol	-1388
ention	-1389
▁working	-1390
▁dest	-1391
ulation	-1392
▁You	-1393
▁po	-1394
used	-1395
▁hop	-1396
ards	-1397
▁equ	-1398
▁sl	-1399
adio	-1400
▁effect	-1401
ergy	-1402
eshawar	-1403
▁17	-1404
artment	-1405
▁process	-1406
▁supp	-1407
▁fund	-1408
ption	-1409
▁rele	-1410
ten	-1411
▁level	-1412
▁December	-1413
▁October	-1414
▁protect	-1415
ym	-1416
idents	-1417
▁beg	-1418
▁prof	-1419
▁16	-1420
hern	-1421
ended	-1422
ending	-1423
▁arrested	-1424
▁sent	-1425
▁capital	-1426
▁form	-1427
ari	-1428
udi	-1429
▁Am	-1430
▁respons	-1431
▁Rep	-1432
▁exports	-1433
▁What	-1434
any	-1435
augh	-1436
▁Ah	-1437
▁allow	-1438
ibility	-1439
iod	-1440
achi	-1441
hammad	-1442
ovember	-1443
▁won	-1444
▁States	-1445
▁pat	-1446
▁quest	-1447
▁ear	-1448
▁prop	-1449
▁sim	-1450
ession	-1451
▁present	-1452
▁vict	-1453
ird	-1454
▁February	-1455
▁education	-1456
▁Dist	-1457
els	-1458
▁win	-1459
ournal	-1460
AL	-1461
▁sol	-1462
▁tot	-1463
zh	-1464
ner	-1465
icide	-1466
rop	-1467
ged	-1468
▁relations	-1469
▁mod	-1470
ately	-1471
▁Acc	-1472
▁social	-1473
▁rev	-1474
▁case	-1475
▁Fr	-1476
▁field	-1477
▁fa	-1478
▁somet	-1479
▁within	-1480
▁exch	-1481
▁ide	-1482
▁!	-1483
▁become	-1484
▁sen	-1485
last	-1486
ressed	-1487
pecially	-1488
▁sector	-1489
▁IN	-1490
▁period	-1491
ize	-1492
▁neg	-1493
▁District	-1494
ying	-1495
▁students	-1496
▁Ex	-1497
ys	-1498
airman	-1499
▁stand	-1500
▁Peshawar	-1501
▁remain	-1502
▁agreement	-1503
▁Pe	-1504
▁especially	-1505
▁ve	-1506
▁November	-1507
▁schools	-1508
oms	-1509
▁av	-1510
zai	-1511
▁prep	-1512
▁investig	-1513
land	-1514
▁laun	-1515
▁deb	-1516
ims	-1517
▁cult	-1518
▁Comm	-1519
▁South	-1520
▁chief	-1521
cretary	-1522
▁too	-1523
▁job	-1524
▁Mr	-1525
struction	-1526
▁violence	-1527
▁thous	-1528
gest	-1529
▁suicide	-1530
▁food	-1531
duct	-1532
▁citiz	-1533
ffic	-1534
▁claim	-1535
▁control	-1536
ined	-1537
osition	-1538
ically	-1539
eda	-1540
ogy	-1541
▁Commit	-1542
▁weap	-1543
epend	-1544
▁meas	-1545
TI	-1546
eng	-1547
▁appe	-1548
▁Karachi	-1549
▁gl	-1550
atives	-1551
▁TO	-1552
▁stop	-1553
▁hal	-1554
▁2001	-1555
CE	-1556
▁post	-1557
▁adding	-1558
▁road	-1559
▁fut	-1560
abad	-1561
▁find	-1562
▁Author	-1563
▁left	-1564
▁del	-1565
▁operations	-1566
oss	-1567
▁Me	-1568
▁problems	-1569
▁Committee	-1570
▁land	-1571
▁asked	-1572
lement	-1573
▁However	-1574
▁tax	-1575
bayev	-1576
▁small	-1577
▁IS	-1578
tun	-1579
irl	-1580
ready	-1581
▁ago	-1582
▁product	-1583
▁All	-1584
aeda	-1585
olog	-1586
ribut	-1587
▁announced	-1588
▁spokesman	-1589
ched	-1590
▁started	-1591
aign	-1592
pped	-1593
▁unt	-1594
▁saying	-1595
▁protest	-1596
na	-1597
▁private	-1598
▁fact	-1599
ened	-1600
▁24	-1601
inal	-1602
▁General	-1603
▁According	-1604
ends	-1605
▁Le	-1606
yber	-1607
▁pres	-1608
mat	-1609
encies	-1610
com	-1611
rove	-1612
▁Tr	-1613
▁large	-1614
▁went	-1615
▁LE	-1616
▁banks	-1617
▁member	-1618
AM	-1619
iber	-1620
▁let	-1621
▁rate	-1622
operation	-1623
▁care	-1624
▁decision	-1625
overn	-1626
▁explos	-1627
▁vill	-1628
▁already	-1629
▁taken	-1630
▁Prov	-1631
empt	-1632
▁future	-1633
▁compet	-1634
▁addition	-1635
▁give	-1636
▁training	-1637
▁beh	-1638
oto	-1639
▁reform	-1640
emb	-1641
ential	-1642
▁tour	-1643
▁rul	-1644
▁campaign	-1645
▁view	-1646
chie	-1647
▁anti	-1648
▁today	-1649
▁consid	-1650
▁Im	-1651
▁Afric	-1652
ason	-1653
AD	-1654
▁efforts	-1655
ke	-1656
▁Ali	-1657
▁journal	-1658
▁pounds	-1659
▁Inter	-1660
▁provide	-1661
ium	-1662
▁Foreign	-1663
▁general	-1664
▁financial	-1665
▁Lib	-1666
▁role	-1667
▁succ	-1668
.5	-1669
▁Russian	-1670
▁expected	-1671
▁issue	-1672
▁nat	-1673
arm	-1674
▁pointed	-1675
airs	-1676
nes	-1677
fic	-1678
▁terrorist	-1679
▁achie	-1680
▁change	-1681
▁problem	-1682
▁administ	-1683
▁sum	-1684
▁2010	-1685
ability	-1686
ilities	-1687
oh	-1688
▁ord	-1689
pects	-1690
▁never	-1691
▁got	-1692
ience	-1693
istance	-1694
ired	-1695
▁exchange	-1696
▁sources	-1697
▁inst	-1698
▁parties	-1699
ology	-1700
ali	-1701
▁No	-1702
▁total	-1703
▁conference	-1704
less	-1705
▁really	-1706
que	-1707
▁Ph	-1708
▁prevent	-1709
▁establish	-1710
▁redu	-1711
iven	-1712
vious	-1713
▁sold	-1714
ova	-1715
▁Sw	-1716
▁court	-1717
▁elections	-1718
▁Khyber	-1719
ours	-1720
urned	-1721
ocrat	-1722
▁dra	-1723
▁investment	-1724
▁bas	-1725
uge	-1726
▁kid	-1727
▁China	-1728
▁22	-1729
aring	-1730
▁short	-1731
▁begin	-1732
▁2009	-1733
ricult	-1734
▁Party	-1735
▁success	-1736
▁fail	-1737
▁keep	-1738
▁anal	-1739
▁demand	-1740
▁Be	-1741
▁decl	-1742
▁production	-1743
▁Mal	-1744
ya	-1745
▁step	-1746
ara	-1747
ier	-1748
here	-1749
ways	-1750
▁energy	-1751
▁possible	-1752
iron	-1753
gr	-1754
▁hist	-1755
▁weapons	-1756
▁due	-1757
▁lo	-1758
sel	-1759
▁50	-1760
roops	-1761
nel	-1762
ENT	-1763
▁One	-1764
▁ban	-1765
▁implement	-1766
BE	-1767
▁pric	-1768
▁AF	-1769
▁kind	-1770
▁crit	-1771
▁Now	-1772
ality	-1773
▁European	-1774
utions	-1775
▁less	-1776
▁able	-1777
▁until	-1778
▁house	-1779
▁recently	-1780
▁study	-1781
▁100	-1782
▁based	-1783
rial	-1784
▁21	-1785
orn	-1786
▁Saudi	-1787
iti	-1788
▁injured	-1789
▁director	-1790
▁trad	-1791
▁direct	-1792
urd	-1793
▁Russia	-1794
▁army	-1795
ED	-1796
▁clear	-1797
▁treat	-1798
▁particular	-1799
▁command	-1800
iddle	-1801
▁means	-1802
▁little	-1803
stitution	-1804
▁things	-1805
▁*	-1806
ises	-1807
self	-1808
▁nation	-1809
▁led	-1810
▁Turkmenistan	-1811
▁lear	-1812
ger	-1813
asing	-1814
▁citizens	-1815
azir	-1816
▁received	-1817
iding	-1818
thing	-1819
most	-1820
vest	-1821
▁agencies	-1822
pa	-1823
▁Gh	-1824
ront	-1825
▁cust	-1826
idence	-1827
▁joint	-1828
▁hol	-1829
▁chang	-1830
▁sk	-1831
work	-1832
▁vol	-1833
▁opposition	-1834
▁prices	-1835
▁top	-1836
▁cert	-1837
▁society	-1838
▁When	-1839
▁book	-1840
▁Qaeda	-1841
▁return	-1842
apan	-1843
▁killing	-1844
▁independ	-1845
▁provin	-1846
ION	-1847
▁girl	-1848
▁something	-1849
▁hosp	-1850
▁Republic	-1851
ots	-1852
▁ident	-1853
▁u	-1854
▁fil	-1855
▁sug	-1856
▁away	-1857
▁along	-1858
▁needs	-1859
▁include	-1860
▁workers	-1861
▁face	-1862
▁Radio	-1863
▁better	-1864
ource	-1865
▁following	-1866
▁committee	-1867
bass	-1868
▁mov	-1869
▁activities	-1870
SHK	-1871
itive	-1872
▁list	-1873
▁Province	-1874
▁bre	-1875
▁force	-1876
stand	-1877
▁economy	-1878
ony	-1879
▁troops	-1880
▁Some	-1881
▁necess	-1882
▁dom	-1883
▁z	-1884
▁Brit	-1885
▁gener	-1886
▁23	-1887
▁Mon	-1888
▁service	-1889
▁cooperation	-1890
▁making	-1891
olution	-1892
▁taking	-1893
▁Iraqi	-1894
▁yes	-1895
▁half	-1896
▁coming	-1897
▁trying	-1898
rip	-1899
▁fri	-1900
▁var	-1901
att	-1902
▁Japan	-1903
▁cases	-1904
▁third	-1905
▁name	-1906
▁best	-1907
▁Te	-1908
ikh	-1909
▁den	-1910
▁Oblast	-1911
▁reports	-1912
▁KP	-1913
ceed	-1914
▁issues	-1915
▁Shah	-1916
▁hold	-1917
▁pot	-1918
▁strong	-1919
▁Lebanon	-1920
▁Shar	-1921
▁University	-1922
uclear	-1923
▁programme	-1924
▁ri	-1925
uf	-1926
itor	-1927
▁mus	-1928
▁bring	-1929
▁improve	-1930
▁continue	-1931
▁mar	-1932
▁2008	-1933
ored	-1934
▁alleg	-1935
▁dam	-1936
▁seek	-1937
▁industry	-1938
▁community	-1939
▁services	-1940
▁Prime	-1941
▁whether	-1942
▁population	-1943
▁feel	-1944
▁hard	-1945
▁40	-1946
▁cut	-1947
▁bill	-1948
ounded	-1949
uk	-1950
orm	-1951
iting	-1952
▁el	-1953
eral	-1954
▁Sal	-1955
ficult	-1956
▁policy	-1957
▁measures	-1958
▁fire	-1959
▁Govern	-1960
isis	-1961
udget	-1962
▁fun	-1963
▁employ	-1964
abul	-1965
ily	-1966
ached	-1967
▁militant	-1968
aged	-1969
urther	-1970
▁Ham	-1971
ats	-1972
▁later	-1973
▁agreed	-1974
▁kg	-1975
▁difficult	-1976
▁ca	-1977
▁attempt	-1978
▁conduct	-1979
▁strate	-1980
ana	-1981
▁election	-1982
oti	-1983
erman	-1984
▁cand	-1985
▁why	-1986
▁After	-1987
selves	-1988
▁reach	-1989
▁28	-1990
ators	-1991
▁Union	-1992
▁suff	-1993
ighb	-1994
▁dead	-1995
▁26	-1996
▁fig	-1997
▁tribal	-1998
▁dev	-1999
▁pur	-2000
▁began	-2001
▁link	-2002
▁tru	-2003
▁27	-2004
ights	-2005
acher	-2006
▁charg	-2007
IT	-2008
ences	-2009
IL	-2010
ta	-2011
▁prison	-2012
GY	-2013
oura	-2014
▁Syria	-2015
embly	-2016
▁To	-2017
▁families	-2018
onst	-2019
ruct	-2020
ories	-2021
▁suspected	-2022
▁Tw	-2023
▁Teh	-2024
▁affect	-2025
▁Res	-2026
▁North	-2027
▁residents	-2028
iers	-2029
▁env	-2030
▁question	-2031
▁toward	-2032
EC	-2033
▁plans	-2034
▁plant	-2035
▁neighb	-2036
overed	-2037
add	-2038
▁amount	-2039
▁close	-2040
▁youth	-2041
▁live	-2042
ames	-2043
airo	-2044
▁district	-2045
▁crisis	-2046
▁eth	-2047
▁officers	-2048
aff	-2049
▁coun	-2050
▁early	-2051
▁emer	-2052
▁confir	-2053
▁aid	-2054
▁eas	-2055
▁Asian	-2056
▁across	-2057
ins	-2058
▁Develop	-2059
▁serious	-2060
ashk	-2061
crib	-2062
▁conflic	-2063
▁caus	-2064
▁ens	-2065
ports	-2066
▁pract	-2067
▁mass	-2068
pportun	-2069
▁signed	-2070
▁Secretary	-2071
IC	-2072
▁eng	-2073
isc	-2074
ds	-2075
▁Ash	-2076
▁nuclear	-2077
emen	-2078
▁destro	-2079
ID	-2080
aq	-2081
▁source	-2082
▁Col	-2083
▁stre	-2084
▁given	-2085
▁opportun	-2086
urb	-2087
▁account	-2088
▁budget	-2089
▁Ge	-2090
▁cann	-2091
akes	-2092
▁host	-2093
▁outside	-2094
ees	-2095
▁products	-2096
▁fighting	-2097
▁lot	-2098
▁toget	-2099
▁together	-2100
▁Sun	-2101
▁Gul	-2102
▁issued	-2103
oting	-2104
▁candid	-2105
▁enc	-2106
▁tajik	-2107
▁died	-2108
▁seem	-2109
▁Fed	-2110
▁suggest	-2111
▁full	-2112
▁deter	-2113
▁Med	-2114
▁net	-2115
wh	-2116
▁Dem	-2117
▁Sc	-2118
▁stri	-2119
▁writ	-2120
▁construction	-2121
cement	-2122
read	-2123
atch	-2124
ury	-2125
▁indic	-2126
▁times	-2127
RO	-2128
▁jud	-2129
▁always	-2130
ters	-2131
ING	-2132
▁crim	-2133
▁Cairo	-2134
▁whose	-2135
▁action	-2136
▁gun	-2137
▁electric	-2138
▁non	-2139
ple	-2140
ones	-2141
▁travel	-2142
▁East	-2143
▁believe	-2144
▁Mar	-2145
ashing	-2146
ironment	-2147
ches	-2148
▁read	-2149
▁demonst	-2150
irc	-2151
▁Wazir	-2152
angu	-2153
▁Development	-2154
▁decided	-2155
ocu	-2156
hamed	-2157
nect	-2158
to	-2159
▁chall	-2160
sec	-2161
icle	-2162
▁point	-2163
▁hig	-2164
iday	-2165
▁thing	-2166
mon	-2167
AW	-2168
iver	-2169
▁stat	-2170
ator	-2171
▁seven	-2172
▁previous	-2173
▁class	-2174
▁2011	-2175
▁side	-2176
▁IM	-2177
▁regional	-2178
och	-2179
▁bene	-2180
▁almost	-2181
▁further	-2182
▁infl	-2183
▁access	-2184
▁Department	-2185
▁Interior	-2186
▁once	-2187
nic	-2188
▁senior	-2189
▁conv	-2190
▁mor	-2191
▁body	-2192
▁obs	-2193
GYP	-2194
▁miss	-2195
▁lack	-2196
▁approv	-2197
▁lost	-2198
▁light	-2199
▁These	-2200
▁however	-2201
▁reb	-2202
▁fall	-2203
▁hope	-2204
▁Ba	-2205
▁mean	-2206
afi	-2207
▁Co	-2208
▁tell	-2209
▁known	-2210
▁intern	-2211
▁sw	-2212
▁conditions	-2213
ley	-2214
▁farm	-2215
▁ministry	-2216
▁province	-2217
▁Sp	-2218
▁Eng	-2219
▁involved	-2220
▁prin	-2221
▁victims	-2222
hel	-2223
▁lab	-2224
▁mess	-2225
▁disp	-2226
terday	-2227
aughter	-2228
akistan	-2229
▁concern	-2230
fer	-2231
azar	-2232
▁test	-2233
▁using	-2234
▁colle	-2235
▁PE	-2236
idered	-2237
▁late	-2238
ocratic	-2239
ners	-2240
rick	-2241
rents	-2242
▁Obama	-2243
outhern	-2244
▁aim	-2245
isk	-2246
ample	-2247
▁Pakh	-2248
▁cannot	-2249
▁course	-2250
▁respect	-2251
▁negoti	-2252
▁docu	-2253
▁EGYP	-2254
▁value	-2255
▁station	-2256
ishk	-2257
▁ren	-2258
▁instit	-2259
hib	-2260
▁considered	-2261
▁investments	-2262
over	-2263
arlier	-2264
TP	-2265
por	-2266
▁freed	-2267
▁eight	-2268
▁German	-2269
▁mater	-2270
▁With	-2271
▁included	-2272
▁central	-2273
the	-2274
ih	-2275
▁sal	-2276
▁People	-2277
▁sing	-2278
▁agency	-2279
▁insurg	-2280
ishkek	-2281
mar	-2282
▁terrorists	-2283
arian	-2284
▁connect	-2285
obal	-2286
▁29	-2287
▁dri	-2288
▁south	-2289
aza	-2290
rench	-2291
▁town	-2292
▁concer	-2293
by	-2294
▁counter	-2295
ball	-2296
▁woman	-2297
▁soon	-2298
▁TTP	-2299
▁circ	-2300
▁pakistan	-2301
IS	-2302
ials	-2303
▁agricult	-2304
ee	-2305
ume	-2306
ening	-2307
▁foc	-2308
▁lim	-2309
▁rese	-2310
▁regist	-2311
▁analyst	-2312
▁markets	-2313
▁chairman	-2314
tain	-2315
▁turn	-2316
▁AFP	-2317
▁hom	-2318
ring	-2319
leb	-2320
▁deleg	-2321
itness	-2322
▁understand	-2323
▁Az	-2324
▁deputy	-2325
▁lives	-2326
▁AN	-2327
ashington	-2328
▁various	-2329
▁fed	-2330
▁exec	-2331
lus	-2332
▁enough	-2333
CH	-2334
ushan	-2335
▁Organ	-2336
▁OF	-2337
▁urg	-2338
isation	-2339
▁certain	-2340
ivid	-2341
▁Washington	-2342
ubl	-2343
▁enfor	-2344
▁complete	-2345
▁themselves	-2346
▁er	-2347
▁Sud	-2348
▁event	-2349
▁having	-2350
▁responsibility	-2351
▁centre	-2352
▁estim	-2353
EK	-2354
ushanbe	-2355
▁natural	-2356
▁DU	-2357
▁America	-2358
ither	-2359
▁2007	-2360
▁Osh	-2361
▁position	-2362
▁legal	-2363
ump	-2364
▁rather	-2365
▁night	-2366
▁Soc	-2367
▁example	-2368
▁2002	-2369
▁Waziristan	-2370
aster	-2371
▁hospital	-2372
▁Sup	-2373
▁often	-2374
▁states	-2375
▁boy	-2376
▁More	-2377
▁1.	-2378
▁veh	-2379
▁destroy	-2380
ense	-2381
▁plac	-2382
▁rise	-2383
▁talks	-2384
arding	-2385
khwa	-2386
▁occup	-2387
▁increased	-2388
▁fear	-2389
▁reached	-2390
ellig	-2391
▁Muhammad	-2392
▁transport	-2393
▁Comp	-2394
▁Man	-2395
▁increasing	-2396
RA	-2397
while	-2398
▁done	-2399
▁village	-2400
▁appro	-2401
cer	-2402
▁price	-2403
▁ethnic	-2404
▁His	-2405
▁check	-2406
tunkhwa	-2407
ively	-2408
▁tele	-2409
▁wanted	-2410
▁teacher	-2411
odies	-2412
▁My	-2413
ify	-2414
▁ste	-2415
▁adop	-2416
rist	-2417
▁council	-2418
▁line	-2419
▁growth	-2420
▁final	-2421
ociation	-2422
ably	-2423
▁Nations	-2424
▁resources	-2425
▁Cl	-2426
▁hous	-2427
undred	-2428
▁doing	-2429
▁Bal	-2430
▁Middle	-2431
▁personnel	-2432
▁living	-2433
roll	-2434
▁Ma	-2435
ging	-2436
▁spec	-2437
ression	-2438
acy	-2439
▁hours	-2440
▁suspects	-2441
▁mos	-2442
▁record	-2443
▁Kabul	-2444
▁vac	-2445
▁network	-2446
▁Cour	-2447
▁BI	-2448
▁ir	-2449
min	-2450
▁celeb	-2451
ributed	-2452
▁comb	-2453
▁Pakhtunkhwa	-2454
▁comes	-2455
of	-2456
▁request	-2457
▁seen	-2458
▁drugs	-2459
▁organisations	-2460
jab	-2461
▁Sudan	-2462
▁mother	-2463
▁0	-2464
▁Ak	-2465
▁French	-2466
▁bodies	-2467
ogn	-2468
utes	-2469
▁par	-2470
▁potential	-2471
▁Bar	-2472
though	-2473
▁individ	-2474
mercial	-2475
▁thousand	-2476
reng	-2477
rought	-2478
hood	-2479
▁Assembly	-2480
▁dou	-2481
▁accept	-2482
▁presidential	-2483
▁ton	-2484
▁history	-2485
▁Lebanese	-2486
let	-2487
▁key	-2488
▁matter	-2489
▁build	-2490
▁didn	-2491
▁yet	-2492
▁father	-2493
▁provided	-2494
▁esc	-2495
estic	-2496
▁environment	-2497
road	-2498
▁opened	-2499
▁il	-2500
bs	-2501
▁exist	-2502
▁benef	-2503
▁accused	-2504
▁modern	-2505
▁soldiers	-2506
pite	-2507
aden	-2508
▁Em	-2509
rew	-2510
SHKEK	-2511
▁proper	-2512
▁movement	-2513
raph	-2514
▁BISHKEK	-2515
▁pri	-2516
▁low	-2517
▁cred	-2518
▁contract	-2519
▁create	-2520
▁risk	-2521
estern	-2522
▁electricity	-2523
go	-2524
ival	-2525
▁shall	-2526
▁behind	-2527
yan	-2528
▁mot	-2529
▁Dire	-2530
▁House	-2531
▁Court	-2532
body	-2533
ients	-2534
▁blast	-2535
▁Kazakhstani	-2536
▁governor	-2537
▁bar	-2538
▁wounded	-2539
▁avail	-2540
anger	-2541
SHAW	-2542
inese	-2543
ancy	-2544
SHAWAR	-2545
▁PESHAWAR	-2546
▁char	-2547
▁thought	-2548
ensive	-2549
▁design	-2550
UL	-2551
▁armed	-2552
▁streng	-2553
▁Bishkek	-2554
▁illeg	-2555
oon	-2556
elligence	-2557
▁administration	-2558
ilar	-2559
▁inside	-2560
▁medical	-2561
▁British	-2562
▁hot	-2563
hab	-2564
▁coal	-2565
▁larg	-2566
▁Qu	-2567
ery	-2568
▁son	-2569
▁parents	-2570
▁i	-2571
▁rates	-2572
▁conflict	-2573
▁Su	-2574
▁describ	-2575
▁kazakh	-2576
▁expressed	-2577
org	-2578
▁sell	-2579
ordan	-2580
cip	-2581
▁recogn	-2582
▁wr	-2583
▁reason	-2584
▁alleged	-2585
▁encoura	-2586
▁Authority	-2587
▁CO	-2588
▁capt	-2589
ruption	-2590
raf	-2591
▁exc	-2592
ipment	-2593
▁necessary	-2594
ructure	-2595
EL	-2596
▁publ	-2597
agement	-2598
use	-2599
arth	-2600
paper	-2601
▁idea	-2602
▁India	-2603
▁initi	-2604
ains	-2605
▁achieve	-2606
▁organisation	-2607
imov	-2608
uel	-2609
▁vot	-2610
▁dr	-2611
▁laws	-2612
▁Jordan	-2613
▁global	-2614
▁leadership	-2615
▁langu	-2616
▁EU	-2617
▁stage	-2618
▁actually	-2619
aily	-2620
▁yesterday	-2621
rate	-2622
▁events	-2623
▁Iranian	-2624
ask	-2625
atic	-2626
▁ru	-2627
▁Swat	-2628
▁Mean	-2629
▁Ahmed	-2630
▁foot	-2631
▁OS	-2632
osing	-2633
ET	-2634
▁div	-2635
aries	-2636
▁loss	-2637
▁southern	-2638
▁ensure	-2639
UR	-2640
awn	-2641
DP	-2642
▁journalists	-2643
▁improv	-2644
ze	-2645
LAM	-2646
▁girls	-2647
par	-2648
ABAD	-2649
ague	-2650
▁flood	-2651
▁Meanwhile	-2652
▁kyrgyz	-2653
▁particularly	-2654
▁newspaper	-2655
▁Commission	-2656
ades	-2657
▁results	-2658
SHAN	-2659
medi	-2660
▁whole	-2661
▁cou	-2662
▁Abdul	-2663
unjab	-2664
▁fore	-2665
ler	-2666
▁earlier	-2667
▁Friday	-2668
▁consider	-2669
▁CA	-2670
STAN	-2671
itional	-2672
phas	-2673
sy	-2674
▁bombing	-2675
▁198	-2676
▁Bak	-2677
▁60	-2678
year	-2679
uties	-2680
▁respon	-2681
▁wa	-2682
▁stay	-2683
▁phone	-2684
▁Syrian	-2685
▁criminal	-2686
ipl	-2687
▁signific	-2688
SHANBE	-2689
rodu	-2690
▁OSCE	-2691
▁Liber	-2692
▁weeks	-2693
▁regime	-2694
▁DUSHANBE	-2695
▁Director	-2696
oud	-2697
▁gold	-2698
▁civilians	-2699
▁Photo	-2700
▁discussed	-2701
▁Her	-2702
▁recon	-2703
▁story	-2704
aps	-2705
▁terms	-2706
▁officer	-2707
▁ten	-2708
▁ISLAM	-2709
ef	-2710
▁emphas	-2711
▁Chinese	-2712
izing	-2713
▁factor	-2714
▁upon	-2715
▁Health	-2716
ead	-2717
▁witness	-2718
BC	-2719
▁hundred	-2720
iles	-2721
▁launched	-2722
▁Africa	-2723
▁2012	-2724
▁became	-2725
ata	-2726
▁gave	-2727
▁Libya	-2728
rig	-2729
omen	-2730
arc	-2731
▁institutions	-2732
struct	-2733
▁Fin	-2734
▁cover	-2735
▁Econom	-2736
▁charges	-2737
▁nothing	-2738
▁Dushanbe	-2739
ott	-2740
▁har	-2741
▁lat	-2742
otton	-2743
▁parts	-2744
▁provincial	-2745
▁noted	-2746
▁domestic	-2747
oint	-2748
▁aut	-2749
▁enforcement	-2750
▁cho	-2751
▁subject	-2752
▁confirmed	-2753
ological	-2754
▁currently	-2755
▁Tues	-2756
▁Administ	-2757
▁developing	-2758
▁works	-2759
ni	-2760
isions	-2761
▁equipment	-2762
▁match	-2763
▁thousands	-2764
▁West	-2765
▁ever	-2766
▁bal	-2767
▁getting	-2768
IV	-2769
ador	-2770
mand	-2771
▁bad	-2772
▁opin	-2773
▁leave	-2774
▁Deputy	-2775
▁north	-2776
▁Reg	-2777
pic	-2778
▁TV	-2779
▁Tuesday	-2780
▁regard	-2781
▁cle	-2782
▁blood	-2783
▁collect	-2784
▁age	-2785
▁try	-2786
▁supply	-2787
▁Day	-2788
▁love	-2789
▁popular	-2790
▁receive	-2791
▁bat	-2792
▁consum	-2793
▁fem	-2794
▁released	-2795
▁independent	-2796
▁delegation	-2797
▁carried	-2798
▁compl	-2799
▁refuge	-2800
▁Authorities	-2801
yn	-2802
▁Gu	-2803
istic	-2804
▁uzbek	-2805
▁Muslims	-2806
50	-2807
arak	-2808
▁exam	-2809
▁Cor	-2810
ahar	-2811
head	-2812
▁ready	-2813
indh	-2814
▁experts	-2815
▁treatment	-2816
▁ey	-2817
gency	-2818
secut	-2819
▁Far	-2820
▁abs	-2821
▁points	-2822
▁Aff	-2823
▁Get	-2824
▁growing	-2825
▁princip	-2826
raw	-2827
▁round	-2828
▁broad	-2829
gu	-2830
▁technology	-2831
ews	-2832
▁debt	-2833
▁response	-2834
ada	-2835
▁brother	-2836
▁available	-2837
▁facilities	-2838
▁Two	-2839
▁Milit	-2840
▁repl	-2841
▁share	-2842
▁vide	-2843
▁Christ	-2844
▁turned	-2845
▁Can	-2846
rast	-2847
▁customs	-2848
▁31	-2849
▁fav	-2850
▁sat	-2851
ances	-2852
imate	-2853
▁crime	-2854
▁1,	-2855
▁tons	-2856
▁afghan	-2857
▁mom	-2858
▁scient	-2859
▁similar	-2860
.2	-2861
where	-2862
▁Chief	-2863
▁Mah	-2864
▁Ahmad	-2865
▁Sunday	-2866
isl	-2867
▁FOR	-2868
▁2000	-2869
▁Trade	-2870
amed	-2871
▁related	-2872
▁includes	-2873
TS	-2874
▁cross	-2875
▁funds	-2876
▁Many	-2877
▁Laden	-2878
▁influ	-2879
▁Kore	-2880
vention	-2881
urning	-2882
▁beginning	-2883
inated	-2884
▁bin	-2885
▁super	-2886
▁shot	-2887
▁territ	-2888
▁Centre	-2889
ili	-2890
▁Aust	-2891
▁claimed	-2892
omm	-2893
▁Mohammad	-2894
▁destroyed	-2895
lan	-2896
▁hy	-2897
▁FAT	-2898
▁During	-2899
▁danger	-2900
▁object	-2901
▁himself	-2902
▁Serv	-2903
▁Group	-2904
▁doesn	-2905
ATION	-2906
▁front	-2907
▁Def	-2908
▁Affairs	-2909
▁address	-2910
unis	-2911
▁Cong	-2912
pping	-2913
ashkent	-2914
▁constitution	-2915
icit	-2916
▁saw	-2917
aled	-2918
▁Monday	-2919
reen	-2920
ought	-2921
▁search	-2922
▁poor	-2923
▁reject	-2924
stitute	-2925
▁spread	-2926
▁ISLAMABAD	-2927
.3	-2928
▁Sat	-2929
▁enter	-2930
▁pressure	-2931
▁Just	-2932
▁France	-2933
▁Invest	-2934
▁attention	-2935
▁Chairman	-2936
han	-2937
▁arms	-2938
▁Sch	-2939
▁Free	-2940
▁dise	-2941
▁RE	-2942
inet	-2943
▁Punjab	-2944
▁cotton	-2945
enty	-2946
aur	-2947
▁Sindh	-2948
▁seized	-2949
▁tajikistan	-2950
▁abroad	-2951
▁Company	-2952
iplom	-2953
▁experience	-2954
orthern	-2955
▁heart	-2956
▁itself	-2957
rid	-2958
▁buy	-2959
▁music	-2960
▁determ	-2961
ihad	-2962
▁pain	-2963
▁immedi	-2964
reek	-2965
▁Indust	-2966
▁positive	-2967
▁critic	-2968
▁attract	-2969
vision	-2970
▁likely	-2971
▁message	-2972
oid	-2973
aid	-2974
▁creat	-2975
erve	-2976
▁walk	-2977
▁Offic	-2978
ARA	-2979
▁kidna	-2980
▁brought	-2981
enced	-2982
▁focus	-2983
avy	-2984
▁ty	-2985
mitted	-2986
ares	-2987
oman	-2988
▁freedom	-2989
▁organiz	-2990
▁communic	-2991
▁needed	-2992
▁Wed	-2993
▁unc	-2994
▁review	-2995
▁arriv	-2996
▁sym	-2997
▁introdu	-2998
▁El	-2999
▁African	-3000
▁coll	-3001
▁dollar	-3002
▁occur	-3003
▁cities	-3004
▁established	-3005
▁Joh	-3006
ape	-3007
▁Mub	-3008
▁Lah	-3009
aving	-3010
ann	-3011
▁Dawn	-3012
▁corruption	-3013
▁industrial	-3014
▁pen	-3015
ension	-3016
▁imports	-3017
▁extremist	-3018
▁Islamabad	-3019
▁ans	-3020
▁ground	-3021
▁cal	-3022
▁separ	-3023
▁common	-3024
▁expect	-3025
lex	-3026
▁makes	-3027
▁term	-3028
▁parliamentary	-3029
▁Association	-3030
▁concerned	-3031
▁hon	-3032
▁speak	-3033
bassador	-3034
racy	-3035
▁Mohamed	-3036
▁kills	-3037
▁significant	-3038
▁intelligence	-3039
asons	-3040
▁cause	-3041
ification	-3042
▁research	-3043
▁mount	-3044
eed	-3045
▁2005	-3046
▁mind	-3047
za	-3048
▁Ku	-3049
▁FATA	-3050
co	-3051
▁defe	-3052
▁investors	-3053
▁Bro	-3054
▁execut	-3055
▁tre	-3056
▁jobs	-3057
▁Gen	-3058
▁While	-3059
▁activity	-3060
▁calls	-3061
▁tried	-3062
▁prior	-3063
▁detained	-3064
▁break	-3065
▁Wednes	-3066
▁continued	-3067
din	-3068
▁progress	-3069
▁rad	-3070
▁surv	-3071
▁else	-3072
▁impact	-3073
▁release	-3074
▁assistance	-3075
adem	-3076
▁raise	-3077
▁leading	-3078
▁evidence	-3079
▁entire	-3080
▁investigation	-3081
ped	-3082
▁commander	-3083
▁Mubarak	-3084
sequ	-3085
▁Mir	-3086
▁Rs	-3087
▁higher	-3088
ami	-3089
▁Ro	-3090
▁sec	-3091
▁rank	-3092
igr	-3093
▁meant	-3094
▁staff	-3095
▁Ber	-3096
▁ill	-3097
▁require	-3098
▁Images	-3099
.4	-3100
ently	-3101
▁paid	-3102
▁looking	-3103
ges	-3104
▁tonnes	-3105
▁illegal	-3106
▁diplom	-3107
▁language	-3108
▁Wednesday	-3109
KN	-3110
ogue	-3111
▁grad	-3112
▁insurgents	-3113
view	-3114
▁port	-3115
erc	-3116
▁squ	-3117
ograph	-3118
▁holding	-3119
▁university	-3120
▁qual	-3121
ricket	-3122
▁becom	-3123
come	-3124
▁Cup	-3125
aches	-3126
▁Getty	-3127
ghd	-3128
▁hero	-3129
icking	-3130
▁Americans	-3131
ex	-3132
ugg	-3133
▁pet	-3134
inary	-3135
▁nine	-3136
duc	-3137
▁197	-3138
▁whom	-3139
▁required	-3140
▁BBC	-3141
▁stations	-3142
▁commercial	-3143
ala	-3144
▁friends	-3145
▁presence	-3146
ondon	-3147
now	-3148
wan	-3149
▁70	-3150
▁carry	-3151
▁Arabia	-3152
ech	-3153
▁Most	-3154
▁banned	-3155
▁Our	-3156
▁mention	-3157
▁film	-3158
▁Human	-3159
▁figures	-3160
arter	-3161
.7	-3162
maty	-3163
▁sure	-3164
▁Nazar	-3165
▁coalition	-3166
▁site	-3167
▁polio	-3168
▁learn	-3169
icles	-3170
▁photo	-3171
▁female	-3172
▁detail	-3173
▁neighbour	-3174
▁Os	-3175
wide	-3176
▁cell	-3177
▁targeted	-3178
▁Tunis	-3179
▁grant	-3180
▁failed	-3181
▁threats	-3182
▁propos	-3183
▁Bo	-3184
CO	-3185
ocracy	-3186
▁citing	-3187
▁Government	-3188
IA	-3189
▁John	-3190
▁wants	-3191
mes	-3192
▁York	-3193
▁self	-3194
▁inn	-3195
▁changes	-3196
▁culture	-3197
▁Zh	-3198
▁built	-3199
▁fields	-3200
che	-3201
lym	-3202
vere	-3203
uters	-3204
▁doub	-3205
▁pred	-3206
▁representatives	-3207
▁commission	-3208
▁profession	-3209
ety	-3210
▁responsible	-3211
▁Par	-3212
▁interests	-3213
▁ur	-3214
▁black	-3215
▁quot	-3216
▁everything	-3217
▁happened	-3218
▁Sen	-3219
ampions	-3220
▁morning	-3221
▁majority	-3222
▁partners	-3223
oviet	-3224
inate	-3225
▁cultural	-3226
ultan	-3227
cast	-3228
▁goal	-3229
▁pray	-3230
▁affected	-3231
AH	-3232
GO	-3233
gic	-3234
▁stability	-3235
FE	-3236
▁forward	-3237
▁towards	-3238
▁closed	-3239
▁2003	-3240
▁attacked	-3241
▁Such	-3242
▁providing	-3243
rim	-3244
▁ways	-3245
▁governments	-3246
▁Mos	-3247
▁sil	-3248
▁reve	-3249
▁warned	-3250
ERS	-3251
▁dial	-3252
▁London	-3253
▁displ	-3254
▁caused	-3255
▁largest	-3256
fully	-3257
irst	-3258
▁fell	-3259
▁vacc	-3260
▁extremism	-3261
▁negotiations	-3262
▁capac	-3263
▁contact	-3264
▁mob	-3265
▁saf	-3266
▁resol	-3267
▁Ram	-3268
▁rail	-3269
▁meetings	-3270
▁planning	-3271
▁worth	-3272
▁80	-3273
ills	-3274
reme	-3275
unic	-3276
▁webs	-3277
▁board	-3278
▁daily	-3279
uing	-3280
▁Thurs	-3281
▁quality	-3282
▁reasons	-3283
▁Turkey	-3284
▁strategy	-3285
▁ful	-3286
▁annual	-3287
▁approved	-3288
uals	-3289
▁rout	-3290
▁boost	-3291
▁belong	-3292
▁Dav	-3293
▁compared	-3294
AS	-3295
▁2006	-3296
▁Educ	-3297
.6	-3298
▁condem	-3299
▁proposed	-3300
▁department	-3301
ij	-3302
▁reduce	-3303
▁opening	-3304
ream	-3305
▁IMU	-3306
▁schol	-3307
▁Do	-3308
▁speech	-3309
▁summit	-3310
▁safe	-3311
▁legisl	-3312
▁resident	-3313
▁fram	-3314
orders	-3315
▁crimes	-3316
▁calling	-3317
▁Thursday	-3318
▁video	-3319
▁importance	-3320
.8	-3321
▁forced	-3322
ming	-3323
formed	-3324
▁Tashkent	-3325
ature	-3326
▁farmers	-3327
mail	-3328
▁Abu	-3329
▁text	-3330
▁Baloch	-3331
▁RFE	-3332
▁watch	-3333
arant	-3334
▁aver	-3335
joy	-3336
aining	-3337
▁san	-3338
▁reserv	-3339
▁anything	-3340
▁organizations	-3341
cl	-3342
son	-3343
▁RL	-3344
▁500	-3345
UT	-3346
▁km	-3347
▁mult	-3348
▁offer	-3349
▁remains	-3350
ques	-3351
▁quick	-3352
▁Palestinians	-3353
▁agricultural	-3354
▁launch	-3355
▁Kuwa	-3356
arters	-3357
▁single	-3358
izb	-3359
▁ut	-3360
▁data	-3361
▁friend	-3362
▁vote	-3363
▁Malik	-3364
▁either	-3365
ude	-3366
▁ones	-3367
bra	-3368
elt	-3369
ework	-3370
lies	-3371
▁eld	-3372
▁refer	-3373
▁hands	-3374
▁regarding	-3375
iance	-3376
ledge	-3377
ma	-3378
▁TA	-3379
icted	-3380
ateral	-3381
▁costs	-3382
▁traff	-3383
▁Austral	-3384
▁room	-3385
▁Cont	-3386
▁Sheikh	-3387
▁volume	-3388
▁Som	-3389
▁heard	-3390
▁prime	-3391
▁300	-3392
▁draw	-3393
bar	-3394
▁fuel	-3395
▁Air	-3396
▁federal	-3397
▁estimated	-3398
▁High	-3399
▁tem	-3400
▁Abdel	-3401
▁places	-3402
▁rule	-3403
▁challeng	-3404
umb	-3405
▁35	-3406
forman	-3407
▁Public	-3408
▁conclud	-3409
▁interview	-3410
aced	-3411
▁exhib	-3412
▁defend	-3413
▁finance	-3414
ager	-3415
▁true	-3416
▁published	-3417
▁_	-3418
rency	-3419
▁cars	-3420
▁Rights	-3421
▁Pet	-3422
▁enjoy	-3423
▁series	-3424
▁phys	-3425
▁reven	-3426
▁conducted	-3427
▁emergency	-3428
▁red	-3429
▁alloc	-3430
▁created	-3431
▁orig	-3432
ires	-3433
uled	-3434
range	-3435
▁followed	-3436
▁pun	-3437
abinet	-3438
oci	-3439
▁questions	-3440
▁Ken	-3441
▁running	-3442
rated	-3443
▁teach	-3444
ricts	-3445
▁moment	-3446
▁pict	-3447
▁withd	-3448
▁carrying	-3449
▁vo	-3450
▁Mor	-3451
▁imm	-3452
▁goods	-3453
▁despite	-3454
▁personal	-3455
▁candidates	-3456
▁latest	-3457
ILL	-3458
▁safety	-3459
▁offered	-3460
hi	-3461
▁declared	-3462
▁prob	-3463
▁giving	-3464
▁Stud	-3465
▁longer	-3466
▁attend	-3467
ties	-3468
▁prim	-3469
▁patients	-3470
▁Val	-3471
▁harm	-3472
▁ruling	-3473
▁infrast	-3474
▁respond	-3475
ufact	-3476
▁showed	-3477
uck	-3478
▁trip	-3479
▁teams	-3480
▁performan	-3481
▁God	-3482
▁fighters	-3483
ha	-3484
▁Ben	-3485
▁recru	-3486
▁Social	-3487
▁framework	-3488
▁Army	-3489
▁expand	-3490
cri	-3491
ware	-3492
ishing	-3493
▁everyone	-3494
ne	-3495
ift	-3496
▁opportunity	-3497
▁organization	-3498
▁Trib	-3499
▁opinion	-3500
▁explosives	-3501
▁fre	-3502
▁wind	-3503
rugg	-3504
istics	-3505
▁alone	-3506
ply	-3507
▁sched	-3508
.1	-3509
▁rock	-3510
▁mission	-3511
▁Rakh	-3512
▁Rel	-3513
▁religion	-3514
▁technical	-3515
sych	-3516
▁Those	-3517
▁instead	-3518
▁authority	-3519
▁AL	-3520
▁TH	-3521
▁Ital	-3522
alled	-3523
rations	-3524
tj	-3525
har	-3526
▁answ	-3527
▁medic	-3528
uff	-3529
▁paper	-3530
▁smugg	-3531
▁space	-3532
▁Bush	-3533
ilateral	-3534
RE	-3535
▁protection	-3536
▁someone	-3537
▁Hel	-3538
▁base	-3539
▁helped	-3540
▁homes	-3541
▁huge	-3542
▁lower	-3543
▁controll	-3544
ope	-3545
▁norm	-3546
▁militancy	-3547
▁teachers	-3548
iled	-3549
▁session	-3550
▁infrastructure	-3551
era	-3552
▁Are	-3553
atory	-3554
▁date	-3555
▁ordered	-3556
▁policies	-3557
▁acqu	-3558
▁earth	-3559
andahar	-3560
▁guarant	-3561
▁Institute	-3562
▁NGO	-3563
▁Hizb	-3564
▁radio	-3565
▁strugg	-3566
▁incident	-3567
▁assass	-3568
▁capacity	-3569
▁districts	-3570
TIAN	-3571
▁settle	-3572
▁studies	-3573
▁pros	-3574
▁regions	-3575
▁described	-3576
▁allowed	-3577
▁consult	-3578
▁steps	-3579
▁King	-3580
▁transfer	-3581
▁opportunities	-3582
aging	-3583
▁Education	-3584
▁ministers	-3585
▁sides	-3586
rack	-3587
▁season	-3588
▁Olym	-3589
▁Almaty	-3590
▁Lahore	-3591
▁Soviet	-3592
▁chance	-3593
▁basis	-3594
fort	-3595
▁Every	-3596
▁liber	-3597
▁shoot	-3598
▁worked	-3599
TA	-3600
▁block	-3601
▁Karzai	-3602
▁MP	-3603
ABUL	-3604
▁196	-3605
▁fat	-3606
▁Liberty	-3607
band	-3608
▁Kur	-3609
amber	-3610
yl	-3611
▁kil	-3612
▁exerc	-3613
▁charge	-3614
▁shows	-3615
urday	-3616
▁wel	-3617
▁tourism	-3618
▁provinces	-3619
▁identified	-3620
▁KABUL	-3621
▁student	-3622
▁planned	-3623
▁passed	-3624
▁quite	-3625
▁hundreds	-3626
▁manufact	-3627
▁returned	-3628
▁Why	-3629
ung	-3630
▁mid	-3631
▁Tajiks	-3632
▁prepared	-3633
anov	-3634
▁mis	-3635
▁ow	-3636
▁opt	-3637
▁First	-3638
▁nearly	-3639
▁committed	-3640
▁deep	-3641
hod	-3642
▁anim	-3643
▁doctors	-3644
▁gra	-3645
▁loans	-3646
▁Saturday	-3647
▁biggest	-3648
int	-3649
▁takes	-3650
▁spending	-3651
▁activists	-3652
▁Car	-3653
▁Libyan	-3654
▁Off	-3655
▁game	-3656
ores	-3657
▁task	-3658
▁affairs	-3659
▁Move	-3660
▁thus	-3661
rad	-3662
▁Other	-3663
rown	-3664
▁levels	-3665
MENT	-3666
▁wife	-3667
▁avoid	-3668
▁images	-3669
▁scheduled	-3670
▁Tod	-3671
▁spent	-3672
▁Democratic	-3673
▁Indian	-3674
▁strike	-3675
▁involve	-3676
▁Meh	-3677
▁gen	-3678
▁operating	-3679
anda	-3680
▁Yemen	-3681
▁stock	-3682
▁battle	-3683
▁summer	-3684
▁dialogue	-3685
▁policemen	-3686
oring	-3687
▁contrib	-3688
▁Japanese	-3689
▁Laughter	-3690
▁condition	-3691
▁independence	-3692
▁hus	-3693
▁acts	-3694
▁purp	-3695
▁commod	-3696
▁document	-3697
hens	-3698
▁throughout	-3699
UN	-3700
ga	-3701
ites	-3702
▁EGYPTIAN	-3703
▁Law	-3704
▁played	-3705
▁raised	-3706
▁recomm	-3707
▁maintain	-3708
ghans	-3709
▁2004	-3710
▁elim	-3711
▁agreements	-3712
▁businessmen	-3713
▁sort	-3714
▁trial	-3715
▁taliban	-3716
oor	-3717
▁accom	-3718
▁seems	-3719
▁monitor	-3720
▁management	-3721
▁establishment	-3722
▁wrong	-3723
alal	-3724
▁denied	-3725
▁implementation	-3726
▁90	-3727
ield	-3728
▁journalist	-3729
▁Sar	-3730
amb	-3731
iction	-3732
▁Congress	-3733
▁analysts	-3734
iter	-3735
part	-3736
▁fest	-3737
▁approach	-3738
▁Alex	-3739
▁lawy	-3740
vey	-3741
▁Ter	-3742
▁Bah	-3743
▁KARA	-3744
▁democracy	-3745
▁EX	-3746
▁brain	-3747
▁fr	-3748
▁aimed	-3749
▁nor	-3750
▁univers	-3751
▁Gulf	-3752
arily	-3753
▁Movement	-3754
▁attended	-3755
ode	-3756
▁bomber	-3757
▁linked	-3758
▁Turkish	-3759
▁football	-3760
ows	-3761
▁Kandahar	-3762
▁connection	-3763
▁kazakhstan	-3764
▁Bl	-3765
rupt	-3766
owers	-3767
▁words	-3768
▁average	-3769
▁vehicle	-3770
ounding	-3771
DS	-3772
▁ST	-3773
▁awa	-3774
▁volun	-3775
▁promote	-3776
▁-1	-3777
irth	-3778
▁goes	-3779
▁purch	-3780
▁businesses	-3781
▁Information	-3782
▁statements	-3783
CHI	-3784
▁Service	-3785
▁active	-3786
▁Moh	-3787
icians	-3788
▁Intern	-3789
▁mur	-3790
▁Since	-3791
▁psych	-3792
quarters	-3793
oul	-3794
▁guards	-3795
▁passeng	-3796
etta	-3797
▁setting	-3798
tic	-3799
▁Hol	-3800
hest	-3801
▁disease	-3802
▁registered	-3803
▁Ne	-3804
▁mag	-3805
▁Today	-3806
▁rules	-3807
▁television	-3808
resh	-3809
▁About	-3810
enth	-3811
rend	-3812
▁amend	-3813
▁pointing	-3814
oum	-3815
aught	-3816
▁Another	-3817
▁borders	-3818
▁pack	-3819
▁repe	-3820
▁northern	-3821
assan	-3822
mical	-3823
▁sect	-3824
▁histor	-3825
IR	-3826
▁credit	-3827
rap	-3828
ique	-3829
▁justice	-3830
ault	-3831
▁hyd	-3832
▁fourth	-3833
▁materials	-3834
stant	-3835
rative	-3836
▁surpr	-3837
▁sex	-3838
▁kids	-3839
▁guard	-3840
▁documents	-3841
▁Federation	-3842
ATO	-3843
▁Yous	-3844
▁prosecut	-3845
▁heavy	-3846
▁owners	-3847
▁sports	-3848
▁Tehreek	-3849
▁secretary	-3850
action	-3851
lection	-3852
▁peaceful	-3853
▁effective	-3854
▁Mahm	-3855
20	-3856
reg	-3857
▁pil	-3858
▁purs	-3859
▁protests	-3860
▁subs	-3861
▁Bakiyev	-3862
▁KARACHI	-3863
asion	-3864
▁deaths	-3865
▁systems	-3866
▁agg	-3867
▁thank	-3868
irit	-3869
▁Western	-3870
OL	-3871
▁liter	-3872
▁Bel	-3873
ampionship	-3874
leum	-3875
itarian	-3876
▁engine	-3877
▁Nov	-3878
acter	-3879
▁depos	-3880
▁mosque	-3881
▁educational	-3882
▁performance	-3883
▁participation	-3884
ken	-3885
▁goals	-3886
▁status	-3887
▁internal	-3888
▁initiative	-3889
▁trafficking	-3890
▁Ed	-3891
▁Sam	-3892
▁School	-3893
▁Supreme	-3894
▁competition	-3895
▁participate	-3896
▁vir	-3897
▁streets	-3898
sat	-3899
▁HIV	-3900
▁expert	-3901
▁comment	-3902
▁clos	-3903
enge	-3904
▁Germany	-3905
▁relationship	-3906
orge	-3907
▁books	-3908
▁defence	-3909
▁&	-3910
▁starting	-3911
ayat	-3912
▁sense	-3913
▁knowledge	-3914
ussain	-3915
▁Office	-3916
▁deficit	-3917
▁Organization	-3918
amal	-3919
aration	-3920
▁suspect	-3921
▁cerem	-3922
▁resc	-3923
▁EGYPT	-3924
▁ahead	-3925
▁refugees	-3926
▁Women	-3927
▁regul	-3928
▁Afghans	-3929
xic	-3930
apers	-3931
▁weak	-3932
▁bul	-3933
▁minutes	-3934
▁By	-3935
ashes	-3936
▁phot	-3937
▁zone	-3938
▁resolution	-3939
▁enem	-3940
▁developed	-3941
▁traditional	-3942
.9	-3943
US	-3944
▁Des	-3945
▁murder	-3946
▁runs	-3947
▁exceed	-3948
▁produce	-3949
▁City	-3950
▁Fund	-3951
hman	-3952
▁decre	-3953
▁ple	-3954
▁45	-3955
▁Prog	-3956
▁jail	-3957
▁Bad	-3958
▁wide	-3959
▁stopped	-3960
GS	-3961
▁Fer	-3962
▁Har	-3963
▁amb	-3964
ented	-3965
▁Economic	-3966
▁fix	-3967
▁applic	-3968
rote	-3969
abb	-3970
lish	-3971
▁seeking	-3972
▁App	-3973
ining	-3974
▁buildings	-3975
▁challenges	-3976
ps	-3977
▁Then	-3978
▁employees	-3979
▁clean	-3980
▁houses	-3981
adh	-3982
▁shut	-3983
azi	-3984
▁helping	-3985
alls	-3986
▁ess	-3987
▁send	-3988
adi	-3989
▁bid	-3990
▁Gil	-3991
▁NATO	-3992
▁supporters	-3993
lo	-3994
▁Khal	-3995
▁tend	-3996
▁website	-3997
sk	-3998
haps	-3999
▁numbers	-4000
stana	-4001
▁Trans	-4002
stances	-4003
▁War	-4004
▁individuals	-4005
down	-4006
▁pip	-4007
▁League	-4008
uz	-4009
▁figure	-4010
▁occurred	-4011
roleum	-4012
▁wrote	-4013
▁explained	-4014
▁Dam	-4015
dom	-4016
press	-4017
▁Even	-4018
itation	-4019
▁scored	-4020
▁programmes	-4021
▁online	-4022
▁visited	-4023
ronti	-4024
▁centres	-4025
STANA	-4026
▁fine	-4027
▁suit	-4028
▁associ	-4029
▁bab	-4030
▁poll	-4031
▁simply	-4032
▁funding	-4033
▁regular	-4034
kn	-4035
iling	-4036
▁mach	-4037
▁quoting	-4038
▁kyrgyzstan	-4039
itial	-4040
▁Balochistan	-4041
OP	-4042
▁Last	-4043
▁born	-4044
▁secret	-4045
▁stated	-4046
▁obser	-4047
▁adopted	-4048
▁balance	-4049
▁Under	-4050
▁ASTANA	-4051
POR	-4052
▁negative	-4053
▁resistance	-4054
cell	-4055
▁bran	-4056
▁Sharon	-4057
istant	-4058
▁except	-4059
verty	-4060
▁Well	-4061
▁method	-4062
▁proced	-4063
▁poverty	-4064
▁completely	-4065
ayed	-4066
ullo	-4067
▁und	-4068
▁coord	-4069
▁positions	-4070
▁fair	-4071
▁facing	-4072
▁banking	-4073
urt	-4074
▁basic	-4075
▁profess	-4076
▁ability	-4077
▁reflect	-4078
ILLION	-4079
▁willing	-4080
▁immediately	-4081
awi	-4082
▁Yes	-4083
▁Although	-4084
ems	-4085
bassy	-4086
▁door	-4087
▁Ser	-4088
illed	-4089
▁formed	-4090
▁street	-4091
▁Hussain	-4092
▁Abdullah	-4093
aliyev	-4094
ulated	-4095
▁Peace	-4096
▁named	-4097
▁Defence	-4098
▁cas	-4099
▁contribut	-4100
▁experi	-4101
oved	-4102
otion	-4103
oses	-4104
▁Head	-4105
▁Militants	-4106
▁explosion	-4107
▁democratic	-4108
▁fif	-4109
▁crop	-4110
▁possibility	-4111
▁KGS	-4112
▁Nas	-4113
▁shop	-4114
▁property	-4115
▁suffered	-4116
gn	-4117
▁Rah	-4118
▁bit	-4119
▁mer	-4120
▁euro	-4121
▁gone	-4122
▁Polit	-4123
▁benefit	-4124
▁consequ	-4125
▁ideas	-4126
▁Nazarbayev	-4127
sein	-4128
▁bea	-4129
▁withdraw	-4130
iam	-4131
▁English	-4132
▁Abb	-4133
▁nom	-4134
▁Will	-4135
ildren	-4136
▁appear	-4137
▁husband	-4138
▁although	-4139
chan	-4140
▁serve	-4141
ables	-4142
▁Justice	-4143
aker	-4144
▁Agricult	-4145
▁elements	-4146
▁additional	-4147
light	-4148
▁mill	-4149
▁concerns	-4150
▁vehicles	-4151
ropri	-4152
angers	-4153
▁jihad	-4154
▁housing	-4155
iri	-4156
raft	-4157
▁Governor	-4158
known	-4159
uries	-4160
▁sens	-4161
▁talking	-4162
▁CBE	-4163
▁moved	-4164
▁presented	-4165
abil	-4166
▁extra	-4167
▁urged	-4168
rontier	-4169
▁Not	-4170
▁traffic	-4171
▁executive	-4172
bo	-4173
▁Bec	-4174
▁track	-4175
▁players	-4176
▁happen	-4177
▁sectors	-4178
▁influence	-4179
▁supporting	-4180
oph	-4181
News	-4182
▁susp	-4183
▁sust	-4184
ifying	-4185
lectric	-4186
mi	-4187
▁quarter	-4188
UZ	-4189
uter	-4190
▁motor	-4191
▁imposed	-4192
▁achieved	-4193
itals	-4194
▁reforms	-4195
rators	-4196
▁solution	-4197
▁completed	-4198
ection	-4199
▁birth	-4200
▁believes	-4201
lying	-4202
▁FC	-4203
▁Ismail	-4204
▁changed	-4205
▁COM	-4206
▁ver	-4207
▁strik	-4208
▁century	-4209
▁scholars	-4210
▁specific	-4211
▁contributed	-4212
▁PRO	-4213
lig	-4214
▁stressed	-4215
akzai	-4216
▁representative	-4217
▁altern	-4218
▁refused	-4219
▁bilateral	-4220
▁Alexand	-4221
EW	-4222
ko	-4223
▁accord	-4224
▁couple	-4225
urch	-4226
▁lines	-4227
▁civilian	-4228
▁Pa	-4229
▁box	-4230
▁lif	-4231
▁draft	-4232
▁damage	-4233
▁32	-4234
▁AG	-4235
▁ended	-4236
▁learned	-4237
▁incidents	-4238
▁Nor	-4239
▁losses	-4240
▁plants	-4241
▁complain	-4242
▁candidate	-4243
AND	-4244
▁Ha	-4245
▁resign	-4246
ployment	-4247
▁perform	-4248
▁Int	-4249
oes	-4250
tar	-4251
▁Bab	-4252
▁Mark	-4253
▁income	-4254
▁Because	-4255
▁cricket	-4256
▁felt	-4257
pper	-4258
oration	-4259
enn	-4260
▁gather	-4261
▁decisions	-4262
▁Republican	-4263
▁beat	-4264
▁dog	-4265
▁oblast	-4266
▁actions	-4267
addafi	-4268
▁Hassan	-4269
▁annually	-4270
▁afghanistan	-4271
rog	-4272
ales	-4273
▁crow	-4274
▁hear	-4275
▁depart	-4276
▁demands	-4277
lad	-4278
▁Tah	-4279
ushed	-4280
▁middle	-4281
▁arrived	-4282
▁strategic	-4283
▁doz	-4284
order	-4285
▁fundament	-4286
▁Dzh	-4287
▁2013	-4288
▁anyone	-4289
▁villages	-4290
ida	-4291
▁vers	-4292
▁Rehman	-4293
▁standards	-4294
rs	-4295
cow	-4296
▁accus	-4297
500	-4298
▁elected	-4299
identified	-4300
▁innoc	-4301
▁extreme	-4302
▁Ibra	-4303
▁hopes	-4304
▁normal	-4305
▁communities	-4306
▁aims	-4307
▁fled	-4308
▁dangerous	-4309
▁protesters	-4310
▁uzbekistan	-4311
▁extremists	-4312
▁occupation	-4313
ris	-4314
imately	-4315
▁probably	-4316
▁migr	-4317
▁sites	-4318
inent	-4319
▁minor	-4320
atri	-4321
▁heroin	-4322
▁Program	-4323
▁article	-4324
lew	-4325
resp	-4326
▁Rash	-4327
▁cong	-4328
▁Korea	-4329
rel	-4330
▁150	-4331
adan	-4332
▁Lab	-4333
▁happy	-4334
▁duties	-4335
▁headed	-4336
UD	-4337
▁lay	-4338
ctions	-4339
▁George	-4340
▁headquarters	-4341
▁professional	-4342
urance	-4343
▁Center	-4344
▁answer	-4345
ura	-4346
lets	-4347
eline	-4348
▁mechan	-4349
▁details	-4350
▁therefore	-4351
mission	-4352
▁suggested	-4353
going	-4354
▁grand	-4355
▁circum	-4356
▁persons	-4357
▁observ	-4358
▁nations	-4359
▁quickly	-4360
▁Parliament	-4361
iya	-4362
▁ge	-4363
▁award	-4364
▁wheat	-4365
▁victory	-4366
▁challenge	-4367
▁Somal	-4368
▁express	-4369
▁initial	-4370
▁sometimes	-4371
▁Kal	-4372
▁pie	-4373
merce	-4374
▁Quetta	-4375
▁ambassador	-4376
▁successful	-4377
IDS	-4378
▁Ay	-4379
ping	-4380
▁fru	-4381
▁fresh	-4382
▁damaged	-4383
▁33	-4384
▁Prot	-4385
▁1990	-4386
▁drink	-4387
▁Industry	-4388
ria	-4389
▁PR	-4390
▁spirit	-4391
▁twenty	-4392
▁cabinet	-4393
▁pled	-4394
▁concluded	-4395
imum	-4396
▁believed	-4397
ointed	-4398
▁nature	-4399
▁remote	-4400
▁ceremony	-4401
▁easy	-4402
▁Palestine	-4403
▁deg	-4404
▁creating	-4405
▁neighbouring	-4406
oli	-4407
rees	-4408
▁shar	-4409
▁individual	-4410
▁Dar	-4411
ously	-4412
▁mobile	-4413
▁internet	-4414
▁mentioned	-4415
▁Valley	-4416
▁Administration	-4417
▁1999	-4418
▁loan	-4419
▁pick	-4420
▁fully	-4421
▁highest	-4422
▁organised	-4423
▁generation	-4424
▁combat	-4425
▁conserv	-4426
▁trust	-4427
asc	-4428
▁Mc	-4429
book	-4430
akers	-4431
ole	-4432
▁club	-4433
▁Finance	-4434
ks	-4435
hers	-4436
▁financing	-4437
bal	-4438
▁rose	-4439
▁finding	-4440
▁cat	-4441
▁provides	-4442
itude	-4443
▁word	-4444
igration	-4445
▁UK	-4446
▁republic	-4447
him	-4448
▁advis	-4449
▁lands	-4450
pid	-4451
▁Hus	-4452
▁suc	-4453
▁tit	-4454
▁affili	-4455
▁claims	-4456
▁emphasized	-4457
▁involvement	-4458
▁400	-4459
▁fast	-4460
▁Baghd	-4461
▁operate	-4462
▁succeed	-4463
▁joined	-4464
▁evening	-4465
▁Spe	-4466
▁Astana	-4467
▁decades	-4468
▁reality	-4469
EST	-4470
▁above	-4471
▁labour	-4472
▁kept	-4473
▁taxes	-4474
like	-4475
▁Bat	-4476
▁David	-4477
▁reporters	-4478
ading	-4479
▁exact	-4480
▁Kun	-4481
▁raid	-4482
rehens	-4483
▁ign	-4484
General	-4485
▁winter	-4486
▁essential	-4487
ulate	-4488
▁semin	-4489
▁limited	-4490
▁rein	-4491
▁decree	-4492
hold	-4493
▁boys	-4494
▁White	-4495
▁Britain	-4496
▁Ur	-4497
▁park	-4498
▁debts	-4499
▁center	-4500
▁explosive	-4501
sud	-4502
ateg	-4503
▁judic	-4504
▁reportedly	-4505
▁instru	-4506
▁playing	-4507
▁material	-4508
▁eyes	-4509
▁chair	-4510
▁revealed	-4511
▁agriculture	-4512
ias	-4513
pir	-4514
arov	-4515
▁Araf	-4516
▁complex	-4517
▁PA	-4518
oyev	-4519
▁appl	-4520
▁Australia	-4521
▁encourage	-4522
▁previously	-4523
▁Republicans	-4524
▁Officials	-4525
▁push	-4526
▁Reuters	-4527
▁clashes	-4528
▁matters	-4529
lers	-4530
▁Their	-4531
▁raising	-4532
▁currency	-4533
rary	-4534
anced	-4535
▁remark	-4536
▁severe	-4537
▁offices	-4538
▁bombings	-4539
▁cop	-4540
SHKENT	-4541
▁legit	-4542
▁units	-4543
▁TASHKENT	-4544
▁Ins	-4545
▁Gr	-4546
yond	-4547
agers	-4548
▁Road	-4549
▁knew	-4550
▁1,000	-4551
▁beyond	-4552
▁revolution	-4553
▁Akh	-4554
▁Che	-4555
▁Berd	-4556
▁behav	-4557
▁Press	-4558
▁Arafat	-4559
iff	-4560
raz	-4561
▁Port	-4562
▁dism	-4563
▁politics	-4564
▁spoke	-4565
▁install	-4566
▁tribes	-4567
▁Of	-4568
▁Ban	-4569
▁Said	-4570
▁Bus	-4571
▁sea	-4572
▁mostly	-4573
▁restrict	-4574
▁penal	-4575
▁territory	-4576
adr	-4577
▁typ	-4578
▁CON	-4579
▁firm	-4580
▁marri	-4581
▁Brother	-4582
▁AZ	-4583
esty	-4584
▁Baj	-4585
▁AIDS	-4586
▁scene	-4587
▁commodities	-4588
▁Pash	-4589
▁festival	-4590
▁THE	-4591
▁via	-4592
▁mine	-4593
▁heads	-4594
▁fam	-4595
▁sche	-4596
▁moving	-4597
▁Gaddafi	-4598
▁Rakhmon	-4599
▁understanding	-4600
cle	-4601
▁isn	-4602
▁From	-4603
▁broadcast	-4604
▁Geo	-4605
▁surr	-4606
▁Hamid	-4607
▁Three	-4608
▁shown	-4609
arq	-4610
rep	-4611
▁fired	-4612
▁appeal	-4613
▁Haj	-4614
▁categ	-4615
▁daughter	-4616
▁Fa	-4617
oples	-4618
urban	-4619
▁russ	-4620
▁earthqu	-4621
▁computer	-4622
▁observers	-4623
abi	-4624
▁fish	-4625
▁truck	-4626
▁advant	-4627
▁Haq	-4628
▁cuts	-4629
▁ship	-4630
▁Moscow	-4631
▁academ	-4632
▁Fl	-4633
▁ball	-4634
▁slow	-4635
▁Organisation	-4636
▁DE	-4637
▁rural	-4638
▁Orakzai	-4639
▁failure	-4640
▁purpose	-4641
▁relatives	-4642
▁establishing	-4643
aves	-4644
▁ties	-4645
▁editor	-4646
▁chemical	-4647
▁participants	-4648
VD	-4649
▁imported	-4650
▁arch	-4651
▁killings	-4652
▁swe	-4653
▁Gaza	-4654
ensions	-4655
▁science	-4656
▁warning	-4657
isf	-4658
▁white	-4659
▁letter	-4660
▁radical	-4661
▁hydro	-4662
▁remember	-4663
▁tank	-4664
ropriate	-4665
▁character	-4666
onents	-4667
▁Conference	-4668
▁casual	-4669
▁Cal	-4670
▁Mem	-4671
▁unem	-4672
▁36	-4673
oper	-4674
▁Kaz	-4675
▁sales	-4676
▁sentenced	-4677
▁supported	-4678
▁tort	-4679
▁islam	-4680
iversary	-4681
▁leaving	-4682
▁directly	-4683
▁tourists	-4684
oz	-4685
ane	-4686
▁Resear	-4687
▁Express	-4688
▁Ramadan	-4689
▁AZUZ	-4690
▁Mexic	-4691
▁names	-4692
▁supplies	-4693
rief	-4694
▁Hosp	-4695
▁custom	-4696
▁obtain	-4697
usal	-4698
▁tourn	-4699
▁airport	-4700
imb	-4701
▁rob	-4702
▁fundamental	-4703
IG	-4704
ster	-4705
▁humanitarian	-4706
CC	-4707
ula	-4708
▁continues	-4709
▁considering	-4710
▁table	-4711
▁Tunisia	-4712
▁dealing	-4713
▁produced	-4714
▁witnessed	-4715
ney	-4716
▁prec	-4717
riving	-4718
▁Energy	-4719
▁Kuwait	-4720
▁universities	-4721
abat	-4722
▁sun	-4723
▁hour	-4724
▁pull	-4725
▁punish	-4726
▁spend	-4727
▁climate	-4728
uted	-4729
▁camps	-4730
▁relative	-4731
▁confidence	-4732
▁difference	-4733
oke	-4734
▁selling	-4735
erson	-4736
inating	-4737
▁pra	-4738
▁Cult	-4739
▁proceed	-4740
▁trou	-4741
▁partnership	-4742
▁worst	-4743
▁putting	-4744
ymuk	-4745
▁appoint	-4746
▁deliver	-4747
▁mosques	-4748
ivity	-4749
▁politicians	-4750
aped	-4751
▁wed	-4752
▁Tehran	-4753
▁AND	-4754
▁bur	-4755
▁demanded	-4756
▁dream	-4757
▁gradu	-4758
▁roads	-4759
▁railway	-4760
▁Democrat	-4761
▁critical	-4762
▁proposal	-4763
outs	-4764
▁Sea	-4765
vant	-4766
▁green	-4767
▁Political	-4768
▁save	-4769
▁Uzbeks	-4770
OM	-4771
het	-4772
dering	-4773
▁gives	-4774
▁relief	-4775
▁represented	-4776
kay	-4777
▁mist	-4778
▁Tribal	-4779
▁Ac	-4780
▁drop	-4781
▁drive	-4782
▁faith	-4783
▁resort	-4784
▁thinking	-4785
▁attackers	-4786
ols	-4787
▁Us	-4788
▁wat	-4789
▁prepare	-4790
▁requires	-4791
▁environmental	-4792
anging	-4793
▁Don	-4794
▁Arabs	-4795
▁select	-4796
▁primary	-4797
▁cru	-4798
▁Hospital	-4799
▁captured	-4800
oned	-4801
▁diss	-4802
▁doctor	-4803
▁Hussein	-4804
▁greater	-4805
ests	-4806
▁Mis	-4807
▁maybe	-4808
rigation	-4809
▁commitment	-4810
▁unit	-4811
▁scale	-4812
▁union	-4813
▁remained	-4814
▁Ang	-4815
▁Baghdad	-4816
▁arrange	-4817
▁decline	-4818
▁race	-4819
▁crack	-4820
▁Terror	-4821
▁industries	-4822
lee	-4823
▁lic	-4824
▁Sher	-4825
▁grain	-4826
▁hotel	-4827
▁34	-4828
rect	-4829
▁Bin	-4830
agues	-4831
▁mil	-4832
▁practice	-4833
▁hospitals	-4834
▁anniversary	-4835
iced	-4836
▁mart	-4837
tained	-4838
▁assess	-4839
▁strengt	-4840
▁trained	-4841
HO	-4842
▁Pl	-4843
leep	-4844
▁perhaps	-4845
anium	-4846
▁imag	-4847
▁Red	-4848
▁Represent	-4849
▁Mam	-4850
▁plane	-4851
▁Agriculture	-4852
dd	-4853
▁pan	-4854
▁soft	-4855
▁range	-4856
▁charged	-4857
▁innocent	-4858
▁promised	-4859
▁preparing	-4860
▁shr	-4861
▁Berdymuk	-4862
▁suffering	-4863
▁counterpart	-4864
oo	-4865
ulov	-4866
▁bombs	-4867
▁violent	-4868
aud	-4869
eth	-4870
▁hor	-4871
▁unp	-4872
ruction	-4873
▁Brotherhood	-4874
▁Cons	-4875
▁volunte	-4876
ronic	-4877
▁oblig	-4878
porary	-4879
▁Frontier	-4880
▁benefits	-4881
▁directed	-4882
Ah	-4883
illing	-4884
▁Mohmand	-4885
vi	-4886
▁ON	-4887
onym	-4888
▁size	-4889
▁adopt	-4890
▁owned	-4891
▁Sharif	-4892
▁Business	-4893
hev	-4894
craft	-4895
▁wasn	-4896
▁image	-4897
▁picture	-4898
▁speaking	-4899
▁mechanism	-4900
▁baby	-4901
▁millions	-4902
▁roadside	-4903
▁arg	-4904
▁Asharq	-4905
▁voters	-4906
▁separate	-4907
wsat	-4908
▁Hamas	-4909
▁shares	-4910
isted	-4911
overy	-4912
▁frequ	-4913
▁written	-4914
▁becoming	-4915
▁Maj	-4916
0,000	-4917
▁agend	-4918
▁weight	-4919
▁arm	-4920
▁hide	-4921
▁uranium	-4922
ns	-4923
▁Omar	-4924
ugh	-4925
▁Nur	-4926
▁rebels	-4927
▁receiving	-4928
▁Moroc	-4929
▁Dis	-4930
▁nationwide	-4931
zhar	-4932
▁hum	-4933
elled	-4934
ental	-4935
▁faces	-4936
▁inspe	-4937
▁discussion	-4938
▁Prince	-4939
▁Helmand	-4940
▁corresp	-4941
▁interested	-4942
▁clin	-4943
▁solve	-4944
ossible	-4945
▁Bajaur	-4946
▁mountain	-4947
sc	-4948
aved	-4949
▁turk	-4950
▁speed	-4951
hamedov	-4952
▁tourist	-4953
▁finally	-4954
pet	-4955
iful	-4956
uses	-4957
▁Work	-4958
▁appeared	-4959
▁prisoners	-4960
war	-4961
amer	-4962
▁Alger	-4963
▁prosecutor	-4964
rehensive	-4965
▁diplomatic	-4966
▁administrative	-4967
KNB	-4968
reness	-4969
▁Gilani	-4970
▁eastern	-4971
PP	-4972
ams	-4973
▁Gl	-4974
▁GKNB	-4975
ardari	-4976
▁square	-4977
ashkar	-4978
esides	-4979
▁concept	-4980
▁distrib	-4981
▁embassy	-4982
▁waiting	-4983
▁existing	-4984
orrow	-4985
▁Research	-4986
▁circumstances	-4987
iar	-4988
athe	-4989
otics	-4990
▁rat	-4991
▁Sadd	-4992
▁renew	-4993
▁Mahmoud	-4994
▁harvest	-4995
▁pipeline	-4996
▁USA	-4997
▁bag	-4998
inals	-4999
OS	-5000
IST	-5001
eum	-5002
▁powers	-5003
▁42	-5004
based	-5005
▁looked	-5006
▁attempts	-5007
de	-5008
apt	-5009
▁ul	-5010
▁Art	-5011
rently	-5012
aded	-5013
▁finished	-5014
ils	-5015
met	-5016
▁Let	-5017
▁ath	-5018
▁brid	-5019
▁quant	-5020
▁deputies	-5021
oyal	-5022
▁MVD	-5023
▁Drug	-5024
bayeva	-5025
▁priority	-5026
▁legislation	-5027
more	-5028
▁ASH	-5029
▁NEW	-5030
▁waste	-5031
▁becomes	-5032
▁bombers	-5033
▁destruction	-5034
▁pret	-5035
ground	-5036
uations	-5037
▁kilomet	-5038
▁allegedly	-5039
▁contracts	-5040
▁appropriate	-5041
▁Ir	-5042
reet	-5043
▁Act	-5044
▁Per	-5045
▁items	-5046
▁skills	-5047
▁remaining	-5048
IAN	-5049
mir	-5050
▁mort	-5051
▁convicted	-5052
▁Loc	-5053
▁begun	-5054
▁Region	-5055
▁colleagues	-5056
▁ASHG	-5057
▁blow	-5058
▁missing	-5059
▁Investment	-5060
▁strengthen	-5061
▁Ari	-5062
▁sale	-5063
▁enterpr	-5064
▁principles	-5065
iny	-5066
▁Four	-5067
▁forms	-5068
▁courts	-5069
▁programs	-5070
Is	-5071
di	-5072
ORE	-5073
app	-5074
▁Here	-5075
▁asking	-5076
shan	-5077
▁Mak	-5078
▁looks	-5079
▁impossible	-5080
sa	-5081
othes	-5082
▁knows	-5083
▁citizen	-5084
▁compens	-5085
TION	-5086
room	-5087
ployed	-5088
rising	-5089
▁entered	-5090
overnment	-5091
▁fra	-5092
▁Bash	-5093
▁disaster	-5094
▁Pakistanis	-5095
rec	-5096
▁indicated	-5097
▁contribute	-5098
▁gar	-5099
▁games	-5100
▁anonym	-5101
▁determined	-5102
ABAT	-5103
orney	-5104
ertain	-5105
▁Christian	-5106
▁professor	-5107
▁hun	-5108
▁aware	-5109
▁cancer	-5110
▁nearby	-5111
▁wedding	-5112
▁earthquake	-5113
bit	-5114
vert	-5115
▁Mas	-5116
▁depend	-5117
▁awareness	-5118
abled	-5119
▁argu	-5120
▁Control	-5121
ae	-5122
▁rejected	-5123
ayy	-5124
▁li	-5125
▁Naw	-5126
▁Murd	-5127
▁file	-5128
▁explo	-5129
▁allocated	-5130
▁procedures	-5131
LE	-5132
▁Av	-5133
▁Kor	-5134
▁Beir	-5135
▁broke	-5136
jan	-5137
▁38	-5138
▁ASHGABAT	-5139
▁-2	-5140
▁Del	-5141
woman	-5142
atures	-5143
▁stories	-5144
▁repeated	-5145
▁controlled	-5146
▁tournament	-5147
iant	-5148
habilit	-5149
▁Somalia	-5150
▁developments	-5151
ruck	-5152
▁Bas	-5153
▁lib	-5154
▁gang	-5155
▁standing	-5156
▁organized	-5157
▁dro	-5158
▁Beirut	-5159
ika	-5160
eria	-5161
▁path	-5162
iary	-5163
ples	-5164
astic	-5165
▁getty	-5166
abilities	-5167
anish	-5168
▁Both	-5169
▁discovered	-5170
▁Berdymukhamedov	-5171
▁tom	-5172
▁Tour	-5173
▁Zardari	-5174
▁bringing	-5175
▁75	-5176
▁WB	-5177
coming	-5178
▁model	-5179
▁western	-5180
▁Despite	-5181
▁kidnapped	-5182
lin	-5183
▁Jer	-5184
▁riv	-5185
▁Special	-5186
nd	-5187
alf	-5188
▁route	-5189
▁suspic	-5190
▁Parties	-5191
▁facilit	-5192
▁manager	-5193
▁improving	-5194
mal	-5195
▁audi	-5196
▁struggle	-5197
ean	-5198
ora	-5199
▁San	-5200
▁Trip	-5201
▁agenda	-5202
▁constit	-5203
▁casualties	-5204
▁Kurd	-5205
▁duty	-5206
▁arrests	-5207
▁effects	-5208
▁Sudanese	-5209
▁declined	-5210
ext	-5211
term	-5212
▁syn	-5213
▁asia	-5214
▁voice	-5215
ibly	-5216
ider	-5217
▁raw	-5218
▁store	-5219
▁highly	-5220
Youm	-5221
▁gets	-5222
mun	-5223
▁37	-5224
annel	-5225
▁blew	-5226
▁affir	-5227
▁equal	-5228
▁restore	-5229
▁confront	-5230
▁offensive	-5231
sil	-5232
▁AM	-5233
asser	-5234
▁judge	-5235
▁Commerce	-5236
▁revenues	-5237
erb	-5238
uit	-5239
▁bed	-5240
etary	-5241
▁sist	-5242
▁comprehensive	-5243
ysis	-5244
itors	-5245
rison	-5246
▁Techn	-5247
▁elders	-5248
▁college	-5249
▁targets	-5250
rir	-5251
irga	-5252
▁Its	-5253
▁toll	-5254
▁peoples	-5255
▁approval	-5256
▁scientific	-5257
▁activist	-5258
mark	-5259
lines	-5260
▁fifth	-5261
▁statistics	-5262
astern	-5263
▁visiting	-5264
▁movements	-5265
afa	-5266
▁Jew	-5267
bekov	-5268
▁England	-5269
▁reserves	-5270
▁KH	-5271
cknow	-5272
iscal	-5273
▁Over	-5274
▁effic	-5275
▁inform	-5276
▁Olympic	-5277
▁Society	-5278
▁recommend	-5279
▁mut	-5280
▁blam	-5281
▁rich	-5282
▁Murdoch	-5283
▁factory	-5284
▁2,	-5285
oted	-5286
rene	-5287
▁appa	-5288
▁obst	-5289
▁abuse	-5290
▁debate	-5291
UTERS	-5292
▁shortage	-5293
IM	-5294
▁Pre	-5295
tered	-5296
▁beaut	-5297
▁helic	-5298
▁minute	-5299
▁secure	-5300
▁simple	-5301
▁recovered	-5302
▁lose	-5303
▁integr	-5304
▁managed	-5305
▁physical	-5306
▁powerful	-5307
▁Net	-5308
▁Nig	-5309
▁driver	-5310
▁helicop	-5311
▁appointed	-5312
▁exhibition	-5313
▁CH	-5314
▁kar	-5315
eless	-5316
▁2014	-5317
▁symb	-5318
▁seats	-5319
▁REUTERS	-5320
▁served	-5321
▁transpa	-5322
▁accident	-5323
▁accordance	-5324
▁spring	-5325
▁aircraft	-5326
▁assassination	-5327
▁AR	-5328
▁Appl	-5329
▁Force	-5330
▁acknow	-5331
uil	-5332
ashed	-5333
▁brief	-5334
▁lived	-5335
arcotics	-5336
▁Programme	-5337
▁passengers	-5338
appe	-5339
anged	-5340
▁paying	-5341
▁Ibrahim	-5342
▁threatened	-5343
iq	-5344
▁unf	-5345
▁code	-5346
▁tight	-5347
▁detain	-5348
▁unable	-5349
▁defeated	-5350
▁Yus	-5351
▁mainly	-5352
▁subsid	-5353
▁contain	-5354
▁factors	-5355
▁occasion	-5356
▁Any	-5357
▁spot	-5358
▁wonder	-5359
fire	-5360
papers	-5361
inations	-5362
asp	-5363
▁dark	-5364
▁meters	-5365
▁struck	-5366
▁alternative	-5367
FA	-5368
ki	-5369
bed	-5370
▁patrol	-5371
▁Uk	-5372
▁satisf	-5373
▁feed	-5374
ternal	-5375
▁miles	-5376
▁condemned	-5377
▁communications	-5378
▁sound	-5379
▁views	-5380
▁uncovered	-5381
▁demonstrations	-5382
▁exercise	-5383
off	-5384
▁sn	-5385
iverse	-5386
▁rescue	-5387
ka	-5388
▁Faz	-5389
▁Lat	-5390
▁Thank	-5391
▁unity	-5392
▁Mehsud	-5393
time	-5394
Awsat	-5395
▁Abad	-5396
▁flag	-5397
▁Board	-5398
▁lawyer	-5399
▁injuries	-5400
▁X	-5401
▁PM	-5402
▁Mad	-5403
▁truth	-5404
▁implemented	-5405
ATE	-5406
aba	-5407
▁Areas	-5408
▁fiscal	-5409
▁constant	-5410
olute	-5411
▁batt	-5412
▁agents	-5413
▁Tripoli	-5414
▁Independ	-5415
▁construct	-5416
▁constitutional	-5417
▁dig	-5418
▁burd	-5419
▁stor	-5420
lands	-5421
▁Clin	-5422
▁Civil	-5423
▁opium	-5424
▁choice	-5425
oking	-5426
asters	-5427
▁conven	-5428
▁option	-5429
▁creation	-5430
OT	-5431
pan	-5432
▁prem	-5433
▁extended	-5434
▁occupied	-5435
▁recorded	-5436
▁relevant	-5437
▁submitted	-5438
▁requirements	-5439
uddin	-5440
▁note	-5441
▁usually	-5442
▁informed	-5443
▁Democrats	-5444
▁FA	-5445
eman	-5446
fortun	-5447
▁perman	-5448
▁Applause	-5449
▁factories	-5450
▁Go	-5451
icts	-5452
▁Naz	-5453
▁east	-5454
▁guil	-5455
▁defin	-5456
▁Internet	-5457
▁increases	-5458
▁insurance	-5459
▁investigating	-5460
▁Osama	-5461
▁doubt	-5462
▁monitoring	-5463
▁forum	-5464
▁assets	-5465
AE	-5466
▁47	-5467
▁escape	-5468
▁weekend	-5469
▁Convention	-5470
▁star	-5471
▁demonstrators	-5472
▁clash	-5473
▁crowd	-5474
▁entit	-5475
▁accounts	-5476
▁prominent	-5477
icy	-5478
▁65	-5479
▁experim	-5480
▁toler	-5481
resents	-5482
▁survey	-5483
▁context	-5484
▁exactly	-5485
▁deposits	-5486
▁irrigation	-5487
NA	-5488
▁log	-5489
▁stress	-5490
▁clothes	-5491
▁meaning	-5492
▁reduction	-5493
aying	-5494
▁Also	-5495
reprene	-5496
▁WIT	-5497
▁prev	-5498
▁trend	-5499
▁interim	-5500
bre	-5501
▁ran	-5502
▁cash	-5503
▁iron	-5504
▁coach	-5505
▁Ambassador	-5506
IES	-5507
▁43	-5508
▁teen	-5509
▁limit	-5510
▁medal	-5511
▁beautiful	-5512
▁vul	-5513
▁Only	-5514
▁gren	-5515
▁Korean	-5516
▁Saddam	-5517
▁resulted	-5518
▁Att	-5519
▁referred	-5520
▁displaced	-5521
▁practices	-5522
▁ang	-5523
▁Water	-5524
▁privat	-5525
▁Federal	-5526
▁strikes	-5527
▁medicine	-5528
▁settlement	-5529
▁Kam	-5530
erally	-5531
▁placed	-5532
fficient	-5533
▁sectarian	-5534
▁44	-5535
▁GDP	-5536
▁Char	-5537
▁wait	-5538
▁introduced	-5539
▁decade	-5540
▁exclus	-5541
▁rehabilit	-5542
▁producing	-5543
▁newspapers	-5544
▁respectively	-5545
icate	-5546
▁rare	-5547
atever	-5548
▁favor	-5549
▁Investig	-5550
▁sentence	-5551
▁supposed	-5552
government	-5553
lav	-5554
▁194	-5555
▁anc	-5556
ender	-5557
unicip	-5558
▁favour	-5559
▁obstac	-5560
▁48	-5561
▁Eid	-5562
hammed	-5563
▁Paris	-5564
▁Relig	-5565
ambayev	-5566
▁Chamber	-5567
▁advance	-5568
▁assault	-5569
▁represents	-5570
alp	-5571
lon	-5572
cers	-5573
▁coast	-5574
▁Academ	-5575
▁metres	-5576
▁noting	-5577
▁keeping	-5578
▁marriage	-5579
▁Qat	-5580
▁Zah	-5581
▁era	-5582
▁athlet	-5583
▁orders	-5584
back	-5585
▁cub	-5586
▁Mich	-5587
adhafi	-5588
ellect	-5589
▁obvious	-5590
▁reconstruction	-5591
Alam	-5592
▁tor	-5593
▁Italy	-5594
▁riots	-5595
▁concent	-5596
▁promoting	-5597
▁Among	-5598
▁Mullah	-5599
▁prayers	-5600
▁returning	-5601
▁Kash	-5602
▁sport	-5603
▁William	-5604
▁55	-5605
ridi	-5606
▁IED	-5607
▁wick	-5608
▁learning	-5609
▁structure	-5610
▁commanders	-5611
itt	-5612
fect	-5613
▁choose	-5614
▁flight	-5615
▁unrest	-5616
▁winning	-5617
uj	-5618
▁die	-5619
▁march	-5620
▁origin	-5621
▁prohib	-5622
ciliation	-5623
▁designed	-5624
▁IMF	-5625
▁island	-5626
▁measure	-5627
▁imprison	-5628
▁criminals	-5629
▁guarantee	-5630
ny	-5631
ukh	-5632
▁La	-5633
▁sought	-5634
▁participating	-5635
onds	-5636
▁flu	-5637
▁1998	-5638
▁links	-5639
▁sleep	-5640
▁disappe	-5641
▁referen	-5642
▁Min	-5643
gabat	-5644
▁Asif	-5645
▁song	-5646
stance	-5647
▁turning	-5648
▁assembly	-5649
▁SH	-5650
▁Mur	-5651
▁Tehsil	-5652
▁myself	-5653
▁Children	-5654
▁communication	-5655
erted	-5656
▁deton	-5657
▁Jewish	-5658
▁targeting	-5659
▁BE	-5660
oded	-5661
erous	-5662
▁hack	-5663
▁till	-5664
▁solid	-5665
▁decide	-5666
▁profit	-5667
▁wealth	-5668
▁reduced	-5669
▁consequences	-5670
▁Rev	-5671
▁medals	-5672
▁admitted	-5673
▁offering	-5674
▁Tok	-5675
▁mand	-5676
▁kinds	-5677
itch	-5678
▁WITH	-5679
▁meat	-5680
elling	-5681
▁Before	-5682
▁assign	-5683
▁vulner	-5684
▁showing	-5685
▁turkmen	-5686
▁Administered	-5687
▁championship	-5688
▁Jud	-5689
▁Tal	-5690
▁vice	-5691
▁vital	-5692
▁Senate	-5693
▁estate	-5694
▁foreigners	-5695
▁unemployment	-5696
care	-5697
▁max	-5698
▁laid	-5699
▁Italian	-5700
▁replace	-5701
▁desire	-5702
▁methods	-5703
▁consumption	-5704
IB	-5705
ingu	-5706
wise	-5707
▁Hos	-5708
▁Anti	-5709
▁Spain	-5710
▁elder	-5711
▁zones	-5712
ressive	-5713
▁ongoing	-5714
▁absolute	-5715
put	-5716
tees	-5717
▁wall	-5718
▁compar	-5719
▁Rangers	-5720
▁allowing	-5721
ez	-5722
▁Border	-5723
▁corpor	-5724
▁couldn	-5725
▁Bahrain	-5726
▁matches	-5727
▁criticism	-5728
LO	-5729
▁theat	-5730
▁acting	-5731
▁reaching	-5732
▁Federally	-5733
▁exporting	-5734
▁participated	-5735
▁mal	-5736
▁feet	-5737
▁Pashtun	-5738
▁married	-5739
▁changing	-5740
▁identity	-5741
ected	-5742
▁Oper	-5743
▁compound	-5744
ses	-5745
▁Plan	-5746
▁weather	-5747
▁accepted	-5748
▁restrictions	-5749
Hayat	-5750
▁NGOs	-5751
▁fruit	-5752
▁undert	-5753
▁granted	-5754
▁sustain	-5755
▁strength	-5756
▁determine	-5757
ox	-5758
idden	-5759
▁symp	-5760
▁Cop	-5761
rovers	-5762
▁advoc	-5763
▁cards	-5764
▁stands	-5765
▁Jordanian	-5766
▁happening	-5767
▁discussions	-5768
▁AT	-5769
phone	-5770
▁madr	-5771
▁shops	-5772
▁victim	-5773
▁complic	-5774
▁differences	-5775
TO	-5776
▁Br	-5777
cont	-5778
▁1.5	-5779
▁ult	-5780
▁sett	-5781
▁bound	-5782
▁pound	-5783
▁enable	-5784
▁quoted	-5785
▁appears	-5786
▁reducing	-5787
▁continuing	-5788
▁territories	-5789
law	-5790
pro	-5791
▁LAH	-5792
▁eye	-5793
▁flour	-5794
▁Shi	-5795
ipped	-5796
▁west	-5797
▁Count	-5798
▁double	-5799
▁Alexandria	-5800
▁SC	-5801
▁Ask	-5802
▁famous	-5803
ellite	-5804
▁shooting	-5805
ania	-5806
▁Ste	-5807
▁adj	-5808
▁autom	-5809
▁ruled	-5810
▁resolve	-5811
▁torture	-5812
▁amounted	-5813
▁improved	-5814
▁advantage	-5815
▁strengthe	-5816
kz	-5817
TER	-5818
▁Koh	-5819
▁Saf	-5820
▁1997	-5821
▁location	-5822
▁Abbas	-5823
▁Studies	-5824
CY	-5825
LA	-5826
allah	-5827
iency	-5828
▁owner	-5829
▁react	-5830
▁Afridi	-5831
▁seeing	-5832
▁600	-5833
athered	-5834
▁caught	-5835
▁causes	-5836
▁player	-5837
▁Karimov	-5838
▁recruit	-5839
ologies	-5840
▁Clinton	-5841
▁unknown	-5842
▁Atambayev	-5843
▁rapid	-5844
▁afford	-5845
▁cooper	-5846
▁seriously	-5847
▁attributed	-5848
ba	-5849
ima	-5850
▁scen	-5851
▁clearly	-5852
▁protecting	-5853
aki	-5854
▁kh	-5855
▁BAN	-5856
▁Khat	-5857
▁Local	-5858
▁intended	-5859
Plus	-5860
▁defense	-5861
▁patient	-5862
▁identify	-5863
▁immediate	-5864
ICE	-5865
RAN	-5866
▁195	-5867
▁lik	-5868
ishes	-5869
▁Tele	-5870
▁type	-5871
rating	-5872
▁write	-5873
▁unless	-5874
▁announcement	-5875
▁implementing	-5876
set	-5877
she	-5878
▁Pan	-5879
▁shel	-5880
▁wors	-5881
ivered	-5882
▁Roman	-5883
▁spons	-5884
▁tomorrow	-5885
▁II	-5886
RAEL	-5887
▁ANP	-5888
▁plot	-5889
usalem	-5890
▁Games	-5891
▁neither	-5892
▁institution	-5893
▁Eth	-5894
▁cold	-5895
▁sole	-5896
▁enemy	-5897
▁teaching	-5898
▁principle	-5899
▁smuggling	-5900
▁amendments	-5901
KI	-5902
▁Cr	-5903
▁fal	-5904
andal	-5905
▁Bang	-5906
▁Lank	-5907
▁jump	-5908
▁Jihad	-5909
▁Times	-5910
▁adult	-5911
▁aftern	-5912
▁valley	-5913
▁welcom	-5914
▁Gadhafi	-5915
▁tradition	-5916
▁improvement	-5917
▁transportation	-5918
▁Sin	-5919
▁hat	-5920
orial	-5921
▁Nile	-5922
▁faced	-5923
▁optim	-5924
▁Tahrir	-5925
▁dropped	-5926
▁purchase	-5927
▁Ras	-5928
▁Aziz	-5929
▁Saleh	-5930
▁fears	-5931
▁quota	-5932
▁river	-5933
▁values	-5934
▁explain	-5935
▁intellect	-5936
▁membership	-5937
▁encouraging	-5938
30	-5939
▁AKN	-5940
▁Sri	-5941
▁rid	-5942
▁ammun	-5943
▁MPs	-5944
ollah	-5945
▁amid	-5946
▁pretty	-5947
▁accompl	-5948
▁restaur	-5949
▁AsiaPlus	-5950
▁delivered	-5951
VER	-5952
▁suffer	-5953
▁judicial	-5954
▁collection	-5955
omb	-5956
▁poet	-5957
▁deals	-5958
▁LAHORE	-5959
▁medium	-5960
▁violations	-5961
isal	-5962
owed	-5963
▁Add	-5964
iture	-5965
▁defeat	-5966
▁highway	-5967
▁researc	-5968
▁ministries	-5969
▁distribution	-5970
▁Sm	-5971
beid	-5972
▁veget	-5973
▁cultiv	-5974
▁dispute	-5975
▁serving	-5976
▁facility	-5977
pted	-5978
▁Second	-5979
▁escaped	-5980
▁foundation	-5981
▁Met	-5982
ureau	-5983
▁convers	-5984
yle	-5985
▁ded	-5986
▁wish	-5987
▁EXPOR	-5988
▁Labour	-5989
▁degree	-5990
▁Jerusalem	-5991
▁worse	-5992
iveness	-5993
▁focused	-5994
▁planted	-5995
ECT	-5996
apse	-5997
ocol	-5998
▁aren	-5999
▁haven	-6000
▁10,000	-6001
▁Israelis	-6002
▁requested	-6003
fortunately	-6004
▁controvers	-6005
cul	-6006
yal	-6007
▁Aw	-6008
▁Alm	-6009
▁Pop	-6010
▁Six	-6011
▁card	-6012
▁cler	-6013
▁coff	-6014
▁guns	-6015
▁title	-6016
▁approx	-6017
▁offers	-6018
▁hearing	-6019
eva	-6020
uds	-6021
unch	-6022
▁fans	-6023
▁fert	-6024
teenth	-6025
▁Ebeid	-6026
▁cubic	-6027
▁extent	-6028
▁martyr	-6029
▁extremely	-6030
ader	-6031
▁Sum	-6032
▁Prof	-6033
▁sacri	-6034
▁silver	-6035
▁belonging	-6036
▁conflicts	-6037
▁affiliated	-6038
▁Has	-6039
▁Foot	-6040
▁apart	-6041
▁shock	-6042
▁votes	-6043
▁dismiss	-6044
▁interesting	-6045
▁veter	-6046
▁Kurram	-6047
▁gathered	-6048
icro	-6049
▁rea	-6050
▁holy	-6051
▁lies	-6052
▁River	-6053
▁discl	-6054
▁urgent	-6055
▁exported	-6056
▁certainly	-6057
AZ	-6058
▁Jam	-6059
▁crops	-6060
▁weapon	-6061
▁channel	-6062
▁interior	-6063
▁ordinary	-6064
iddin	-6065
▁urban	-6066
▁sending	-6067
▁Op	-6068
▁tri	-6069
iring	-6070
▁entry	-6071
▁signs	-6072
▁Former	-6073
▁chamber	-6074
▁classes	-6075
▁feeling	-6076
▁soldier	-6077
▁certific	-6078
▁direction	-6079
▁everybody	-6080
iforn	-6081
ijing	-6082
▁spite	-6083
▁seemed	-6084
▁causing	-6085
▁afternoon	-6086
▁Commercial	-6087
▁QU	-6088
arity	-6089
ppers	-6090
▁Land	-6091
▁Olymp	-6092
▁Sughd	-6093
▁stood	-6094
▁belief	-6095
electric	-6096
▁Academy	-6097
▁Medical	-6098
▁allegations	-6099
opol	-6100
isher	-6101
makers	-6102
▁Allah	-6103
▁necessity	-6104
▁officially	-6105
UM	-6106
tef	-6107
izes	-6108
▁Ann	-6109
▁branch	-6110
▁transl	-6111
▁confisc	-6112
▁specialists	-6113
itz	-6114
▁AD	-6115
ourage	-6116
▁risks	-6117
▁unlike	-6118
▁reinfor	-6119
▁massive	-6120
EM	-6121
zz	-6122
iev	-6123
mans	-6124
pread	-6125
▁Scot	-6126
▁dozens	-6127
▁applied	-6128
▁content	-6129
▁Constitution	-6130
equ	-6131
▁eat	-6132
▁spl	-6133
▁handed	-6134
▁Journal	-6135
▁Kuwaiti	-6136
▁studying	-6137
yt	-6138
▁Food	-6139
▁okay	-6140
▁labor	-6141
▁towns	-6142
▁master	-6143
▁Cricket	-6144
▁artists	-6145
▁audience	-6146
▁eventually	-6147
▁EC	-6148
osti	-6149
otic	-6150
▁Nurs	-6151
▁flow	-6152
▁2,000	-6153
▁shared	-6154
▁unique	-6155
▁MILLION	-6156
▁partner	-6157
▁policeman	-6158
OD	-6159
▁surf	-6160
▁Forces	-6161
▁permanent	-6162
can	-6163
▁tack	-6164
▁prefer	-6165
tunbayeva	-6166
▁AS	-6167
▁Sol	-6168
usted	-6169
▁rival	-6170
▁losing	-6171
▁rising	-6172
▁worksh	-6173
▁Ashgabat	-6174
▁attorney	-6175
▁marketing	-6176
▁proposals	-6177
▁worldwide	-6178
atov	-6179
▁Oil	-6180
▁dim	-6181
▁impl	-6182
▁ISRAEL	-6183
▁surviv	-6184
▁devices	-6185
▁writing	-6186
▁standard	-6187
oe	-6188
▁SP	-6189
itage	-6190
▁phase	-6191
▁bought	-6192
▁sevent	-6193
ky	-6194
The	-6195
een	-6196
dden	-6197
▁Who	-6198
manbek	-6199
▁guilty	-6200
▁Football	-6201
▁numerous	-6202
▁association	-6203
AMA	-6204
▁41	-6205
▁uns	-6206
inter	-6207
▁calm	-6208
▁Kenya	-6209
▁100,000	-6210
JS	-6211
ifornia	-6212
▁extend	-6213
▁capable	-6214
▁hitting	-6215
ray	-6216
▁Jang	-6217
▁aband	-6218
▁monthly	-6219
▁Therefore	-6220
▁ammunition	-6221
mosp	-6222
▁Cap	-6223
omali	-6224
▁jirga	-6225
▁users	-6226
▁Commun	-6227
▁Several	-6228
▁invited	-6229
idespread	-6230
▁entreprene	-6231
▁liqu	-6232
▁seed	-6233
▁ranks	-6234
▁Follow	-6235
▁larger	-6236
▁instruct	-6237
ael	-6238
ips	-6239
roud	-6240
▁Year	-6241
▁Damasc	-6242
▁Lashkar	-6243
unications	-6244
▁Egyptians	-6245
▁inflation	-6246
▁manufacture	-6247
umn	-6248
arsh	-6249
▁tim	-6250
ockey	-6251
▁page	-6252
elines	-6253
▁sexual	-6254
▁amounts	-6255
▁aspects	-6256
__	-6257
▁46	-6258
eping	-6259
▁Face	-6260
▁Corps	-6261
▁Youth	-6262
▁grown	-6263
▁seize	-6264
▁Rashid	-6265
▁artist	-6266
▁strict	-6267
▁driving	-6268
▁withdrawal	-6269
▁buying	-6270
▁notice	-6271
▁recovery	-6272
▁vulnerable	-6273
dum	-6274
▁aud	-6275
▁helps	-6276
▁interp	-6277
▁pakistani	-6278
▁representing	-6279
▁Paul	-6280
▁grew	-6281
▁Mexico	-6282
▁happens	-6283
▁wearing	-6284
▁elsewhere	-6285
▁Kazakhs	-6286
▁located	-6287
ibilities	-6288
▁Damascus	-6289
▁governmental	-6290
▁reconciliation	-6291
▁CIS	-6292
▁Nat	-6293
▁TJS	-6294
▁wave	-6295
▁animals	-6296
▁Scotland	-6297
ENCY	-6298
▁Ghaz	-6299
▁Avest	-6300
▁career	-6301
▁sudden	-6302
▁vision	-6303
▁division	-6304
▁Hizbullah	-6305
▁Transport	-6306
▁Bara	-6307
▁flee	-6308
▁euros	-6309
▁leads	-6310
▁checkp	-6311
▁absence	-6312
aug	-6313
wat	-6314
▁emb	-6315
othing	-6316
▁worker	-6317
▁covered	-6318
▁overall	-6319
AI	-6320
osen	-6321
▁Sab	-6322
▁dram	-6323
▁Avesta	-6324
▁uprising	-6325
▁Ra	-6326
rive	-6327
▁Sha	-6328
▁enh	-6329
aling	-6330
▁wild	-6331
▁clock	-6332
▁Sultan	-6333
▁sister	-6334
TH	-6335
gment	-6336
▁Haqq	-6337
▁snow	-6338
▁multi	-6339
▁seeks	-6340
▁stuff	-6341
▁narcotics	-6342
▁satellite	-6343
▁photograph	-6344
▁presidents	-6345
sef	-6346
▁sons	-6347
ensus	-6348
▁bron	-6349
▁king	-6350
▁mines	-6351
▁atmosp	-6352
▁Eastern	-6353
▁entering	-6354
AK	-6355
▁Squ	-6356
ician	-6357
▁virt	-6358
▁prosec	-6359
▁Culture	-6360
▁welcome	-6361
▁alliance	-6362
▁obtained	-6363
osh	-6364
▁Pat	-6365
▁Tar	-6366
▁afp	-6367
▁Cust	-6368
▁Stat	-6369
▁cited	-6370
▁gunmen	-6371
▁discrim	-6372
▁petroleum	-6373
▁sentences	-6374
▁widespread	-6375
UC	-6376
mates	-6377
▁Rober	-6378
▁Khalid	-6379
▁opposed	-6380
▁contacts	-6381
▁whatever	-6382
PAN	-6383
raid	-6384
irates	-6385
isting	-6386
▁closer	-6387
▁holiday	-6388
▁largely	-6389
▁possess	-6390
▁responded	-6391
▁Otunbayeva	-6392
▁committees	-6393
ena	-6394
▁Om	-6395
▁Prem	-6396
▁phen	-6397
▁rain	-6398
▁Beijing	-6399
▁solutions	-6400
▁correspond	-6401
▁bott	-6402
▁Medic	-6403
▁movie	-6404
▁floods	-6405
▁liberal	-6406
▁defendants	-6407
▁approximately	-6408
eter	-6409
▁Makh	-6410
▁enemies	-6411
▁function	-6412
▁trillion	-6413
▁scientists	-6414
▁surrounding	-6415
▁Unidentified	-6416
usion	-6417
▁disag	-6418
▁talked	-6419
▁cancell	-6420
▁lawyers	-6421
▁eliminate	-6422
▁existence	-6423
ruz	-6424
▁Bun	-6425
angar	-6426
▁Conf	-6427
pective	-6428
▁mining	-6429
▁custody	-6430
▁networks	-6431
ux	-6432
▁wouldn	-6433
▁confirm	-6434
▁athletes	-6435
▁application	-6436
▁52	-6437
▁permit	-6438
▁healthy	-6439
▁machine	-6440
▁madrass	-6441
▁analysis	-6442
oven	-6443
▁Zion	-6444
▁contest	-6445
▁external	-6446
▁qualified	-6447
▁employment	-6448
ira	-6449
lant	-6450
Americ	-6451
▁Great	-6452
▁church	-6453
▁denoun	-6454
▁liquid	-6455
▁symbol	-6456
▁voting	-6457
▁ceiling	-6458
▁treated	-6459
▁sanctions	-6460
▁California	-6461
irty	-6462
▁Raza	-6463
▁eval	-6464
▁below	-6465
▁blamed	-6466
▁perfect	-6467
oundation	-6468
▁distributed	-6469
▁fit	-6470
reece	-6471
▁Fran	-6472
▁bear	-6473
▁textile	-6474
▁messages	-6475
▁visitors	-6476
▁acknowled	-6477
▁generally	-6478
▁punishment	-6479
▁Championship	-6480
▁emp	-6481
▁van	-6482
▁burn	-6483
▁Super	-6484
▁escal	-6485
▁firms	-6486
▁phenomen	-6487
▁regulations	-6488
oda	-6489
▁Sim	-6490
▁din	-6491
▁Inst	-6492
▁iran	-6493
idency	-6494
▁easily	-6495
▁Economy	-6496
run	-6497
▁cy	-6498
rich	-6499
▁Brig	-6500
▁Each	-6501
▁Rabb	-6502
▁gain	-6503
icated	-6504
▁collab	-6505
▁Religious	-6506
▁customers	-6507
▁Directorate	-6508
la	-6509
▁Div	-6510
▁End	-6511
▁fly	-6512
▁Vice	-6513
ieties	-6514
▁Indones	-6515
▁concerning	-6516
▁Mian	-6517
▁device	-6518
▁stable	-6519
▁Novosti	-6520
eal	-6521
ita	-6522
▁39	-6523
uous	-6524
▁Tra	-6525
▁5,000	-6526
▁tough	-6527
▁fellow	-6528
▁overse	-6529
▁Airport	-6530
▁suspended	-6531
▁Er	-6532
▁cast	-6533
▁isol	-6534
▁Grand	-6535
▁compr	-6536
vereign	-6537
▁removed	-6538
inem	-6539
ston	-6540
▁coin	-6541
▁fulf	-6542
▁strongly	-6543
▁estimates	-6544
▁sovereign	-6545
▁increasingly	-6546
aks	-6547
lege	-6548
▁piece	-6549
▁Greece	-6550
▁transition	-6551
ibi	-6552
oured	-6553
▁roll	-6554
▁Javed	-6555
▁Nawaz	-6556
▁cement	-6557
▁incent	-6558
▁decrease	-6559
▁complaints	-6560
▁healthcare	-6561
▁neighbours	-6562
ZT	-6563
umed	-6564
▁800	-6565
▁Umar	-6566
▁Ghali	-6567
▁Koran	-6568
▁holds	-6569
▁prove	-6570
▁twice	-6571
▁submit	-6572
▁profits	-6573
▁coordination	-6574
ald	-6575
ona	-6576
roz	-6577
vis	-6578
agan	-6579
▁mix	-6580
▁sharp	-6581
▁visits	-6582
▁compete	-6583
▁affirmed	-6584
▁Petroleum	-6585
▁hydroelectric	-6586
▁54	-6587
west	-6588
azaar	-6589
▁Bill	-6590
▁Rich	-6591
▁posts	-6592
▁enhance	-6593
▁signing	-6594
▁sitting	-6595
▁Northern	-6596
▁experienced	-6597
▁Club	-6598
▁seat	-6599
▁afraid	-6600
▁heading	-6601
▁highlight	-6602
gen	-6603
▁INV	-6604
eland	-6605
▁alive	-6606
▁apply	-6607
▁journ	-6608
▁postp	-6609
▁Spanish	-6610
▁courses	-6611
▁electronic	-6612
▁Iv	-6613
▁Mart	-6614
▁Where	-6615
▁older	-6616
▁directors	-6617
▁registration	-6618
▁Oh	-6619
▁WHO	-6620
▁lie	-6621
anges	-6622
ector	-6623
enses	-6624
iolog	-6625
ancing	-6626
▁forget	-6627
▁conducting	-6628
▁referendum	-6629
OW	-6630
uls	-6631
▁Ikh	-6632
▁NDS	-6633
reced	-6634
▁Camp	-6635
▁dump	-6636
▁thanks	-6637
▁conclus	-6638
▁brothers	-6639
▁disputes	-6640
AF	-6641
▁250	-6642
▁IRA	-6643
▁Ift	-6644
ander	-6645
uilding	-6646
▁borrow	-6647
▁judges	-6648
▁dign	-6649
▁Facebook	-6650
▁branches	-6651
▁collapse	-6652
▁telephone	-6653
jad	-6654
▁Bh	-6655
▁Env	-6656
▁Khatt	-6657
▁rally	-6658
▁Hajj	-6659
▁cart	-6660
▁films	-6661
▁pilgr	-6662
▁trees	-6663
▁allows	-6664
▁honour	-6665
▁writer	-6666
▁Tourism	-6667
▁reaction	-6668
▁welcomed	-6669
▁objective	-6670
▁Foundation	-6671
10	-6672
unt	-6673
▁Mat	-6674
▁nar	-6675
▁kick	-6676
▁chann	-6677
▁types	-6678
▁Premier	-6679
recedented	-6680
▁temporary	-6681
had	-6682
▁AFC	-6683
▁1992	-6684
▁2015	-6685
▁wins	-6686
▁Canada	-6687
▁reading	-6688
▁advanced	-6689
▁diseases	-6690
▁legitimate	-6691
▁investigate	-6692
arn	-6693
iat	-6694
▁KZT	-6695
▁dia	-6696
▁tal	-6697
wards	-6698
▁Anth	-6699
▁Maul	-6700
▁scandal	-6701
▁Military	-6702
▁obstacles	-6703
eles	-6704
▁inaug	-6705
▁chosen	-6706
▁taught	-6707
▁deployed	-6708
▁formation	-6709
duz	-6710
hips	-6711
▁120	-6712
▁Rog	-6713
▁Tim	-6714
▁1980	-6715
▁sixth	-6716
IP	-6717
Arab	-6718
rical	-6719
▁Wali	-6720
▁male	-6721
▁stip	-6722
▁Hosni	-6723
▁bridge	-6724
▁propag	-6725
standing	-6726
▁condemn	-6727
▁missile	-6728
▁original	-6729
▁watching	-6730
Qaeda	-6731
raine	-6732
▁Mill	-6733
▁Guard	-6734
▁Herat	-6735
▁Project	-6736
oles	-6737
▁Gurb	-6738
▁hall	-6739
▁expans	-6740
▁Emomali	-6741
▁migrant	-6742
▁Services	-6743
▁demanding	-6744
GE	-6745
▁Mil	-6746
▁Misr	-6747
▁pump	-6748
▁bases	-6749
▁filed	-6750
▁pregn	-6751
▁animal	-6752
▁surren	-6753
▁Haqqani	-6754
py	-6755
bon	-6756
▁colon	-6757
▁nobody	-6758
▁opinions	-6759
▁exporters	-6760
yev	-6761
▁GO	-6762
▁heat	-6763
▁semi	-6764
▁loyal	-6765
▁proved	-6766
▁preserv	-6767
▁passenger	-6768
▁associated	-6769
▁appointment	-6770
gana	-6771
▁elector	-6772
▁refugee	-6773
▁ourselves	-6774
▁Cooperation	-6775
▁manufacturing	-6776
kg	-6777
uez	-6778
▁OK	-6779
▁Dir	-6780
▁Sur	-6781
iable	-6782
using	-6783
anguly	-6784
change	-6785
▁planes	-6786
▁Dzhalal	-6787
▁pictures	-6788
▁Nursultan	-6789
▁involving	-6790
▁contribution	-6791
▁700	-6792
ghana	-6793
▁Mous	-6794
▁Once	-6795
▁advert	-6796
▁intens	-6797
▁Michael	-6798
▁correct	-6799
▁Moreover	-6800
▁consumers	-6801
▁conservative	-6802
oil	-6803
▁ice	-6804
▁Atef	-6805
▁cease	-6806
▁AGENCY	-6807
▁behalf	-6808
▁Instead	-6809
▁recover	-6810
▁attitude	-6811
iaz	-6812
▁tact	-6813
▁vent	-6814
▁royal	-6815
▁Atlant	-6816
▁impose	-6817
▁employee	-6818
▁kidnapping	-6819
HC	-6820
ESS	-6821
▁Tom	-6822
▁keen	-6823
▁magaz	-6824
▁proud	-6825
▁Provin	-6826
▁bronze	-6827
▁Algeria	-6828
▁emerged	-6829
▁seminar	-6830
▁preventing	-6831
fti	-6832
▁Town	-6833
oughly	-6834
▁Qatar	-6835
▁moral	-6836
▁Ikhwan	-6837
▁Election	-6838
▁channels	-6839
▁Following	-6840
▁compensation	-6841
matov	-6842
▁Bagh	-6843
▁tear	-6844
ounder	-6845
▁spect	-6846
▁atmosphere	-6847
ien	-6848
ETTA	-6849
▁Mrs	-6850
▁tied	-6851
▁Anthony	-6852
▁detention	-6853
▁aw	-6854
▁bills	-6855
▁closely	-6856
▁joining	-6857
▁passing	-6858
▁achieving	-6859
▁aggression	-6860
itter	-6861
shera	-6862
▁cool	-6863
▁earn	-6864
▁Customs	-6865
▁Morocco	-6866
▁distingu	-6867
▁historic	-6868
ros	-6869
▁innov	-6870
▁shell	-6871
▁struct	-6872
▁municip	-6873
▁Islamist	-6874
▁milk	-6875
▁nurs	-6876
▁connected	-6877
▁Provincial	-6878
▁49	-6879
▁bi	-6880
arus	-6881
▁murd	-6882
▁Scott	-6883
▁apprec	-6884
▁revenue	-6885
▁scientist	-6886
▁comparison	-6887
iner	-6888
▁ant	-6889
ikhar	-6890
▁forg	-6891
▁inqu	-6892
▁Earth	-6893
▁grants	-6894
▁BILLION	-6895
▁ancient	-6896
▁minimum	-6897
▁drinking	-6898
ua	-6899
▁Fazl	-6900
▁Syed	-6901
ighter	-6902
▁begins	-6903
▁campaigns	-6904
▁capabilities	-6905
ini	-6906
▁OP	-6907
▁Media	-6908
▁blasts	-6909
▁journey	-6910
▁underst	-6911
▁missiles	-6912
▁attending	-6913
aces	-6914
▁Five	-6915
▁mere	-6916
ashion	-6917
▁bonds	-6918
▁overs	-6919
▁Batken	-6920
▁fought	-6921
angarhar	-6922
▁Management	-6923
uts	-6924
▁57	-6925
▁Fat	-6926
▁hair	-6927
▁lect	-6928
▁upgr	-6929
▁Georg	-6930
indi	-6931
▁Raw	-6932
▁champ	-6933
▁Earlier	-6934
▁flights	-6935
▁otherwise	-6936
▁spiritual	-6937
▁56	-6938
▁Han	-6939
▁trig	-6940
▁plays	-6941
▁listen	-6942
▁deterior	-6943
▁exploded	-6944
▁humanity	-6945
▁supports	-6946
▁recognition	-6947
▁unprecedented	-6948
▁AP	-6949
iences	-6950
▁delay	-6951
▁Barack	-6952
▁QUETTA	-6953
▁abduct	-6954
▁Defense	-6955
▁entitled	-6956
▁Kurmanbek	-6957
▁survivors	-6958
▁preparation	-6959
IZ	-6960
▁58	-6961
riers	-6962
▁sees	-6963
▁newly	-6964
riminal	-6965
▁gained	-6966
▁Members	-6967
▁Nowshera	-6968
▁tribesmen	-6969
▁historical	-6970
▁specialized	-6971
▁unif	-6972
▁Yusuf	-6973
▁dress	-6974
▁contra	-6975
▁fertil	-6976
▁species	-6977
ids	-6978
▁UP	-6979
onom	-6980
▁Imam	-6981
▁dealt	-6982
▁paral	-6983
▁Electric	-6984
▁literature	-6985
▁NDP	-6986
▁ends	-6987
▁rice	-6988
elfare	-6989
▁mayor	-6990
▁clients	-6991
▁predicted	-6992
▁departments	-6993
▁spokeswoman	-6994
▁fol	-6995
isons	-6996
▁Mass	-6997
▁ring	-6998
▁wake	-6999
▁throw	-7000
▁stages	-7001
▁wickets	-7002
▁Mohammed	-7003
▁factions	-7004
▁traditions	-7005
iop	-7006
rav	-7007
▁Kul	-7008
aired	-7009
▁june	-7010
▁Street	-7011
▁Southern	-7012
▁gathering	-7013
▁IT	-7014
▁praised	-7015
▁section	-7016
▁Gurbanguly	-7017
▁processing	-7018
▁recommendations	-7019
▁CE	-7020
chen	-7021
▁MAR	-7022
▁Corpor	-7023
▁forest	-7024
▁Nangarhar	-7025
▁reporting	-7026
▁consideration	-7027
irt	-7028
▁85	-7029
akov	-7030
osis	-7031
▁Bil	-7032
▁PAR	-7033
rates	-7034
▁touch	-7035
▁motorcy	-7036
▁younger	-7037
▁injuring	-7038
▁Yesterday	-7039
da	-7040
ino	-7041
ache	-7042
issions	-7043
▁ending	-7044
▁manner	-7045
▁multip	-7046
▁provision	-7047
▁unidentified	-7048
▁AB	-7049
itely	-7050
▁furn	-7051
▁breat	-7052
▁rebel	-7053
▁Division	-7054
▁Ferghana	-7055
▁Iftikhar	-7056
▁Australian	-7057
QM	-7058
▁cup	-7059
house	-7060
▁Bakh	-7061
▁heav	-7062
▁admit	-7063
▁floor	-7064
▁broken	-7065
▁pledged	-7066
▁boosting	-7067
▁expensive	-7068
FP	-7069
gal	-7070
udd	-7071
▁Zar	-7072
▁crew	-7073
▁dict	-7074
▁3,000	-7075
gration	-7076
▁emotion	-7077
▁penalty	-7078
▁referring	-7079
▁Industries	-7080
irts	-7081
▁bow	-7082
▁Amir	-7083
▁entr	-7084
▁remov	-7085
▁exposed	-7086
hs	-7087
▁MQM	-7088
▁McC	-7089
ength	-7090
▁Jews	-7091
▁hash	-7092
▁James	-7093
▁solar	-7094
▁perpet	-7095
▁slight	-7096
▁Support	-7097
▁underway	-7098
▁sensitive	-7099
▁apparently	-7100
▁relatively	-7101
▁Dec	-7102
adium	-7103
field	-7104
▁blog	-7105
▁wood	-7106
▁initiatives	-7107
ariat	-7108
▁Emer	-7109
▁cells	-7110
▁specif	-7111
▁overcome	-7112
OC	-7113
isen	-7114
itect	-7115
▁blue	-7116
▁marg	-7117
▁sugar	-7118
▁convin	-7119
▁College	-7120
▁trouble	-7121
▁Olympics	-7122
▁secondary	-7123
▁everywhere	-7124
▁provisions	-7125
ITI	-7126
aya	-7127
▁Sad	-7128
Azhar	-7129
▁1991	-7130
▁april	-7131
ulations	-7132
▁mountains	-7133
▁prevention	-7134
ein	-7135
aria	-7136
uated	-7137
▁Twenty	-7138
▁comfort	-7139
▁assistant	-7140
▁discussing	-7141
▁possession	-7142
▁Environment	-7143
▁competitive	-7144
ille	-7145
tion	-7146
▁Sir	-7147
▁map	-7148
▁rub	-7149
▁erad	-7150
▁soil	-7151
▁forth	-7152
ighting	-7153
▁Arabic	-7154
▁fallen	-7155
▁phones	-7156
▁prepar	-7157
▁traders	-7158
▁practical	-7159
osal	-7160
▁Bol	-7161
▁Fah	-7162
▁fan	-7163
▁Jalal	-7164
▁starts	-7165
▁retreat	-7166
▁announce	-7167
▁celebrate	-7168
▁improvised	-7169
▁strengthening	-7170
ITY	-7171
▁shif	-7172
▁stra	-7173
▁micro	-7174
▁virus	-7175
▁payment	-7176
▁yourself	-7177
200	-7178
▁3,	-7179
▁web	-7180
break	-7181
▁Pers	-7182
▁coup	-7183
▁actual	-7184
▁hotels	-7185
▁familiar	-7186
▁donations	-7187
KS	-7188
essed	-7189
▁Dera	-7190
▁Kunduz	-7191
▁devast	-7192
▁smaller	-7193
▁version	-7194
▁friendly	-7195
▁53	-7196
uras	-7197
▁Gar	-7198
▁Sep	-7199
adian	-7200
▁Your	-7201
▁Major	-7202
▁Ethiop	-7203
▁Faisal	-7204
▁divided	-7205
▁inaugur	-7206
▁telling	-7207
▁detonated	-7208
▁celebration	-7209
aze	-7210
isa	-7211
▁Ca	-7212
▁Tex	-7213
▁Urdu	-7214
▁nice	-7215
▁advice	-7216
▁museum	-7217
▁stabil	-7218
▁Besides	-7219
▁Prosecut	-7220
▁transferred	-7221
yk	-7222
ambers	-7223
essions	-7224
▁remove	-7225
▁cutting	-7226
▁Criminal	-7227
▁Exchange	-7228
▁intention	-7229
ero	-7230
unk	-7231
▁ori	-7232
▁glass	-7233
▁temper	-7234
▁treaty	-7235
▁maximum	-7236
▁realize	-7237
▁guarantees	-7238
▁difficulties	-7239
YR	-7240
jah	-7241
▁51	-7242
ikov	-7243
rian	-7244
▁Bur	-7245
▁pal	-7246
▁Mary	-7247
inator	-7248
▁motiv	-7249
▁accompan	-7250
▁behavior	-7251
▁rehabilitation	-7252
MS	-7253
▁LI	-7254
plus	-7255
▁blame	-7256
▁INVEST	-7257
▁hoping	-7258
▁package	-7259
▁russian	-7260
▁household	-7261
▁situations	-7262
▁sufficient	-7263
oir	-7264
▁Mer	-7265
▁brut	-7266
▁consc	-7267
utation	-7268
▁pushed	-7269
▁predict	-7270
▁Internal	-7271
▁exercises	-7272
▁Revolution	-7273
▁volunteers	-7274
▁confiscated	-7275
Sh	-7276
▁Vlad	-7277
▁insp	-7278
▁bread	-7279
▁Rabbani	-7280
▁default	-7281
▁follows	-7282
▁transit	-7283
▁amendment	-7284
tt	-7285
aken	-7286
▁hits	-7287
▁warm	-7288
▁Lanka	-7289
▁overth	-7290
▁grounds	-7291
▁champion	-7292
▁promotion	-7293
▁succeeded	-7294
uct	-7295
▁et	-7296
otal	-7297
▁mir	-7298
▁uses	-7299
▁drawn	-7300
▁instance	-7301
▁accusations	-7302
ica	-7303
obe	-7304
berg	-7305
▁nav	-7306
▁posted	-7307
▁falling	-7308
▁hashish	-7309
▁interrog	-7310
▁convention	-7311
▁expression	-7312
▁presidency	-7313
▁psychological	-7314
▁Ol	-7315
qbal	-7316
▁Pakt	-7317
▁Sinai	-7318
▁Market	-7319
▁curric	-7320
▁rocket	-7321
▁engaged	-7322
▁imagine	-7323
▁pattern	-7324
▁scholar	-7325
▁studied	-7326
▁surprise	-7327
▁Corporation	-7328
ESCO	-7329
imir	-7330
▁Tan	-7331
▁hurt	-7332
Israel	-7333
▁surve	-7334
▁Ghazni	-7335
▁namely	-7336
▁stepped	-7337
▁totally	-7338
▁opponents	-7339
▁Investigation	-7340
▁contributions	-7341
▁SA	-7342
▁Mush	-7343
▁Summit	-7344
▁capture	-7345
▁ideology	-7346
▁regarded	-7347
▁effectively	-7348
bi	-7349
azz	-7350
ICEF	-7351
▁eru	-7352
ially	-7353
nesty	-7354
▁Miss	-7355
active	-7356
ranean	-7357
▁Kunar	-7358
▁cinem	-7359
▁enorm	-7360
▁behavi	-7361
▁easier	-7362
▁dushanbe	-7363
▁launching	-7364
▁legislative	-7365
▁Qa	-7366
▁bak	-7367
▁wear	-7368
itable	-7369
▁Inspe	-7370
▁prete	-7371
▁donors	-7372
▁weekly	-7373
▁disrupt	-7374
▁hacking	-7375
▁academic	-7376
▁salaries	-7377
▁expansion	-7378
do	-7379
▁aer	-7380
ardan	-7381
▁length	-7382
▁Fergana	-7383
▁drawing	-7384
▁options	-7385
▁Regional	-7386
▁replaced	-7387
▁surprised	-7388
▁surrender	-7389
▁Independent	-7390
▁Intelligence	-7391
cel	-7392
▁busy	-7393
▁dozen	-7394
▁style	-7395
▁UNICEF	-7396
▁sacrif	-7397
▁useful	-7398
▁widely	-7399
▁flooding	-7400
▁software	-7401
▁arrangements	-7402
annu	-7403
▁1996	-7404
▁Greek	-7405
▁papers	-7406
▁coverage	-7407
▁investigations	-7408
▁Braz	-7409
▁torn	-7410
aspian	-7411
▁drain	-7412
▁Malays	-7413
▁mental	-7414
▁mutual	-7415
▁seconds	-7416
▁Tunisian	-7417
▁crossing	-7418
▁vaccination	-7419
okh	-7420
▁cam	-7421
▁pup	-7422
erbai	-7423
intend	-7424
▁Forum	-7425
▁Power	-7426
▁aside	-7427
▁Youssef	-7428
▁surface	-7429
▁searching	-7430
▁95	-7431
▁Ale	-7432
▁Nob	-7433
▁Que	-7434
rible	-7435
▁1994	-7436
▁Suez	-7437
▁sets	-7438
▁Camer	-7439
akhshan	-7440
alpindi	-7441
▁traged	-7442
▁articles	-7443
▁tolerance	-7444
kor	-7445
▁Gas	-7446
▁boyc	-7447
▁meter	-7448
▁Church	-7449
▁allies	-7450
▁crucial	-7451
▁founded	-7452
▁monetary	-7453
aint	-7454
gies	-7455
▁Yet	-7456
▁Khud	-7457
▁guests	-7458
▁leaves	-7459
▁intends	-7460
▁unified	-7461
▁relation	-7462
▁addressed	-7463
▁insurgency	-7464
▁discrimination	-7465
BER	-7466
hry	-7467
▁ham	-7468
▁Noor	-7469
▁arts	-7470
▁bail	-7471
▁Belarus	-7472
▁Ukraine	-7473
▁tension	-7474
▁Relations	-7475
▁crackdown	-7476
▁detainees	-7477
▁execution	-7478
.0	-7479
▁63	-7480
▁UAE	-7481
▁bra	-7482
▁sky	-7483
▁bird	-7484
▁false	-7485
▁yield	-7486
▁COMPAN	-7487
▁hiding	-7488
▁technologies	-7489
DI	-7490
hw	-7491
▁Mag	-7492
▁tick	-7493
▁Karim	-7494
▁immun	-7495
▁persu	-7496
▁bullet	-7497
▁marked	-7498
▁saving	-7499
American	-7500
▁EXPORTS	-7501
▁substant	-7502
▁initially	-7503
▁criticized	-7504
ui	-7505
uma	-7506
▁geograph	-7507
▁homeland	-7508
▁indicate	-7509
▁operated	-7510
▁anonymity	-7511
▁attempted	-7512
▁regularly	-7513
▁phenomenon	-7514
▁Ata	-7515
▁Like	-7516
▁giant	-7517
▁centers	-7518
▁contrad	-7519
▁worried	-7520
▁disabled	-7521
▁collected	-7522
▁Uz	-7523
itan	-7524
wood	-7525
inder	-7526
▁evac	-7527
▁Exper	-7528
▁surge	-7529
▁Cabinet	-7530
▁herself	-7531
▁promise	-7532
▁consumer	-7533
▁observed	-7534
▁exception	-7535
▁collective	-7536
▁percentage	-7537
ATY	-7538
▁wid	-7539
▁Adam	-7540
▁Alam	-7541
▁Famil	-7542
▁anger	-7543
▁disapp	-7544
▁finals	-7545
▁repair	-7546
▁Zionist	-7547
▁Terrorism	-7548
▁accompanied	-7549
▁Tai	-7550
ighth	-7551
▁Front	-7552
▁dates	-7553
▁Robert	-7554
▁inspect	-7555
▁preserve	-7556
oi	-7557
inth	-7558
▁hur	-7559
ayeva	-7560
owned	-7561
▁none	-7562
▁wars	-7563
▁Kohat	-7564
▁Texas	-7565
▁brand	-7566
▁loved	-7567
▁desert	-7568
uba	-7569
▁Abul	-7570
▁fate	-7571
▁fedd	-7572
▁Upper	-7573
▁united	-7574
▁comments	-7575
umi	-7576
▁SCO	-7577
▁Suf	-7578
iques	-7579
▁Daily	-7580
▁accur	-7581
▁Caspian	-7582
▁fashion	-7583
▁greatest	-7584
▁recognize	-7585
▁threatening	-7586
▁Up	-7587
adar	-7588
cean	-7589
akand	-7590
▁pilot	-7591
▁limits	-7592
▁stance	-7593
▁depends	-7594
▁expanding	-7595
▁obligations	-7596
▁prosecution	-7597
▁Wah	-7598
▁Zak	-7599
Ahram	-7600
ifada	-7601
rence	-7602
▁Separ	-7603
▁funeral	-7604
tor	-7605
▁ALM	-7606
▁Den	-7607
▁onto	-7608
▁Saeed	-7609
▁upper	-7610
▁Speaker	-7611
▁polling	-7612
▁neighbor	-7613
▁payments	-7614
▁entrepreneurs	-7615
yz	-7616
iry	-7617
▁Phil	-7618
▁dogs	-7619
encing	-7620
▁quiet	-7621
children	-7622
▁comprom	-7623
▁confident	-7624
▁regardless	-7625
▁demonstration	-7626
CT	-7627
utch	-7628
▁Los	-7629
▁sick	-7630
▁tren	-7631
cribed	-7632
▁Bannu	-7633
▁Coast	-7634
▁voted	-7635
ado	-7636
faq	-7637
▁Ug	-7638
look	-7639
▁ben	-7640
▁1995	-7641
▁alert	-7642
▁frust	-7643
▁shift	-7644
▁stars	-7645
ologists	-7646
▁introduce	-7647
▁Christians	-7648
▁priorities	-7649
▁intervention	-7650
gin	-7651
ola	-7652
▁TR	-7653
▁Sil	-7654
▁jur	-7655
▁mel	-7656
▁Jack	-7657
▁Prop	-7658
▁Thus	-7659
▁fill	-7660
▁Shura	-7661
▁diagn	-7662
▁raids	-7663
▁UNESCO	-7664
▁bigger	-7665
▁filled	-7666
intendent	-7667
coh	-7668
▁Ev	-7669
akim	-7670
▁Sah	-7671
verse	-7672
▁sanct	-7673
▁Senior	-7674
▁Strate	-7675
▁Yousuf	-7676
▁remarks	-7677
▁assigned	-7678
▁minority	-7679
▁declaration	-7680
lif	-7681
nam	-7682
▁cul	-7683
cohol	-7684
▁Holy	-7685
▁ages	-7686
▁ALMATY	-7687
▁intent	-7688
▁learnt	-7689
uate	-7690
wart	-7691
▁Dub	-7692
▁Hot	-7693
oints	-7694
▁ARAB	-7695
▁guid	-7696
▁vast	-7697
ologist	-7698
ulating	-7699
▁backed	-7700
▁pieces	-7701
▁combined	-7702
▁graduates	-7703
▁transparency	-7704
▁Hy	-7705
▁Cur	-7706
▁MIN	-7707
▁Sing	-7708
▁boat	-7709
▁cope	-7710
tering	-7711
▁exempt	-7712
▁expend	-7713
▁drought	-7714
▁migrants	-7715
▁electoral	-7716
▁specialist	-7717
umin	-7718
▁hik	-7719
▁Armen	-7720
▁Green	-7721
actions	-7722
▁latter	-7723
▁display	-7724
▁plastic	-7725
▁shortly	-7726
▁Badakhshan	-7727
rier	-7728
▁Mun	-7729
▁guy	-7730
ourse	-7731
▁empt	-7732
▁barrel	-7733
▁hidden	-7734
▁memory	-7735
▁volunt	-7736
▁Nigeria	-7737
▁theatre	-7738
▁apartment	-7739
▁followers	-7740
▁recession	-7741
▁vegetables	-7742
▁Commissioner	-7743
▁imprisonment	-7744
▁Lt	-7745
AMAA	-7746
dule	-7747
ecut	-7748
▁rum	-7749
▁sav	-7750
▁phil	-7751
▁Chaud	-7752
▁Malala	-7753
▁remind	-7754
▁Officer	-7755
▁advisor	-7756
▁airline	-7757
▁testing	-7758
▁societies	-7759
▁wonderful	-7760
▁absolutely	-7761
▁encouraged	-7762
idi	-7763
well	-7764
▁1.2	-7765
▁Kas	-7766
▁Tor	-7767
aders	-7768
▁Anal	-7769
▁khan	-7770
▁rans	-7771
▁Iqbal	-7772
▁Right	-7773
▁stick	-7774
▁Sharia	-7775
▁argued	-7776
▁producers	-7777
tah	-7778
▁66	-7779
abet	-7780
ortion	-7781
▁enhan	-7782
▁secur	-7783
▁tells	-7784
▁turns	-7785
▁Export	-7786
▁Mardan	-7787
▁engage	-7788
▁gender	-7789
▁considers	-7790
▁generations	-7791
▁gap	-7792
▁voc	-7793
▁Vict	-7794
▁tree	-7795
▁Young	-7796
▁hoped	-7797
▁rooms	-7798
reement	-7799
▁Shiite	-7800
▁prayer	-7801
▁russia	-7802
▁Emergency	-7803
▁contained	-7804
▁residence	-7805
▁witnesses	-7806
▁resolutions	-7807
▁turkmenistan	-7808
▁Sub	-7809
ashev	-7810
inery	-7811
▁IRAQ	-7812
▁Khar	-7813
▁Must	-7814
person	-7815
▁paint	-7816
▁Azerbai	-7817
▁anybody	-7818
▁dignity	-7819
▁mechanisms	-7820
▁62	-7821
▁Aj	-7822
▁Mic	-7823
▁Paj	-7824
▁drew	-7825
▁SAMAA	-7826
▁memor	-7827
▁corner	-7828
▁manage	-7829
▁resume	-7830
▁promises	-7831
PR	-7832
ulty	-7833
▁inhab	-7834
▁walls	-7835
▁Report	-7836
▁Sector	-7837
▁formal	-7838
▁scores	-7839
▁youths	-7840
▁walking	-7841
▁enterprises	-7842
SA	-7843
eff	-7844
▁ec	-7845
born	-7846
▁2.5	-7847
▁Almaz	-7848
rencies	-7849
▁farming	-7850
▁universe	-7851
▁reference	-7852
gian	-7853
▁Wal	-7854
▁Kham	-7855
▁extrad	-7856
▁ranked	-7857
▁surger	-7858
▁consist	-7859
▁performed	-7860
▁currencies	-7861
▁laundering	-7862
▁engineering	-7863
▁acknowledged	-7864
St	-7865
▁SU	-7866
▁Wel	-7867
▁magn	-7868
▁memo	-7869
▁Wales	-7870
▁spark	-7871
▁Rahman	-7872
▁pursue	-7873
liminary	-7874
▁enormous	-7875
▁Inspector	-7876
▁architect	-7877
▁insurgent	-7878
▁spreading	-7879
▁Protection	-7880
▁experiment	-7881
▁sustainable	-7882
▁privatization	-7883
rey	-7884
▁67	-7885
gent	-7886
▁Nam	-7887
olved	-7888
▁Good	-7889
ATIONS	-7890
▁potat	-7891
▁Editor	-7892
▁Yemeni	-7893
▁Khattak	-7894
▁selected	-7895
ilt	-7896
kin	-7897
yod	-7898
teen	-7899
asure	-7900
▁fing	-7901
▁aerial	-7902
▁bombed	-7903
▁excess	-7904
▁funded	-7905
▁massac	-7906
▁secular	-7907
▁seventh	-7908
▁Vladimir	-7909
▁Operation	-7910
▁illegally	-7911
sen	-7912
▁Qad	-7913
erate	-7914
ivest	-7915
kulov	-7916
ommod	-7917
▁outf	-7918
ipping	-7919
▁facts	-7920
theless	-7921
▁cleared	-7922
▁realized	-7923
▁Islamists	-7924
▁complained	-7925
hat	-7926
oub	-7927
umes	-7928
▁Mod	-7929
▁Ten	-7930
▁Shia	-7931
▁curb	-7932
▁Pajhw	-7933
▁farms	-7934
▁tests	-7935
▁tools	-7936
▁closing	-7937
▁subsequ	-7938
▁countrys	-7939
▁72	-7940
mens	-7941
▁Jun	-7942
rable	-7943
▁Balk	-7944
▁Strip	-7945
▁captain	-7946
▁founder	-7947
▁vaccine	-7948
▁workshop	-7949
▁Rawalpindi	-7950
agon	-7951
▁Home	-7952
▁Nasir	-7953
▁Stock	-7954
▁notes	-7955
▁storm	-7956
ivestock	-7957
▁Pajhwok	-7958
▁Without	-7959
▁monopol	-7960
▁distance	-7961
▁freedoms	-7962
▁Technology	-7963
▁facilitate	-7964
▁68	-7965
mine	-7966
▁fees	-7967
▁stim	-7968
▁Hayat	-7969
▁Mount	-7970
▁moves	-7971
ecutive	-7972
▁legitim	-7973
▁behaviour	-7974
▁successfully	-7975
ROM	-7976
hus	-7977
zhan	-7978
▁Bet	-7979
▁Ref	-7980
▁thr	-7981
▁band	-7982
▁honor	-7983
▁Brazil	-7984
▁convoy	-7985
▁prosper	-7986
ressional	-7987
iterranean	-7988
▁importing	-7989
▁specifically	-7990
▁significantly	-7991
ule	-7992
▁64	-7993
▁Ta	-7994
pass	-7995
▁Raj	-7996
aching	-7997
ception	-7998
▁Engine	-7999
▁Shahid	-8000
▁brings	-8001
▁detect	-8002
▁explan	-8003
▁pretext	-8004
▁TB	-8005
ERIC	-8006
▁cha	-8007
orthy	-8008
▁Mukh	-8009
▁Twitter	-8010
▁injures	-8011
▁letters	-8012
▁reviewed	-8013
▁attacking	-8014
▁Statistics	-8015
▁reputation	-8016
▁solidarity	-8017
▁helicopters	-8018
▁correspondent	-8019
bn	-8020
ALL	-8021
atab	-8022
lema	-8023
▁Hab	-8024
▁IDP	-8025
▁sad	-8026
azing	-8027
iyeva	-8028
state	-8029
▁Mans	-8030
▁incom	-8031
▁param	-8032
ressing	-8033
▁flying	-8034
▁prevail	-8035
▁Canadian	-8036
▁controls	-8037
▁tensions	-8038
▁enterprise	-8039
kat	-8040
▁rif	-8041
▁tun	-8042
▁Park	-8043
▁skin	-8044
Israeli	-8045
cription	-8046
▁records	-8047
▁actively	-8048
▁travelling	-8049
▁intellectual	-8050
▁UZ	-8051
▁ADB	-8052
▁loot	-8053
▁quit	-8054
▁sear	-8055
▁pharm	-8056
▁troub	-8057
▁hockey	-8058
▁tariff	-8059
▁Science	-8060
▁blocked	-8061
▁reserve	-8062
▁accommod	-8063
▁recalled	-8064
▁expertise	-8065
▁Prosecutor	-8066
▁61	-8067
▁Bre	-8068
▁truly	-8069
▁deadly	-8070
▁locals	-8071
▁stores	-8072
▁alcohol	-8073
▁burning	-8074
▁straight	-8075
▁explosions	-8076
▁restaurant	-8077
▁techniques	-8078
▁recommended	-8079
▁HT	-8080
eper	-8081
▁tow	-8082
imbab	-8083
▁Wall	-8084
▁Still	-8085
▁renov	-8086
▁Global	-8087
▁Sports	-8088
▁theory	-8089
▁Georgia	-8090
▁tragedy	-8091
▁Chaudhry	-8092
▁possibly	-8093
▁languages	-8094
▁businessman	-8095
car	-8096
ube	-8097
ums	-8098
uild	-8099
ogram	-8100
▁Sunni	-8101
▁planet	-8102
▁winner	-8103
▁Tribune	-8104
▁arrival	-8105
▁harmony	-8106
▁Malakand	-8107
▁Turkmens	-8108
▁£	-8109
She	-8110
zad	-8111
anim	-8112
fall	-8113
▁adds	-8114
▁dies	-8115
▁color	-8116
▁worry	-8117
imbabwe	-8118
▁adults	-8119
▁waters	-8120
▁Further	-8121
▁Zimbabwe	-8122
▁forecast	-8123
▁unlikely	-8124
▁frequently	-8125
CA	-8126
UST	-8127
oked	-8128
▁Mut	-8129
cript	-8130
ivery	-8131
ticip	-8132
▁gard	-8133
▁swim	-8134
▁Black	-8135
▁fixed	-8136
▁tribe	-8137
manship	-8138
▁excell	-8139
▁Kingdom	-8140
▁oblasts	-8141
▁managing	-8142
▁schedule	-8143
▁Executive	-8144
▁propaganda	-8145
olf	-8146
emic	-8147
▁Bay	-8148
▁bare	-8149
inning	-8150
ladesh	-8151
▁chose	-8152
▁shape	-8153
▁Bureau	-8154
▁trends	-8155
▁Angeles	-8156
▁trading	-8157
▁extensive	-8158
▁shortages	-8159
CB	-8160
utr	-8161
▁Haz	-8162
▁Lev	-8163
antly	-8164
utral	-8165
▁Dara	-8166
▁Haid	-8167
▁Freed	-8168
▁feels	-8169
▁torch	-8170
▁Iraqis	-8171
▁retire	-8172
▁inmates	-8173
▁anywhere	-8174
▁purposes	-8175
▁suggests	-8176
▁alongside	-8177
▁primarily	-8178
▁assessment	-8179
▁exportation	-8180
▁Pav	-8181
▁Mash	-8182
▁asian	-8183
ferences	-8184
▁courage	-8185
▁register	-8186
▁requests	-8187
aman	-8188
▁upd	-8189
uster	-8190
▁boom	-8191
▁gall	-8192
▁monu	-8193
▁revol	-8194
tenance	-8195
▁buried	-8196
▁Capital	-8197
▁heavily	-8198
▁prisons	-8199
comm	-8200
ibek	-8201
long	-8202
▁Tol	-8203
itzer	-8204
▁feas	-8205
▁plat	-8206
▁Kamal	-8207
▁grade	-8208
▁Bashir	-8209
▁driven	-8210
▁scheme	-8211
▁extension	-8212
▁gradually	-8213
▁containing	-8214
▁incentives	-8215
iph	-8216
,500	-8217
isan	-8218
▁Flor	-8219
▁shad	-8220
▁verd	-8221
▁angry	-8222
▁assist	-8223
▁handle	-8224
▁feelings	-8225
▁survived	-8226
▁repeatedly	-8227
▁preparations	-8228
▁GOP	-8229
▁OSH	-8230
▁1993	-8231
▁Gold	-8232
▁Jama	-8233
▁Treat	-8234
▁conver	-8235
▁routes	-8236
▁Holding	-8237
▁equality	-8238
▁magazine	-8239
▁publicly	-8240
▁conversation	-8241
▁expectations	-8242
iyaz	-8243
▁Policy	-8244
▁Taiwan	-8245
▁earned	-8246
▁disturb	-8247
▁variety	-8248
▁covering	-8249
▁features	-8250
▁heritage	-8251
▁websites	-8252
▁mortality	-8253
▁radiation	-8254
▁invitation	-8255
rers	-8256
▁Ashraf	-8257
▁Richard	-8258
▁lawmakers	-8259
▁INVESTMENT	-8260
▁electrical	-8261
bl	-8262
yp	-8263
oni	-8264
▁der	-8265
▁Swed	-8266
▁lists	-8267
▁contem	-8268
▁photos	-8269
▁forming	-8270
▁grenades	-8271
▁insisted	-8272
ifications	-8273
▁resulting	-8274
▁background	-8275
▁completion	-8276
SP	-8277
IAL	-8278
▁76	-8279
heed	-8280
▁Tem	-8281
rolled	-8282
▁blind	-8283
▁spare	-8284
▁stake	-8285
▁Leader	-8286
▁burden	-8287
▁settled	-8288
▁airports	-8289
▁efficient	-8290
▁destroying	-8291
▁politically	-8292
Ass	-8293
rar	-8294
eenth	-8295
▁ment	-8296
▁Awami	-8297
▁Watch	-8298
▁bottom	-8299
▁writes	-8300
▁noticed	-8301
▁extraord	-8302
▁stopping	-8303
▁celebrated	-8304
▁Electricity	-8305
▁Construction	-8306
▁counterparts	-8307
▁investigators	-8308
khel	-8309
rete	-8310
▁Opp	-8311
▁halt	-8312
▁Patri	-8313
▁steel	-8314
holders	-8315
▁window	-8316
▁anticip	-8317
▁chances	-8318
▁surrend	-8319
▁Students	-8320
▁clothing	-8321
▁tendency	-8322
▁convinced	-8323
MA	-8324
IGN	-8325
▁besides	-8326
▁critics	-8327
▁drivers	-8328
▁equival	-8329
▁lessons	-8330
▁delivery	-8331
▁quantity	-8332
▁somebody	-8333
▁Bangladesh	-8334
▁efficiency	-8335
▁Communications	-8336
▁sand	-8337
▁tast	-8338
yodkor	-8339
▁const	-8340
▁metal	-8341
▁charity	-8342
▁dedicated	-8343
▁smugglers	-8344
▁sustained	-8345
▁preliminary	-8346
▁considerable	-8347
ila	-8348
uld	-8349
▁fo	-8350
onov	-8351
chers	-8352
onent	-8353
▁soul	-8354
▁Gamal	-8355
▁marks	-8356
▁proof	-8357
▁score	-8358
▁finish	-8359
▁category	-8360
▁creative	-8361
▁dealings	-8362
▁prospect	-8363
▁conclusion	-8364
ifa	-8365
▁59	-8366
▁abd	-8367
▁tea	-8368
▁wrest	-8369
▁Somali	-8370
▁narrow	-8371
▁awarded	-8372
▁components	-8373
▁governorates	-8374
RC	-8375
nan	-8376
▁Ke	-8377
ords	-8378
▁Fac	-8379
▁Riy	-8380
▁STUD	-8381
▁Staff	-8382
▁grass	-8383
▁ninth	-8384
▁Museum	-8385
▁walked	-8386
▁surplus	-8387
▁sympath	-8388
▁ensuring	-8389
▁disasters	-8390
▁migration	-8391
▁promising	-8392
▁helicopter	-8393
▁sovereignty	-8394
PS	-8395
ja	-8396
▁Ce	-8397
inct	-8398
lude	-8399
▁Out	-8400
▁Arch	-8401
▁Shan	-8402
ovenant	-8403
▁Kurdish	-8404
▁locations	-8405
▁medicines	-8406
▁attracting	-8407
▁recognized	-8408
▁negotiating	-8409
▁Sl	-8410
adda	-8411
ghai	-8412
imid	-8413
▁anx	-8414
▁Shab	-8415
▁fort	-8416
ancial	-8417
▁Somet	-8418
▁Action	-8419
▁livestock	-8420
▁Liberation	-8421
▁operational	-8422
▁resignation	-8423
ulf	-8424
aked	-8425
awah	-8426
osite	-8427
wered	-8428
▁elite	-8429
▁superv	-8430
▁overthrow	-8431
ADE	-8432
▁ski	-8433
ghold	-8434
▁Dubai	-8435
▁Quote	-8436
▁coinc	-8437
▁stron	-8438
▁Ashfaq	-8439
▁MINIST	-8440
▁breast	-8441
▁burned	-8442
▁watched	-8443
▁stronghold	-8444
fl	-8445
ela	-8446
▁Du	-8447
▁Post	-8448
▁tens	-8449
reland	-8450
▁stret	-8451
▁arrive	-8452
▁hosted	-8453
▁insist	-8454
▁constitu	-8455
▁commodity	-8456
▁defending	-8457
▁municipal	-8458
▁achievements	-8459
▁celebrations	-8460
▁FM	-8461
▁Na	-8462
▁ju	-8463
Shab	-8464
▁FROM	-8465
▁Step	-8466
▁badly	-8467
▁vowed	-8468
▁Yousaf	-8469
▁peaceke	-8470
▁regimes	-8471
▁welfare	-8472
▁stronger	-8473
▁maintenance	-8474
22	-8475
PC	-8476
ota	-8477
ziz	-8478
▁TE	-8479
▁CEO	-8480
▁Ext	-8481
right	-8482
▁emerg	-8483
▁grave	-8484
▁prize	-8485
▁Square	-8486
▁pupils	-8487
▁screen	-8488
▁illness	-8489
▁Ministers	-8490
▁Resources	-8491
▁instruments	-8492
▁neighbourhood	-8493
▁Il	-8494
▁Naj	-8495
▁Rob	-8496
▁Lake	-8497
▁brib	-8498
▁Chars	-8499
▁doors	-8500
▁error	-8501
▁Freedom	-8502
▁Network	-8503
▁abducted	-8504
▁councils	-8505
▁institute	-8506
▁equivalent	-8507
ago	-8508
erce	-8509
hand	-8510
▁Bob	-8511
▁Rec	-8512
level	-8513
▁moon	-8514
▁unex	-8515
▁Swiss	-8516
▁opens	-8517
▁indeed	-8518
▁Ireland	-8519
▁Kashmir	-8520
▁restric	-8521
▁claiming	-8522
▁infected	-8523
▁subjects	-8524
▁upcoming	-8525
▁Assistant	-8526
oom	-8527
▁1970	-8528
▁Life	-8529
▁Nasr	-8530
Sheikh	-8531
▁Aslam	-8532
▁novel	-8533
▁beauty	-8534
▁eighth	-8535
▁incred	-8536
▁listed	-8537
▁feddans	-8538
▁Indonesia	-8539
▁basically	-8540
▁commitments	-8541
▁?"	-8542
zoda	-8543
▁Ans	-8544
▁Kan	-8545
▁lob	-8546
akhel	-8547
▁poppy	-8548
illance	-8549
▁Norway	-8550
▁reiter	-8551
▁tackle	-8552
▁examine	-8553
▁forcing	-8554
▁islamic	-8555
▁outbreak	-8556
▁complicated	-8557
▁applications	-8558
alling	-8559
▁consol	-8560
▁degrees	-8561
▁precise	-8562
▁inspector	-8563
▁installed	-8564
▁prevented	-8565
▁-0	-8566
abric	-8567
▁Amin	-8568
▁Bach	-8569
▁grab	-8570
ousing	-8571
▁Sharm	-8572
▁donor	-8573
▁20,000	-8574
▁unanim	-8575
▁deliber	-8576
▁neutral	-8577
▁entrance	-8578
▁machines	-8579
▁reporter	-8580
▁resigned	-8581
GH	-8582
afd	-8583
PORT	-8584
▁Men	-8585
acking	-8586
skirts	-8587
▁Mufti	-8588
▁dance	-8589
▁assemb	-8590
▁shrine	-8591
▁issuing	-8592
▁discover	-8593
▁exceeded	-8594
▁hideouts	-8595
▁outskirts	-8596
▁Separately	-8597
▁explaining	-8598
▁personally	-8599
bul	-8600
buds	-8601
made	-8602
▁Aut	-8603
▁Qur	-8604
▁Khor	-8605
▁lots	-8606
▁touc	-8607
utical	-8608
▁Rogun	-8609
▁catch	-8610
▁immigr	-8611
▁Florida	-8612
▁pushing	-8613
▁worship	-8614
▁distribut	-8615
▁interpret	-8616
15	-8617
amo	-8618
ont	-8619
▁74	-8620
osure	-8621
▁Saif	-8622
▁adequ	-8623
▁finds	-8624
▁guide	-8625
▁overw	-8626
▁split	-8627
▁squad	-8628
▁Though	-8629
▁ransom	-8630
▁mothers	-8631
▁sharing	-8632
▁argument	-8633
▁cooperate	-8634
▁categories	-8635
▁governance	-8636
▁suspicious	-8637
▁representation	-8638
EAR	-8639
▁69	-8640
▁73	-8641
ANCE	-8642
▁24.	-8643
▁Dom	-8644
▁cry	-8645
apter	-8646
guard	-8647
orate	-8648
▁Fest	-8649
▁Fort	-8650
▁crash	-8651
▁polls	-8652
▁reply	-8653
▁threw	-8654
▁desper	-8655
▁enthus	-8656
▁intend	-8657
▁pulled	-8658
▁stayed	-8659
▁thwart	-8660
▁confron	-8661
▁outcome	-8662
▁economist	-8663
▁violation	-8664
▁ultimately	-8665
inh	-8666
rif	-8667
cher	-8668
▁Jab	-8669
arraf	-8670
▁luck	-8671
▁Frank	-8672
▁Nasser	-8673
▁Maulana	-8674
▁roughly	-8675
▁surgery	-8676
▁Emirates	-8677
▁multiple	-8678
▁Charsadda	-8679
▁dismissed	-8680
▁entertain	-8681
▁controversial	-8682
rd	-8683
▁bol	-8684
▁Saud	-8685
▁wing	-8686
▁Congo	-8687
▁Maher	-8688
▁native	-8689
▁thinks	-8690
▁urging	-8691
▁Khatlon	-8692
▁element	-8693
▁ranging	-8694
▁entirely	-8695
▁achievement	-8696
iate	-8697
prom	-8698
▁Rad	-8699
▁Tur	-8700
▁UNDP	-8701
▁swat	-8702
▁INTER	-8703
▁songs	-8704
▁parent	-8705
▁stream	-8706
▁backing	-8707
▁failing	-8708
▁Financial	-8709
▁principal	-8710
▁selection	-8711
▁definitely	-8712
▁integrated	-8713
▁researchers	-8714
hol	-8715
▁MA	-8716
rant	-8717
▁Rom	-8718
lined	-8719
ograp	-8720
▁IEDs	-8721
ainted	-8722
▁Akbar	-8723
▁Queen	-8724
▁Recon	-8725
▁cargo	-8726
▁fraud	-8727
▁Common	-8728
▁dinner	-8729
▁concess	-8730
▁library	-8731
iological	-8732
▁pilgrims	-8733
▁producer	-8734
▁prospects	-8735
▁reservoir	-8736
▁villagers	-8737
▁Azerbaijan	-8738
▁ordination	-8739
▁permission	-8740
▁certificates	-8741
▁Pri	-8742
▁Put	-8743
ocide	-8744
▁evil	-8745
▁pool	-8746
▁fruits	-8747
▁height	-8748
▁closure	-8749
▁explains	-8750
▁experiences	-8751
▁settlements	-8752
BR	-8753
RIC	-8754
▁Kir	-8755
night	-8756
▁Mang	-8757
▁deny	-8758
▁gate	-8759
▁pock	-8760
ounter	-8761
▁seeds	-8762
▁honest	-8763
▁Almazbek	-8764
▁Scottish	-8765
▁generate	-8766
▁planting	-8767
▁legitimacy	-8768
▁remarkable	-8769
LI	-8770
▁77	-8771
iest	-8772
▁Imp	-8773
▁Inc	-8774
▁etc	-8775
iffor	-8776
▁Asad	-8777
▁ISIL	-8778
▁flat	-8779
▁pure	-8780
▁Zahir	-8781
▁AMERIC	-8782
▁bishkek	-8783
▁reactor	-8784
▁speaker	-8785
▁Intifada	-8786
▁concrete	-8787
▁missions	-8788
▁resource	-8789
▁sessions	-8790
▁suspicion	-8791
▁quantities	-8792
ipe	-8793
ario	-8794
▁CEC	-8795
▁Dil	-8796
▁spr	-8797
▁Canal	-8798
▁Serge	-8799
▁agent	-8800
▁minim	-8801
▁penet	-8802
atically	-8803
▁contains	-8804
▁financed	-8805
▁rational	-8806
▁furniture	-8807
▁popularity	-8808
MT	-8809
REE	-8810
mas	-8811
▁Id	-8812
▁Um	-8813
▁om	-8814
enov	-8815
iana	-8816
▁sup	-8817
▁drove	-8818
▁saved	-8819
▁Partic	-8820
▁grenade	-8821
▁peshawar	-8822
▁anonymous	-8823
▁competing	-8824
▁computers	-8825
▁diplomats	-8826
▁instrument	-8827
▁Ki	-8828
▁WTO	-8829
▁Ariel	-8830
▁camer	-8831
▁minds	-8832
▁Yasser	-8833
▁fierce	-8834
▁Hundred	-8835
▁religions	-8836
▁distinguished	-8837
▁Hig	-8838
eting	-8839
making	-8840
ported	-8841
▁mouth	-8842
eworthy	-8843
▁Bashar	-8844
▁eating	-8845
▁clerics	-8846
▁flowers	-8847
▁judiciary	-8848
▁perspective	-8849
yo	-8850
aka	-8851
zhe	-8852
orry	-8853
▁fer	-8854
celer	-8855
▁1,500	-8856
▁Thous	-8857
▁deeply	-8858
▁riding	-8859
▁trucks	-8860
▁Mahmood	-8861
▁jointly	-8862
▁Ethiopia	-8863
▁airlines	-8864
▁proceeds	-8865
▁surrendered	-8866
awa	-8867
kov	-8868
▁Sus	-8869
▁dry	-8870
iscre	-8871
▁hect	-8872
▁scre	-8873
▁Eight	-8874
▁output	-8875
▁petrol	-8876
▁circles	-8877
▁returns	-8878
▁invasion	-8879
▁properly	-8880
▁centuries	-8881
▁objectives	-8882
▁publication	-8883
▁surveillance	-8884
▁extraordinary	-8885
▁di	-8886
amin	-8887
tery	-8888
▁1960	-8889
▁imam	-8890
▁embra	-8891
ication	-8892
related	-8893
▁Workers	-8894
▁routine	-8895
▁inspired	-8896
▁structures	-8897
▁instability	-8898
fa	-8899
wing	-8900
place	-8901
stans	-8902
▁Roza	-8903
▁Shal	-8904
terror	-8905
▁climb	-8906
▁philos	-8907
▁Cameron	-8908
▁rebuild	-8909
▁Covenant	-8910
▁overwhel	-8911
▁exclusive	-8912
▁integration	-8913
▁Mediterranean	-8914
iza	-8915
oro	-8916
▁86	-8917
ipov	-8918
▁vig	-8919
asury	-8920
diyev	-8921
▁Maur	-8922
▁PROJ	-8923
▁Rust	-8924
▁Viol	-8925
▁theme	-8926
▁uncon	-8927
▁fabric	-8928
▁valued	-8929
▁outlets	-8930
▁Hundreds	-8931
▁contrast	-8932
▁kilogram	-8933
▁restored	-8934
▁transform	-8935
ca	-8936
urov	-8937
▁Pen	-8938
▁Kong	-8939
▁Rail	-8940
▁Zham	-8941
assion	-8942
attered	-8943
ourable	-8944
▁assail	-8945
▁proven	-8946
▁therap	-8947
▁wounds	-8948
▁digital	-8949
▁equipped	-8950
▁combating	-8951
▁importers	-8952
▁collecting	-8953
▁disappeared	-8954
▁highlighted	-8955
▁continuation	-8956
▁interference	-8957
NS	-8958
ARY	-8959
rik	-8960
▁Bek	-8961
▁Hal	-8962
▁Saad	-8963
▁Rahim	-8964
▁datab	-8965
▁amazing	-8966
▁inhabit	-8967
▁retired	-8968
▁shelter	-8969
iscreants	-8970
▁executed	-8971
▁opposite	-8972
▁intensive	-8973
▁ownership	-8974
▁underground	-8975
▁neighborhood	-8976
▁transitional	-8977
▁unfortunately	-8978
▁Representation	-8979
illa	-8980
uine	-8981
▁Sit	-8982
▁UZS	-8983
gered	-8984
ifies	-8985
father	-8986
▁Secret	-8987
▁depriv	-8988
▁pledge	-8989
▁collaps	-8990
▁expects	-8991
▁fishing	-8992
▁kilometers	-8993
▁maintaining	-8994
HCR	-8995
▁sam	-8996
▁Sufi	-8997
▁hasn	-8998
▁hung	-8999
enders	-9000
mining	-9001
▁cheap	-9002
▁horse	-9003
▁oppose	-9004
▁outlaw	-9005
▁Article	-9006
▁ranking	-9007
ederation	-9008
▁shopping	-9009
▁suddenly	-9010
▁recruiting	-9011
▁necessarily	-9012
▁transactions	-9013
▁professionals	-9014
UB	-9015
▁Da	-9016
▁Ul	-9017
offic	-9018
▁Aman	-9019
▁Pres	-9020
▁tent	-9021
▁trem	-9022
achers	-9023
▁Imran	-9024
▁empty	-9025
▁exped	-9026
▁injury	-9027
▁reluct	-9028
▁controlling	-9029
RY	-9030
onn	-9031
▁Dur	-9032
Assad	-9033
acing	-9034
▁IDPs	-9035
▁inse	-9036
▁tool	-9037
▁Euras	-9038
▁UNHCR	-9039
▁fewer	-9040
▁sight	-9041
▁50,000	-9042
▁Haider	-9043
▁picked	-9044
utrition	-9045
▁beating	-9046
▁cancelled	-9047
▁confrontation	-9048
ooq	-9049
roc	-9050
▁84	-9051
acco	-9052
ogar	-9053
iders	-9054
ridge	-9055
▁Hong	-9056
▁Matt	-9057
▁merch	-9058
budsman	-9059
▁Others	-9060
▁endors	-9061
▁Yusufzai	-9062
▁frequent	-9063
▁suitable	-9064
▁departure	-9065
▁negotiate	-9066
▁volunteer	-9067
▁indicating	-9068
sp	-9069
how	-9070
sun	-9071
til	-9072
▁tu	-9073
▁ye	-9074
▁Gab	-9075
▁IND	-9076
front	-9077
▁Bomb	-9078
▁forb	-9079
▁yarn	-9080
called	-9081
▁Delta	-9082
▁Enter	-9083
▁Franc	-9084
▁divor	-9085
ulloyev	-9086
▁Banque	-9087
▁Prophet	-9088
▁greatly	-9089
▁premier	-9090
▁confined	-9091
▁estimate	-9092
▁overseas	-9093
▁Bunyodkor	-9094
▁performing	-9095
▁Journalists	-9096
300	-9097
oma	-9098
iang	-9099
▁DNA	-9100
▁dyn	-9101
▁Mand	-9102
ATIONAL	-9103
▁please	-9104
▁singer	-9105
▁slowly	-9106
▁dealers	-9107
▁erupted	-9108
▁stadium	-9109
▁breaking	-9110
▁congress	-9111
▁consolid	-9112
▁threaten	-9113
▁carefully	-9114
fast	-9115
▁Jac	-9116
sters	-9117
▁crude	-9118
▁Riyadh	-9119
▁Winter	-9120
▁answered	-9121
▁deadline	-9122
▁leaderships	-9123
▁willingness	-9124
14	-9125
eg	-9126
▁mu	-9127
irov	-9128
▁bes	-9129
▁Decl	-9130
▁Look	-9131
▁Brown	-9132
▁Qaumi	-9133
▁imped	-9134
▁lunch	-9135
▁tasks	-9136
▁infilt	-9137
▁refuse	-9138
▁trains	-9139
▁battles	-9140
▁genuine	-9141
aceutical	-9142
▁Festival	-9143
▁favorite	-9144
▁complaint	-9145
dar	-9146
key	-9147
nis	-9148
▁Vol	-9149
heast	-9150
▁Sham	-9151
▁rely	-9152
▁riot	-9153
▁topp	-9154
stream	-9155
▁Hakim	-9156
▁decis	-9157
▁keeps	-9158
▁models	-9159
▁acceler	-9160
▁detailed	-9161
▁moderate	-9162
▁pregnant	-9163
▁happiness	-9164
▁constantly	-9165
gaz	-9166
▁Ms	-9167
▁Soh	-9168
▁Haji	-9169
▁dece	-9170
▁guys	-9171
▁urge	-9172
▁Anwar	-9173
▁clubs	-9174
▁knock	-9175
▁topic	-9176
duction	-9177
▁camera	-9178
▁Abdullo	-9179
▁elderly	-9180
▁fatally	-9181
▁inquiry	-9182
▁Particip	-9183
▁Planning	-9184
▁terrible	-9185
▁Thousands	-9186
▁nationals	-9187
▁understood	-9188
▁documentary	-9189
▁installations	-9190
▁CD	-9191
▁EN	-9192
▁GS	-9193
▁Hin	-9194
icing	-9195
ouses	-9196
▁unve	-9197
onding	-9198
▁patri	-9199
▁shadow	-9200
▁versus	-9201
▁STUDENT	-9202
▁conspir	-9203
▁freight	-9204
▁lecture	-9205
▁silence	-9206
▁strange	-9207
▁asserted	-9208
▁procedure	-9209
...	-9210
▁00	-9211
▁SE	-9212
angi	-9213
▁Bot	-9214
▁ICC	-9215
▁Neg	-9216
▁Top	-9217
ilipp	-9218
under	-9219
▁shoes	-9220
ilitary	-9221
▁Nobody	-9222
▁firing	-9223
▁approve	-9224
▁Speaking	-9225
▁platform	-9226
▁disclosed	-9227
▁minorities	-9228
▁ministerial	-9229
600	-9230
bag	-9231
▁ax	-9232
▁CST	-9233
▁Mel	-9234
▁Carl	-9235
▁wond	-9236
▁adapt	-9237
▁chaos	-9238
▁conce	-9239
▁laugh	-9240
▁risen	-9241
onomous	-9242
▁speaks	-9243
▁Embassy	-9244
▁Mexican	-9245
▁Mustafa	-9246
▁mistake	-9247
▁profile	-9248
itzerland	-9249
▁Alliance	-9250
▁Malaysia	-9251
▁adoption	-9252
▁resolved	-9253
▁optimistic	-9254
▁transparent	-9255
▁technological	-9256
hah	-9257
nal	-9258
▁ME	-9259
▁arr	-9260
▁rot	-9261
aryab	-9262
▁Lady	-9263
▁aged	-9264
▁copy	-9265
arians	-9266
▁mobil	-9267
▁Abbott	-9268
▁brutal	-9269
▁exists	-9270
▁preced	-9271
▁burdens	-9272
▁mandate	-9273
▁Moroccan	-9274
▁denounced	-9275
▁indicates	-9276
▁noteworthy	-9277
▁immigration	-9278
▁chairmanship	-9279
▁contributing	-9280
avi	-9281
▁IR	-9282
afar	-9283
inov	-9284
▁Gol	-9285
▁Mob	-9286
▁Obs	-9287
▁Tel	-9288
▁kur	-9289
▁COUN	-9290
▁Resp	-9291
▁core	-9292
▁edge	-9293
▁Brook	-9294
▁Rasht	-9295
▁harsh	-9296
▁Argent	-9297
▁Giffor	-9298
▁Perhaps	-9299
▁benefic	-9300
▁storage	-9301
▁billions	-9302
▁madrassas	-9303
▁demonstrate	-9304
AIN	-9305
afiq	-9306
hess	-9307
prof	-9308
▁Gaz	-9309
▁Ish	-9310
▁Kab	-9311
▁PPP	-9312
▁Zia	-9313
board	-9314
▁Bhut	-9315
▁july	-9316
inejad	-9317
▁Again	-9318
▁trick	-9319
▁Moussa	-9320
▁poetry	-9321
▁solely	-9322
▁suburb	-9323
▁enjoyed	-9324
▁karachi	-9325
▁refrain	-9326
▁slightly	-9327
▁nominated	-9328
▁subjected	-9329
▁cultivation	-9330
▁modernization	-9331
25	-9332
ios	-9333
lel	-9334
▁Ly	-9335
hsan	-9336
▁Dan	-9337
▁avo	-9338
▁cad	-9339
▁flo	-9340
umbai	-9341
▁CSTO	-9342
▁bats	-9343
ietnam	-9344
▁fatwa	-9345
▁poison	-9346
▁200,000	-9347
▁Experts	-9348
▁Nazarov	-9349
▁lawsuit	-9350
▁describe	-9351
▁universal	-9352
▁transmission	-9353
▁collaboration	-9354
VE	-9355
aga	-9356
ras	-9357
▁id	-9358
ilov	-9359
▁Din	-9360
oline	-9361
▁auto	-9362
▁reop	-9363
▁Lower	-9364
▁hatred	-9365
▁switch	-9366
▁Profess	-9367
▁faction	-9368
▁intense	-9369
▁militia	-9370
▁rapidly	-9371
▁restruct	-9372
▁decreased	-9373
▁attempting	-9374
▁conviction	-9375
▁surrounded	-9376
governmental	-9377
▁significance	-9378
gor	-9379
arms	-9380
▁CID	-9381
▁Jal	-9382
▁Nic	-9383
▁Hist	-9384
▁jack	-9385
▁quake	-9386
▁rises	-9387
▁Recent	-9388
▁ignored	-9389
▁pursuing	-9390
▁criticised	-9391
▁prohibited	-9392
▁internationally	-9393
zb	-9394
400	-9395
tog	-9396
▁Aq	-9397
▁1.3	-9398
enous	-9399
power	-9400
▁lift	-9401
▁Abdur	-9402
▁Crime	-9403
▁Habib	-9404
▁sympt	-9405
▁bloody	-9406
▁intimid	-9407
▁segment	-9408
▁Cultural	-9409
▁expanded	-9410
▁fertiliz	-9411
▁diversity	-9412
▁Opposition	-9413
▁compromise	-9414
▁constitute	-9415
24	-9416
byl	-9417
shi	-9418
▁BY	-9419
▁CAR	-9420
itary	-9421
rator	-9422
▁Khel	-9423
▁Thom	-9424
▁diet	-9425
▁pair	-9426
▁tiny	-9427
ingora	-9428
▁Cross	-9429
▁arena	-9430
▁valid	-9431
▁bright	-9432
▁prompt	-9433
▁Baghlan	-9434
▁smoking	-9435
▁Monetary	-9436
▁Shanghai	-9437
▁contrary	-9438
▁rejection	-9439
▁undertake	-9440
▁appearance	-9441
▁Presidential	-9442
SE	-9443
ati	-9444
cles	-9445
rani	-9446
roph	-9447
ulam	-9448
▁140	-9449
▁3.5	-9450
▁350	-9451
▁Was	-9452
zhand	-9453
▁Hangu	-9454
▁genet	-9455
▁repay	-9456
▁simpl	-9457
▁smart	-9458
▁stead	-9459
▁cinema	-9460
▁clinic	-9461
▁hardly	-9462
▁tested	-9463
▁abandon	-9464
▁dangers	-9465
▁devoted	-9466
▁diverse	-9467
▁survive	-9468
▁educated	-9469
▁foremost	-9470
▁Regarding	-9471
▁checkpoint	-9472
▁nationality	-9473
▁demonstrated	-9474
▁Unfortunately	-9475
▁congressional	-9476
Kh	-9477
VERN	-9478
burg	-9479
▁Rup	-9480
▁lux	-9481
▁tip	-9482
▁unw	-9483
ogans	-9484
▁Hill	-9485
▁Mirz	-9486
▁Bazaar	-9487
▁Comple	-9488
▁Portug	-9489
▁aiming	-9490
▁passes	-9491
▁visual	-9492
▁answers	-9493
▁pension	-9494
▁hostages	-9495
▁addressing	-9496
▁struggling	-9497
▁instructions	-9498
▁introduction	-9499
bert	-9500
▁PCB	-9501
▁Tax	-9502
▁Tash	-9503
▁epid	-9504
▁Tokyo	-9505
▁shout	-9506
▁catast	-9507
▁coffee	-9508
▁unions	-9509
▁declare	-9510
▁Chambers	-9511
▁thoughts	-9512
▁Switzerland	-9513
,8	-9514
▁cu	-9515
iege	-9516
life	-9517
▁Ger	-9518
▁Kim	-9519
▁tur	-9520
▁1967	-9521
▁Jamal	-9522
▁Joint	-9523
▁Swabi	-9524
▁usual	-9525
▁Martin	-9526
▁Troops	-9527
▁orient	-9528
▁voiced	-9529
▁chapter	-9530
▁delayed	-9531
▁slogans	-9532
▁Everyone	-9533
▁Sciences	-9534
▁artistic	-9535
▁emotional	-9536
▁extending	-9537
▁islamabad	-9538
▁strategies	-9539
ehner	-9540
▁grid	-9541
▁vess	-9542
ealand	-9543
▁Ghani	-9544
▁TRADE	-9545
▁falls	-9546
▁rains	-9547
portion	-9548
▁beings	-9549
▁hunger	-9550
▁prince	-9551
▁serves	-9552
▁Giffords	-9553
▁destabil	-9554
▁receives	-9555
OND	-9556
iro	-9557
▁BA	-9558
avez	-9559
ford	-9560
▁nur	-9561
iatric	-9562
▁4,000	-9563
▁Elect	-9564
▁imper	-9565
▁panel	-9566
▁Farooq	-9567
▁Palace	-9568
▁league	-9569
▁cameras	-9570
▁linking	-9571
▁Algerian	-9572
▁accusing	-9573
▁disputed	-9574
▁expenses	-9575
▁disappear	-9576
▁excellent	-9577
▁assailants	-9578
▁organising	-9579
▁reasonable	-9580
kar	-9581
uan	-9582
▁Pow	-9583
rozen	-9584
▁Expl	-9585
▁abol	-9586
▁bure	-9587
▁Mayor	-9588
▁argue	-9589
▁buses	-9590
▁culpr	-9591
▁demol	-9592
▁lesson	-9593
▁Charles	-9594
▁amnesty	-9595
▁deposit	-9596
▁extract	-9597
▁musical	-9598
▁savings	-9599
▁solving	-9600
▁staying	-9601
▁uniform	-9602
▁severely	-9603
▁inhabitants	-9604
col	-9605
▁MW	-9606
orse	-9607
▁row	-9608
armed	-9609
irect	-9610
▁Tant	-9611
▁UNIC	-9612
▁thor	-9613
▁unus	-9614
▁Until	-9615
▁hello	-9616
▁stone	-9617
▁tries	-9618
▁carbon	-9619
▁Boehner	-9620
▁defined	-9621
▁criteria	-9622
▁compassion	-9623
▁influential	-9624
bel	-9625
▁-15	-9626
▁som	-9627
andum	-9628
water	-9629
▁2020	-9630
▁Sana	-9631
▁visa	-9632
▁tanks	-9633
▁System	-9634
▁mullah	-9635
aughters	-9636
▁Vietnam	-9637
▁repatri	-9638
▁compiled	-9639
▁findings	-9640
▁mistakes	-9641
▁Alexander	-9642
▁committing	-9643
▁restoration	-9644
ju	-9645
ett	-9646
ket	-9647
▁LA	-9648
▁Rw	-9649
etov	-9650
▁Maz	-9651
▁Whe	-9652
ingly	-9653
▁Family	-9654
▁Khorog	-9655
▁imposing	-9656
▁reflects	-9657
▁protected	-9658
▁researcher	-9659
▁conferences	-9660
gg	-9661
ye	-9662
zi	-9663
iba	-9664
▁rig	-9665
ammar	-9666
ursun	-9667
▁Priv	-9668
▁Sant	-9669
▁Shak	-9670
▁inev	-9671
▁Norwe	-9672
▁gangs	-9673
▁Member	-9674
▁actors	-9675
▁freely	-9676
▁assured	-9677
▁tashkent	-9678
▁wounding	-9679
▁Declaration	-9680
fur	-9681
▁87	-9682
fers	-9683
isar	-9684
omic	-9685
▁Jaw	-9686
▁Kay	-9687
▁Rem	-9688
▁Say	-9689
isers	-9690
estyle	-9691
▁Farid	-9692
▁Chavez	-9693
▁remitt	-9694
▁barrels	-9695
▁postponed	-9696
▁reflected	-9697
▁Industrial	-9698
▁maintained	-9699
BA	-9700
pat	-9701
pol	-9702
▁Lak	-9703
▁Leg	-9704
owing	-9705
▁Bout	-9706
▁Disc	-9707
▁Supp	-9708
▁asks	-9709
▁Armed	-9710
▁Never	-9711
▁gross	-9712
ictions	-9713
▁autumn	-9714
▁dreams	-9715
▁raises	-9716
▁Through	-9717
▁Musharraf	-9718
▁abandoned	-9719
▁advantages	-9720
▁journalism	-9721
▁joy	-9722
▁ped	-9723
aming	-9724
uable	-9725
▁NEWS	-9726
▁drag	-9727
▁hate	-9728
▁pose	-9729
▁puts	-9730
▁shed	-9731
urally	-9732
▁gains	-9733
▁Andrew	-9734
▁entity	-9735
▁frozen	-9736
▁Housing	-9737
▁Philipp	-9738
▁convince	-9739
▁textbook	-9740
▁governorate	-9741
,7	-9742
DA	-9743
100	-9744
▁ep	-9745
ails	-9746
mann	-9747
▁Jim	-9748
▁hyp	-9749
ellow	-9750
icago	-9751
▁beef	-9752
▁pist	-9753
iances	-9754
▁Hotel	-9755
▁labou	-9756
▁Marwat	-9757
▁Treaty	-9758
▁Within	-9759
▁reveal	-9760
▁reward	-9761
▁Enterpr	-9762
▁Zealand	-9763
▁fighter	-9764
▁renewed	-9765
▁dominated	-9766
▁extortion	-9767
▁teenagers	-9768
▁feasibility	-9769
19	-9770
ieth	-9771
▁Jos	-9772
▁SEC	-9773
▁jew	-9774
▁Ward	-9775
▁clar	-9776
awahiri	-9777
▁Rupert	-9778
▁Scient	-9779
▁colleg	-9780
▁lasted	-9781
▁chaired	-9782
▁exhibit	-9783
▁reaches	-9784
▁interven	-9785
▁publications	-9786
IF	-9787
oa	-9788
ASS	-9789
TON	-9790
uda	-9791
▁1.4	-9792
▁COMM	-9793
▁Hall	-9794
▁ISAF	-9795
▁Lord	-9796
▁bags	-9797
▁Farah	-9798
▁Perve	-9799
▁Michel	-9800
▁Mosque	-9801
▁academy	-9802
▁explore	-9803
▁killers	-9804
▁tactics	-9805
▁apparent	-9806
▁introducing	-9807
▁proceedings	-9808
▁supervision	-9809
olic	-9810
sized	-9811
▁1979	-9812
▁Azam	-9813
▁Hafe	-9814
▁Real	-9815
▁tsun	-9816
iously	-9817
iyazov	-9818
▁Peter	-9819
▁Trust	-9820
▁aspir	-9821
▁wazir	-9822
▁Higher	-9823
▁exclud	-9824
▁festiv	-9825
▁tender	-9826
▁portion	-9827
▁readers	-9828
▁focusing	-9829
▁protocol	-9830
▁Khudzhand	-9831
▁corporate	-9832
▁organisers	-9833
▁entertainment	-9834
17	-9835
Ch	-9836
fi	-9837
LAN	-9838
UND	-9839
apes	-9840
aimed	-9841
udent	-9842
▁lock	-9843
▁accum	-9844
▁GOVERN	-9845
▁Pervez	-9846
▁absent	-9847
▁convey	-9848
▁laying	-9849
official	-9850
▁addicts	-9851
▁hostage	-9852
▁passion	-9853
▁examples	-9854
▁graduate	-9855
▁parallel	-9856
▁infection	-9857
▁politician	-9858
ads	-9859
amir	-9860
onel	-9861
▁Fif	-9862
▁	-9863
e	-9864
t	-9865
a	-9866
i	-9867
n	-9868
o	-9869
s	-9870
r	-9871
h	-9872
l	-9873
d	-9874
c	-9875
u	-9876
m	-9877
f	-9878
p	-9879
g	-9880
y	-9881
w	-9882
b	-9883
,	-9884
.	-9885
v	-9886
k	-9887
A	-9888
T	-9889
S	-9890
I	-9891
-	-9892
"	-9893
0	-9894
M	-9895
'	-9896
P	-9897
C	-9898
E	-9899
N	-9900
z	-9901
1	-9902
B	-9903
x	-9904
K	-9905
2	-9906
R	-9907
j	-9908
H	-9909
O	-9910
D	-9911
U	-9912
F	-9913
L	-9914
W	-9915
G	-9916
q	-9917
(	-9918
J	-9919
5	-9920
)	-9921
3	-9922
9	-9923
4	-9924
8	-9925
7	-9926
6	-9927
Y	-9928
:	-9929
V	-9930
Z	-9931
/	-9932
_	-9933
?	-9934
$	-9935
Q	-9936
%	-9937
~	-9938
;	-9939
[	-9940
]	-9941
!	-9942
*	-9943
X	-9944
&	-9945
£	-9946
+	-9947
`	-9948
€	-9949
{	-9950
}	-9951
ا	-9952
=	-9953
@	-9954
ن	-9955
د	-9956
°	-9957
س	-9958
ر	-9959
#	-9960
ه	-9961
|	-9962
ی	-9963
ف	-9964
م	-9965
ب	-9966
\	-9967
و	-9968
ک	-9969
⁄	-9970
ت	-9971
پ	-9972
ح	-9973
ش	-9974
ق	-9975
ز	-9976
ص	-9977
>	-9978
ل	-9979
ع	-9980
گ	-9981
آ	-9982
ط	-9983
¢	-9984
خ	-9985
<	-9986
^	-9987
Ц	-9988
и	-9989
ظ	-9990
ژ	-9991
±	-9992
б	-9993
д	-9994
л	-9995
ث	-9996
