<unk>	0
<s>	0
</s>	0
▁ا	-0
▁ب	-1
▁م	-2
▁د	-3
▁ک	-4
ان	-5
ای	-6
ار	-7
ست	-8
▁و	-9
▁در	-10
▁ر	-11
▁ت	-12
ند	-13
▁.	-14
▁ه	-15
ین	-16
▁,	-17
▁ن	-18
▁ش	-19
▁س	-20
▁به	-21
▁آ	-22
▁که	-23
ور	-24
▁گ	-25
اد	-26
▁می	-27
▁از	-28
ود	-29
▁خ	-30
ال	-31
▁پ	-32
ام	-33
▁بر	-34
▁را	-35
رد	-36
▁است	-37
▁این	-38
▁با	-39
▁ی	-40
▁ج	-41
لی	-42
ات	-43
اه	-44
فت	-45
یر	-46
▁ح	-47
▁ق	-48
ید	-49
▁ع	-50
ون	-51
▁های	-52
▁ف	-53
▁کرد	-54
▁شد	-55
▁"	-56
شت	-57
▁آن	-58
یم	-59
اب	-60
از	-61
▁یک	-62
▁ز	-63
ری	-64
ستان	-65
وی	-66
ول	-67
▁برای	-68
سی	-69
▁من	-70
اری	-71
مان	-72
وز	-73
▁چ	-74
▁گفت	-75
▁کن	-76
▁ام	-77
▁تو	-78
▁هم	-79
را	-80
یت	-81
ها	-82
▁ان	-83
▁ها	-84
های	-85
▁بود	-86
رو	-87
▁خو	-88
▁او	-89
▁تا	-90
▁ط	-91
یز	-92
▁اف	-93
▁ای	-94
لا	-95
▁1	-96
▁ص	-97
انی	-98
▁داد	-99
▁2	-100
رک	-101
خت	-102
می	-103
▁شده	-104
▁بی	-105
گر	-106
ارد	-107
اک	-108
▁سال	-109
▁:	-110
تی	-111
ده	-112
انه	-113
▁خود	-114
یل	-115
زار	-116
▁کش	-117
▁ال	-118
▁اس	-119
▁مو	-120
اشت	-121
▁اند	-122
بر	-123
00	-124
▁قر	-125
▁آم	-126
▁خواه	-127
▁دو	-128
مای	-129
▁مح	-130
یک	-131
اس	-132
▁-	-133
▁پی	-134
▁رو	-135
▁کار	-136
ایی	-137
ورد	-138
له	-139
یا	-140
اق	-141
▁کنند	-142
تر	-143
▁روز	-144
▁مس	-145
ادی	-146
▁سر	-147
▁کند	-148
▁کشور	-149
نگ	-150
وان	-151
▁کرده	-152
وری	-153
▁آنها	-154
شد	-155
▁ما	-156
بی	-157
گاه	-158
▁ل	-159
▁فر	-160
▁ده	-161
▁مت	-162
▁رس	-163
امه	-164
▁دست	-165
اده	-166
▁باز	-167
▁گذ	-168
▁اع	-169
▁جم	-170
الی	-171
▁کم	-172
▁دول	-173
▁مد	-174
▁دی	-175
اره	-176
شک	-177
▁گر	-178
▁شود	-179
▁ساز	-180
اف	-181
ئی	-182
▁هست	-183
▁یا	-184
▁نظ	-185
▁تر	-186
▁مق	-187
به	-188
امی	-189
وم	-190
▁داشت	-191
▁پیش	-192
▁(	-193
▁وی	-194
▁مص	-195
▁)	-196
▁ار	-197
▁غ	-198
مین	-199
نی	-200
قه	-201
▁تح	-202
زارش	-203
جه	-204
▁دار	-205
عه	-206
▁مر	-207
▁گزارش	-208
▁مع	-209
گی	-210
قی	-211
▁خواهد	-212
مل	-213
▁انت	-214
کن	-215
نده	-216
وا	-217
▁بین	-218
▁نی	-219
اند	-220
▁افز	-221
▁مرد	-222
▁تن	-223
شته	-224
▁مورد	-225
فته	-226
اخت	-227
که	-228
▁دولت	-229
عی	-230
▁حال	-231
▁توس	-232
▁اما	-233
فر	-234
رکت	-235
بت	-236
▁دارد	-237
▁نش	-238
نامه	-239
اید	-240
▁."	-241
▁هر	-242
▁پاک	-243
ئیس	-244
شی	-245
▁میلی	-246
▁اق	-247
ریک	-248
ما	-249
▁مج	-250
سه	-251
▁باشد	-252
▁رئیس	-253
رف	-254
▁جه	-255
▁ات	-256
اط	-257
▁پاکستان	-258
▁اج	-259
▁هستند	-260
▁پس	-261
گیر	-262
زی	-263
گان	-264
▁سازمان	-265
لام	-266
هر	-267
▁دیگر	-268
▁شرکت	-269
▁عم	-270
▁قرار	-271
دید	-272
▁بخ	-273
عد	-274
در	-275
بان	-276
نین	-277
▁ماه	-278
اتی	-279
▁انج	-280
جود	-281
▁کردند	-282
▁دان	-283
▁اد	-284
ایش	-285
▁ژ	-286
وند	-287
▁افغ	-288
لیس	-289
▁دل	-290
من	-291
رات	-292
شن	-293
▁مصر	-294
▁منط	-295
▁3	-296
▁وز	-297
▁امن	-298
▁اح	-299
▁افغان	-300
▁200	-301
▁نمای	-302
یه	-303
▁بد	-304
نان	-305
▁تأ	-306
▁نو	-307
▁منطقه	-308
▁امنیت	-309
▁هی	-310
بار	-311
▁انجام	-312
▁نیر	-313
▁چه	-314
یده	-315
▁جن	-316
▁نمی	-317
▁داده	-318
▁جمه	-319
اح	-320
▁مش	-321
▁پلیس	-322
ره	-323
▁سی	-324
اع	-325
▁تاج	-326
▁وجود	-327
▁باید	-328
اخ	-329
▁تص	-330
هم	-331
▁وزیر	-332
▁زمان	-333
وف	-334
رای	-335
مد	-336
▁بسی	-337
▁نیز	-338
▁آمریک	-339
▁توان	-340
اور	-341
▁نق	-342
▁افزایش	-343
▁مردم	-344
▁تج	-345
▁نم	-346
▁تاجیک	-347
وع	-348
▁میلیون	-349
▁نظر	-350
▁پر	-351
صد	-352
▁گرو	-353
▁پای	-354
▁مخ	-355
▁قرق	-356
انک	-357
▁قرقیز	-358
▁خار	-359
▁قب	-360
▁همچ	-361
نوان	-362
وق	-363
وب	-364
وت	-365
▁کمک	-366
▁اص	-367
▁سیا	-368
انون	-369
▁توسط	-370
▁برنامه	-371
▁آز	-372
▁گروه	-373
▁اط	-374
▁دلار	-375
▁زند	-376
لس	-377
▁سه	-378
▁دهد	-379
▁افغانستان	-380
▁ساخت	-381
گذ	-382
▁20	-383
▁بیشت	-384
ژه	-385
▁پن	-386
▁پرو	-387
وه	-388
▁آب	-389
▁/	-390
▁بز	-391
▁نیرو	-392
▁5	-393
▁آسی	-394
▁مط	-395
▁راه	-396
▁نام	-397
▁تم	-398
▁خان	-399
تش	-400
▁روی	-401
▁همه	-402
امل	-403
رائ	-404
▁4	-405
▁گو	-406
دم	-407
دی	-408
▁ض	-409
▁ند	-410
▁مقام	-411
ادر	-412
▁?	-413
▁ملی	-414
▁گرفت	-415
▁شن	-416
▁نخ	-417
ارت	-418
▁اینکه	-419
▁باش	-420
▁هایی	-421
▁ست	-422
▁یکی	-423
عیت	-424
▁بخش	-425
▁حد	-426
▁آموز	-427
بک	-428
شان	-429
▁قز	-430
▁دانش	-431
▁زی	-432
کان	-433
▁قانون	-434
▁اش	-435
▁بانک	-436
رگ	-437
چه	-438
▁قزاق	-439
▁عنوان	-440
امبر	-441
▁گذشته	-442
تص	-443
اران	-444
▁بوده	-445
▁شک	-446
▁بن	-447
جی	-448
▁19	-449
▁دارند	-450
▁جدید	-451
کت	-452
خاب	-453
▁خی	-454
▁زمین	-455
وس	-456
سته	-457
▁برخ	-458
▁انتخاب	-459
▁همچنین	-460
▁گرد	-461
▁گفته	-462
▁ترک	-463
▁طال	-464
فاده	-465
▁هیچ	-466
▁کردن	-467
دام	-468
▁تاجیکستان	-469
رب	-470
▁دور	-471
▁بودند	-472
▁علی	-473
▁المل	-474
▁فع	-475
▁حق	-476
▁شور	-477
▁داشته	-478
مایه	-479
کر	-480
▁شهر	-481
▁طالبان	-482
▁شوند	-483
▁نمود	-484
▁چند	-485
▁اقتص	-486
▁شما	-487
یزه	-488
لح	-489
▁شدند	-490
▁سرمایه	-491
گیری	-492
باره	-493
▁حم	-494
▁شم	-495
رح	-496
▁اخ	-497
▁اعلام	-498
ورت	-499
▁آمریکا	-500
▁افر	-501
▁بال	-502
▁قرقیزستان	-503
▁جمهور	-504
سم	-505
لاح	-506
▁غیر	-507
▁نیست	-508
▁اگر	-509
ابل	-510
ران	-511
▁نفر	-512
▁نیروهای	-513
▁استفاده	-514
▁مل	-515
ازه	-516
ازی	-517
بد	-518
▁میان	-519
▁اول	-520
رسی	-521
کاری	-522
▁المللی	-523
بود	-524
▁قزاقستان	-525
▁ازبک	-526
▁مرک	-527
لیل	-528
اص	-529
▁چیز	-530
▁کل	-531
▁کشته	-532
ینه	-533
اض	-534
▁مان	-535
▁ایج	-536
▁تنها	-537
خص	-538
جا	-539
▁فعال	-540
▁درصد	-541
▁سو	-542
▁ایجاد	-543
▁نه	-544
▁تروری	-545
▁مذ	-546
ینی	-547
زب	-548
▁بیشتر	-549
▁ره	-550
▁گذاری	-551
زه	-552
ونه	-553
▁متح	-554
▁مالی	-555
▁خط	-556
▁بعد	-557
▁آی	-558
▁ستیزه	-559
لمان	-560
▁مقامات	-561
▁وق	-562
▁مرا	-563
▁تق	-564
▁زیر	-565
▁خواهند	-566
لف	-567
▁گرفته	-568
زد	-569
▁شدن	-570
مند	-571
داشت	-572
▁توسعه	-573
نه	-574
▁نا	-575
▁سپ	-576
▁بیش	-577
▁حمله	-578
بال	-579
▁هد	-580
▁مبار	-581
▁نشان	-582
▁جل	-583
▁وزار	-584
▁دهند	-585
▁مدر	-586
▁وزارت	-587
▁جوی	-588
ریق	-589
▁6	-590
▁جنگ	-591
وک	-592
ستی	-593
▁بل	-594
▁مواد	-595
وط	-596
▁مسئ	-597
حی	-598
▁افزود	-599
▁رسانه	-600
▁هن	-601
▁کشورهای	-602
▁طی	-603
▁خوا	-604
▁دید	-605
▁داخ	-606
▁مه	-607
▁همکاری	-608
▁تلا	-609
▁کس	-610
▁واق	-611
وش	-612
▁اطلا	-613
▁حزب	-614
▁بزرگ	-615
▁بیم	-616
روپ	-617
▁نظامی	-618
▁اساس	-619
▁سیاسی	-620
▁ث	-621
ایت	-622
ومی	-623
▁نیاز	-624
▁کود	-625
گذار	-626
▁شه	-627
▁لی	-628
▁کنیم	-629
▁بسیار	-630
▁تع	-631
▁;	-632
قیق	-633
ونی	-634
▁آور	-635
ظه	-636
▁اطلاع	-637
▁آغ	-638
انس	-639
▁ژو	-640
▁کاه	-641
ائ	-642
وص	-643
لید	-644
▁افراد	-645
▁اروپ	-646
▁زندگی	-647
▁امنیتی	-648
غی	-649
▁پنج	-650
▁درباره	-651
▁رسید	-652
▁میانه	-653
▁کاهش	-654
▁7	-655
فی	-656
▁آغاز	-657
▁چهار	-658
▁خبر	-659
▁تلاش	-660
▁201	-661
واه	-662
ندگان	-663
▁بار	-664
تب	-665
▁برخی	-666
▁نس	-667
مب	-668
▁عملی	-669
▁صورت	-670
▁سخ	-671
▁وارد	-672
هایی	-673
صوص	-674
000	-675
افق	-676
▁مشک	-677
دا	-678
کنون	-679
▁مدرسه	-680
▁تیم	-681
جر	-682
▁گوید	-683
▁ازبکستان	-684
▁هدف	-685
▁مدیر	-686
▁نخست	-687
ترین	-688
▁بح	-689
ابق	-690
▁دولتی	-691
▁تولید	-692
▁آسیای	-693
▁تعد	-694
سر	-695
گز	-696
▁پرد	-697
▁حدود	-698
با	-699
▁اخت	-700
▁حمای	-701
▁تحت	-702
خوا	-703
▁جهانی	-704
ضای	-705
▁8	-706
▁اقدام	-707
▁اقتصادی	-708
میم	-709
▁باشند	-710
▁بازار	-711
▁جام	-712
▁مست	-713
▁امر	-714
وریه	-715
▁مم	-716
وار	-717
گری	-718
کس	-719
یری	-720
▁حمایت	-721
▁فق	-722
▁حس	-723
▁خانه	-724
▁پروژه	-725
فا	-726
▁چنین	-727
لامی	-728
▁میلیارد	-729
ویت	-730
▁رفت	-731
▁اتح	-732
اطر	-733
ستم	-734
▁بمب	-735
گو	-736
زان	-737
▁جای	-738
▁موض	-739
▁حقوق	-740
▁رهبر	-741
▁تواند	-742
ابر	-743
تم	-744
▁حمل	-745
▁دن	-746
▁ایم	-747
▁مشت	-748
▁10	-749
▁تغی	-750
▁دادند	-751
▁مشکل	-752
یدا	-753
شه	-754
▁ور	-755
زینه	-756
▁عرا	-757
▁خصوص	-758
▁خارجی	-759
▁سوی	-760
▁تصمیم	-761
▁ممکن	-762
▁استان	-763
لای	-764
کی	-765
خانه	-766
▁کو	-767
▁مبارزه	-768
▁دلیل	-769
▁اداره	-770
▁ادامه	-771
▁برق	-772
▁دریا	-773
یته	-774
▁صلح	-775
▁اسلام	-776
▁مب	-777
▁ایر	-778
▁تغییر	-779
▁کمیته	-780
▁طرح	-781
▁طرف	-782
▁مار	-783
▁افت	-784
ابی	-785
▁خانو	-786
قل	-787
▁نزد	-788
▁کشت	-789
اش	-790
ژی	-791
سیون	-792
▁مسئول	-793
▁بسیاری	-794
▁ملل	-795
ودی	-796
▁9	-797
▁علیه	-798
اپ	-799
▁زمانی	-800
▁لب	-801
ولی	-802
لب	-803
▁صن	-804
▁زنان	-805
▁مرکز	-806
عت	-807
▁توجه	-808
▁آموزش	-809
ئن	-810
کار	-811
▁صاد	-812
▁کنم	-813
▁وض	-814
▁جان	-815
▁ایال	-816
▁برد	-817
▁اسلامی	-818
توان	-819
▁جهت	-820
▁آینده	-821
▁عملیات	-822
بری	-823
▁عمومی	-824
▁ته	-825
▁فعالیت	-826
▁فرو	-827
▁ارائ	-828
▁ارائه	-829
▁طول	-830
▁بازی	-831
رم	-832
بانی	-833
▁برگذار	-834
ثر	-835
▁انتخابات	-836
ایر	-837
چی	-838
▁سن	-839
▁پار	-840
لم	-841
▁ذ	-842
رائیل	-843
▁اکنون	-844
▁نزدیک	-845
▁عرب	-846
▁فلس	-847
کتر	-848
▁محمد	-849
▁جهان	-850
▁خانواده	-851
▁اسرائیل	-852
▁شامل	-853
▁صح	-854
▁شب	-855
ربی	-856
▁جویان	-857
▁جمهوری	-858
▁یافت	-859
▁طور	-860
▁شاه	-861
▁بش	-862
▁مث	-863
شنبه	-864
▁همان	-865
▁هزینه	-866
▁آزاد	-867
▁روسی	-868
▁پایان	-869
طه	-870
▁زن	-871
▁عراق	-872
▁طریق	-873
رس	-874
▁جوان	-875
▁نگ	-876
,000	-877
▁فلسط	-878
▁تمام	-879
▁مؤ	-880
▁بدون	-881
فج	-882
گران	-883
▁قط	-884
▁پیدا	-885
▁خواست	-886
▁هفته	-887
▁[	-888
▁کنید	-889
▁عض	-890
▁محلی	-891
▁]	-892
▁اظه	-893
▁پرداخت	-894
▁اروپا	-895
▁چیزی	-896
رده	-897
طور	-898
▁خدم	-899
▁مانند	-900
▁ارتش	-901
▁آباد	-902
▁مهم	-903
▁موضوع	-904
▁خاطر	-905
ایل	-906
▁اظهار	-907
اسی	-908
▁انگ	-909
▁فکر	-910
احیه	-911
▁تعداد	-912
زش	-913
▁هنوز	-914
ضی	-915
راه	-916
▁زمینه	-917
رخ	-918
▁کمی	-919
▁دادگاه	-920
ادیه	-921
▁اجت	-922
عث	-923
▁15	-924
▁دریافت	-925
▁ترکمن	-926
▁شی	-927
▁اعضای	-928
▁زیادی	-929
▁رق	-930
تل	-931
▁برابر	-932
▁روزنامه	-933
▁اتحادیه	-934
▁متحده	-935
▁چرا	-936
▁صد	-937
▁مام	-938
▁گل	-939
..	-940
ابع	-941
کوم	-942
ویی	-943
▁حض	-944
▁اعت	-945
▁باعث	-946
▁قیم	-947
▁آورد	-948
فق	-949
▁اخیر	-950
شم	-951
▁ساله	-952
▁خر	-953
▁اه	-954
▁ناحیه	-955
ندی	-956
▁ریا	-957
▁تأمین	-958
▁بده	-959
ویس	-960
▁ارتب	-961
▁دستگیر	-962
▁آر	-963
▁ارتباط	-964
▁اشاره	-965
گرد	-966
▁ظ	-967
▁جو	-968
▁اطلاعات	-969
▁تحقیق	-970
▁رود	-971
▁مخدر	-972
▁تاری	-973
▁کنتر	-974
▁وضعیت	-975
زشک	-976
▁منابع	-977
▁صادرات	-978
تاب	-979
▁حتی	-980
▁امور	-981
▁اصلی	-982
▁عبد	-983
▁جمله	-984
سان	-985
▁سازی	-986
▁پیشنه	-987
▁پول	-988
▁عل	-989
▁قدر	-990
▁کنترل	-991
▁مناط	-992
▁یاد	-993
▁دادن	-994
رین	-995
▁دا	-996
▁سیاست	-997
ونت	-998
▁همراه	-999
▁تب	-1000
▁سیستم	-1001
▁کام	-1002
▁پاس	-1003
▁بررسی	-1004
انیه	-1005
▁مرب	-1006
▁نسبت	-1007
وزی	-1008
یف	-1009
▁سوم	-1010
▁کننده	-1011
▁فرمان	-1012
اعت	-1013
▁مخت	-1014
▁جامعه	-1015
هنگ	-1016
▁قیمت	-1017
▁دانشگاه	-1018
▁انتظ	-1019
▁12	-1020
یرد	-1021
▁پیر	-1022
▁تشک	-1023
▁...	-1024
ابت	-1025
▁وقتی	-1026
▁اصلاح	-1027
▁11	-1028
▁یافته	-1029
ویه	-1030
▁ژوئن	-1031
▁زخ	-1032
▁پشت	-1033
▁پیشاور	-1034
عا	-1035
روع	-1036
ذیر	-1037
▁هزار	-1038
افی	-1039
سال	-1040
▁مناطق	-1041
▁ویژه	-1042
▁ری	-1043
▁اجتما	-1044
▁حاض	-1045
▁علا	-1046
رایط	-1047
▁مدت	-1048
▁دکتر	-1049
دار	-1050
▁شرایط	-1051
▁تاریخ	-1052
▁اولین	-1053
▁روسیه	-1054
▁توافق	-1055
▁ایالات	-1056
▁کیل	-1057
▁غذ	-1058
▁عمل	-1059
خواست	-1060
▁آزادی	-1061
▁قبل	-1062
▁کشاور	-1063
▁همین	-1064
▁سف	-1065
ضا	-1066
▁مذه	-1067
▁دم	-1068
▁میزان	-1069
▁شورای	-1070
لاین	-1071
▁بع	-1072
▁مخال	-1073
▁مامور	-1074
▁مجلس	-1075
▁ندارد	-1076
▁حاضر	-1077
▁آنلاین	-1078
▁مشترک	-1079
▁دفت	-1080
▁قدرت	-1081
▁ژان	-1082
▁مربوط	-1083
▁نفت	-1084
▁کودکان	-1085
▁خوب	-1086
▁حالی	-1087
▁شروع	-1088
▁کوچ	-1089
▁هو	-1090
▁زخمی	-1091
▁داخلی	-1092
▁آوریل	-1093
▁دوره	-1094
تامبر	-1095
مت	-1096
یمی	-1097
▁خیبر	-1098
▁ایران	-1099
بیر	-1100
لاف	-1101
▁انتق	-1102
▁سپتامبر	-1103
▁شنبه	-1104
▁تجارت	-1105
▁فقط	-1106
▁دیگری	-1107
▁تشکیل	-1108
▁دفتر	-1109
▁قبیل	-1110
▁انفج	-1111
▁نقل	-1112
▁مظ	-1113
▁منظ	-1114
▁عضو	-1115
▁دوشنبه	-1116
▁پرس	-1117
▁مرگ	-1118
▁ریاست	-1119
▁خش	-1120
▁خیلی	-1121
تیجه	-1122
▁حل	-1123
▁رادی	-1124
ایف	-1125
نون	-1126
▁درخواست	-1127
▁طب	-1128
▁دف	-1129
▁بیانیه	-1130
▁آیا	-1131
▁موق	-1132
▁گست	-1133
▁%	-1134
▁اور	-1135
▁نک	-1136
▁کرا	-1137
▁عبدال	-1138
▁مارس	-1139
▁گذاشت	-1140
▁حضور	-1141
وبی	-1142
▁تجاری	-1143
▁نتیجه	-1144
سازی	-1145
ادل	-1146
▁ژانویه	-1147
▁اوت	-1148
▁تروریسم	-1149
▁اجتماعی	-1150
▁مؤس	-1151
▁مصری	-1152
▁سابق	-1153
▁--	-1154
نش	-1155
▁گاز	-1156
▁فران	-1157
▁مرز	-1158
مه	-1159
▁دنبال	-1160
باز	-1161
▁پیشنهاد	-1162
صول	-1163
گونه	-1164
▁آمریکایی	-1165
▁199	-1166
▁فروش	-1167
▁پزشک	-1168
▁مذاک	-1169
بش	-1170
▁احتم	-1171
اهای	-1172
▁نوا	-1173
▁فرد	-1174
▁مظنون	-1175
▁هوا	-1176
▁جز	-1177
وزه	-1178
▁آنجا	-1179
▁کراچی	-1180
▁هنگ	-1181
▁ترکمنستان	-1182
مانی	-1183
▁مجم	-1184
دان	-1185
▁قبیله	-1186
▁اب	-1187
قای	-1188
▁فرانسه	-1189
▁مختلف	-1190
▁زیرا	-1191
▁حملات	-1192
▁مذهبی	-1193
▁درآ	-1194
ثیر	-1195
▁دخت	-1196
▁ولی	-1197
بور	-1198
▁سط	-1199
یکه	-1200
▁موفق	-1201
▁گوی	-1202
▁ایست	-1203
دین	-1204
▁انتظار	-1205
▁تل	-1206
ازم	-1207
▁بیمار	-1208
▁30	-1209
اله	-1210
جوی	-1211
دود	-1212
▁بیر	-1213
▁نواحی	-1214
▁اکت	-1215
▁آخ	-1216
▁رسمی	-1217
▁ساک	-1218
▁تلف	-1219
▁خارج	-1220
▁ساعت	-1221
▁بودجه	-1222
اون	-1223
▁تش	-1224
▁زد	-1225
▁امید	-1226
شار	-1227
▁عالی	-1228
▁سخنگ	-1229
▁سایر	-1230
▁مرزی	-1231
▁آماده	-1232
▁کاری	-1233
▁گونه	-1234
▁مطال	-1235
▁اکتبر	-1236
▁بحث	-1237
▁خشونت	-1238
▁فیل	-1239
▁رادیو	-1240
▁خصوصی	-1241
ائل	-1242
▁عکس	-1243
▁محصول	-1244
▁نمایش	-1245
▁پوند	-1246
▁جنبش	-1247
▁نخواه	-1248
▁اجازه	-1249
▁اض	-1250
▁25	-1251
▁شر	-1252
▁آنچه	-1253
▁بهداشت	-1254
▁چین	-1255
▁13	-1256
▁سود	-1257
ندان	-1258
▁پذیر	-1259
فاق	-1260
▁18	-1261
▁قابل	-1262
▁14	-1263
رژی	-1264
▁پارلمان	-1265
کید	-1266
▁تک	-1267
ابط	-1268
▁سلاح	-1269
▁تهدید	-1270
▁الق	-1271
▁رشد	-1272
▁سرباز	-1273
▁اقتصاد	-1274
▁اینجا	-1275
▁مک	-1276
▁نشست	-1277
▁گیری	-1278
▁سری	-1279
▁دس	-1280
راط	-1281
نا	-1282
▁کال	-1283
▁کتاب	-1284
رش	-1285
▁بیشتری	-1286
تا	-1287
▁مال	-1288
أی	-1289
▁انرژی	-1290
▁اجرای	-1291
▁روست	-1292
▁مرکزی	-1293
▁سخنگوی	-1294
▁صحبت	-1295
▁راب	-1296
▁منظور	-1297
بدیل	-1298
▁نرخ	-1299
جب	-1300
▁مسئولان	-1301
▁دیدار	-1302
یزی	-1303
▁ارزش	-1304
▁روابط	-1305
لیه	-1306
▁شهرو	-1307
▁تبدیل	-1308
▁آمد	-1309
▁شکست	-1310
▁دسامبر	-1311
برد	-1312
▁بالا	-1313
▁رأی	-1314
▁سفر	-1315
▁پخت	-1316
▁پاسخ	-1317
▁توانند	-1318
▁کسی	-1319
▁اتفاق	-1320
▁تأکید	-1321
▁دوم	-1322
▁فوریه	-1323
شناس	-1324
▁دموک	-1325
کو	-1326
▁سوریه	-1327
▁خدمات	-1328
▁معاون	-1329
▁تأثیر	-1330
▁کنفر	-1331
لاس	-1332
▁نوامبر	-1333
▁گیرد	-1334
▁جنوبی	-1335
▁منت	-1336
▁نشده	-1337
▁منجر	-1338
▁داشتند	-1339
▁افراط	-1340
ئیه	-1341
▁جنوب	-1342
▁واک	-1343
صیل	-1344
راین	-1345
▁نیروی	-1346
ابقه	-1347
▁بهبود	-1348
▁قانونی	-1349
▁آل	-1350
بات	-1351
وله	-1352
▁عق	-1353
▁گفتند	-1354
نر	-1355
▁مها	-1356
▁خرید	-1357
▁دارای	-1358
▁کر	-1359
▁ژوئیه	-1360
▁آمده	-1361
▁الله	-1362
▁انفجار	-1363
▁ضر	-1364
▁نقش	-1365
▁فرهنگ	-1366
▁محکوم	-1367
▁بتوان	-1368
▁کنندگان	-1369
▁ترین	-1370
▁چون	-1371
نج	-1372
▁متحد	-1373
حه	-1374
▁کنار	-1375
▁تخ	-1376
▁شخص	-1377
▁مخالف	-1378
▁احمد	-1379
▁مناس	-1380
▁بیشک	-1381
▁نیوز	-1382
▁17	-1383
▁صادر	-1384
▁پختون	-1385
▁دبیر	-1386
▁لبنان	-1387
▁احتمال	-1388
▁بیشکک	-1389
▁کسب	-1390
داری	-1391
▁بشر	-1392
گزاری	-1393
▁امروز	-1394
یار	-1395
یید	-1396
▁گیر	-1397
▁نمایند	-1398
▁کشاورزی	-1399
▁طبق	-1400
▁تأیید	-1401
▁کنفرانس	-1402
ریان	-1403
▁گویند	-1404
▁پیشر	-1405
▁16	-1406
▁اجرا	-1407
▁کوچک	-1408
▁ضد	-1409
▁روند	-1410
▁دیده	-1411
کم	-1412
پیم	-1413
▁رابطه	-1414
▁نبود	-1415
▁سرا	-1416
▁دستور	-1417
▁کامل	-1418
▁محدود	-1419
أله	-1420
▁یع	-1421
▁مسأله	-1422
▁اک	-1423
▁نماید	-1424
▁C	-1425
▁قتل	-1426
▁رسد	-1427
▁جی	-1428
لاق	-1429
▁احس	-1430
▁شو	-1431
▁خطر	-1432
▁امکان	-1433
▁تروریستی	-1434
یدی	-1435
یره	-1436
▁نگر	-1437
▁سع	-1438
▁نمایندگان	-1439
▁ندار	-1440
▁الم	-1441
▁ثبت	-1442
▁جلو	-1443
▁داریم	-1444
▁درگیری	-1445
▁محل	-1446
▁بازگ	-1447
▁جوانان	-1448
▁فیلم	-1449
▁عربی	-1450
▁ارد	-1451
▁شش	-1452
▁منتش	-1453
▁رهبران	-1454
▁خبرگزاری	-1455
▁لازم	-1456
اعده	-1457
▁قرارد	-1458
▁سطح	-1459
▁عو	-1460
▁باقی	-1461
▁اثر	-1462
▁موافق	-1463
▁آقای	-1464
▁چندین	-1465
▁آش	-1466
▁جمعیت	-1467
ظت	-1468
هام	-1469
▁خارجه	-1470
ایع	-1471
▁مردان	-1472
▁ابت	-1473
▁کردم	-1474
▁حف	-1475
▁ابر	-1476
▁بیمارستان	-1477
▁جلسه	-1478
▁یعنی	-1479
▁شبکه	-1480
▁بیان	-1481
▁فلسطین	-1482
▁نامه	-1483
خصص	-1484
▁شبه	-1485
ستانه	-1486
پی	-1487
▁فدر	-1488
▁فرمانده	-1489
▁مشکلات	-1490
▁سنگ	-1491
▁نف	-1492
▁کان	-1493
▁رخ	-1494
گذاری	-1495
▁کی	-1496
▁کلی	-1497
اج	-1498
▁مادر	-1499
▁بناب	-1500
▁بخشی	-1501
▁فرص	-1502
هن	-1503
▁نگه	-1504
▁نماینده	-1505
▁دفاع	-1506
▁رسیده	-1507
تن	-1508
بین	-1509
▁متهم	-1510
▁آف	-1511
▁ارشد	-1512
▁بلکه	-1513
راف	-1514
او	-1515
▁فدرال	-1516
▁بنابراین	-1517
▁منتشر	-1518
▁یاب	-1519
▁تازه	-1520
▁زندان	-1521
▁قصد	-1522
▁القاعده	-1523
یدن	-1524
▁مستق	-1525
اچ	-1526
▁تحریک	-1527
▁تس	-1528
▁بیرون	-1529
▁آتش	-1530
▁ول	-1531
▁سخت	-1532
اندن	-1533
▁درست	-1534
▁گردد	-1535
صل	-1536
اتر	-1537
کل	-1538
▁مغ	-1539
▁رقابت	-1540
▁احساس	-1541
▁ممن	-1542
▁هفت	-1543
▁نداشت	-1544
▁بچه	-1545
جان	-1546
زای	-1547
▁بیماری	-1548
▁انتح	-1549
▁تد	-1550
▁تف	-1551
▁برخورد	-1552
▁24	-1553
▁تحصیل	-1554
▁انتحاری	-1555
ولیت	-1556
▁گرفتن	-1557
ورش	-1558
▁پوش	-1559
▁صند	-1560
▁قد	-1561
ادهای	-1562
▁قوان	-1563
تای	-1564
▁مکان	-1565
▁کابل	-1566
اهی	-1567
▁درآمد	-1568
▁دش	-1569
▁آفریق	-1570
سیس	-1571
▁طبی	-1572
لق	-1573
ابه	-1574
▁کودک	-1575
ادث	-1576
▁هوایی	-1577
▁هواپیم	-1578
▁جاری	-1579
بوع	-1580
واره	-1581
ویزی	-1582
▁جمع	-1583
▁محاف	-1584
▁صنعت	-1585
وست	-1586
اهم	-1587
تری	-1588
▁کاملا	-1589
▁هند	-1590
▁عدم	-1591
▁مدیریت	-1592
▁شمال	-1593
▁نور	-1594
▁مسلمان	-1595
▁فل	-1596
▁الع	-1597
▁زبان	-1598
رفه	-1599
مال	-1600
▁جاده	-1601
▁موجود	-1602
▁بزر	-1603
▁کمیسیون	-1604
▁روش	-1605
▁قربانی	-1606
ینگ	-1607
▁تلویزی	-1608
▁دری	-1609
▁کیلو	-1610
▁اغ	-1611
سای	-1612
▁حفظ	-1613
▁2001	-1614
▁تی	-1615
▁مشخص	-1616
▁حاک	-1617
▁2010	-1618
▁پرونده	-1619
ویب	-1620
▁مطبوع	-1621
▁بحران	-1622
▁فلسطینی	-1623
▁شمار	-1624
▁سمت	-1625
▁علاوه	-1626
▁بنا	-1627
▁تصویب	-1628
▁نموده	-1629
▁درو	-1630
▁تقری	-1631
▁موجب	-1632
▁سل	-1633
▁مصرف	-1634
▁ران	-1635
▁هستیم	-1636
▁اهم	-1637
جم	-1638
▁محصولات	-1639
▁اساسی	-1640
مرک	-1641
▁دوست	-1642
افع	-1643
شین	-1644
▁قوانین	-1645
رض	-1646
تق	-1647
ظر	-1648
▁ریزی	-1649
▁تحلیل	-1650
▁وقت	-1651
▁اشت	-1652
▁اهمیت	-1653
عیین	-1654
جات	-1655
▁رح	-1656
رار	-1657
▁امضا	-1658
▁کسانی	-1659
▁خواستار	-1660
▁جشن	-1661
▁تعیین	-1662
▁2009	-1663
▁خواهیم	-1664
▁شکل	-1665
▁آسیب	-1666
▁واح	-1667
▁خوش	-1668
▁هنر	-1669
▁نخواهد	-1670
▁لیبی	-1671
▁حرکت	-1672
▁دوباره	-1673
▁بطور	-1674
▁22	-1675
▁ساختمان	-1676
▁وسی	-1677
▁محی	-1678
▁موارد	-1679
ویق	-1680
▁رهبری	-1681
▁تقریبا	-1682
▁فوت	-1683
▁شاهد	-1684
▁مطرح	-1685
ادن	-1686
گرم	-1687
▁آنکه	-1688
صر	-1689
▁شهروندان	-1690
▁آبی	-1691
▁آموزشی	-1692
▁سراسر	-1693
داد	-1694
▁تحقیقات	-1695
▁100	-1696
▁شمالی	-1697
▁مسلح	-1698
▁خبری	-1699
▁نیم	-1700
تان	-1701
انیا	-1702
▁دهه	-1703
▁ترتی	-1704
▁رد	-1705
▁واقع	-1706
▁پاکستانی	-1707
▁مسئولیت	-1708
▁وام	-1709
▁نویس	-1710
اما	-1711
▁وال	-1712
یکی	-1713
▁جلوگیری	-1714
▁پدر	-1715
▁قطع	-1716
▁ژاپ	-1717
▁واحد	-1718
▁مسابقه	-1719
▁شورشی	-1720
▁معم	-1721
▁شان	-1722
▁موا	-1723
▁نگاه	-1724
افه	-1725
▁نخستین	-1726
▁مؤسسه	-1727
▁مشار	-1728
▁حی	-1729
▁بسته	-1730
▁50	-1731
▁تروریست	-1732
▁گفتگو	-1733
▁فرصت	-1734
▁غیرق	-1735
▁سپس	-1736
ستانی	-1737
▁مسائل	-1738
▁تور	-1739
▁ساکنان	-1740
▁دموکرات	-1741
▁!	-1742
▁اغلب	-1743
▁هسته	-1744
▁اتهام	-1745
▁چشم	-1746
▁شناس	-1747
▁دیر	-1748
کند	-1749
▁اینتر	-1750
▁محیط	-1751
اقل	-1752
لیم	-1753
▁21	-1754
▁دنیا	-1755
غل	-1756
▁فرا	-1757
▁بو	-1758
خش	-1759
▁قاچ	-1760
▁پیشرفت	-1761
▁پختونخوا	-1762
▁قاچاق	-1763
▁هشت	-1764
▁ساخته	-1765
▁مراسم	-1766
▁تض	-1767
▁درمان	-1768
▁بازداشت	-1769
▁لای	-1770
▁قادر	-1771
▁هیات	-1772
▁مواجه	-1773
▁مسابق	-1774
▁داخله	-1775
▁یه	-1776
▁گسترش	-1777
▁مالیات	-1778
▁ترتیب	-1779
▁بعنوان	-1780
روف	-1781
راض	-1782
ظاه	-1783
▁مبنی	-1784
انده	-1785
▁پزشکی	-1786
▁انتقال	-1787
▁واقعی	-1788
▁کارخانه	-1789
▁بهره	-1790
▁بینی	-1791
▁مسابقات	-1792
▁ویر	-1793
▁گذار	-1794
گه	-1795
▁روید	-1796
▁خبرنگ	-1797
▁مشارکت	-1798
▁پناه	-1799
شق	-1800
جویان	-1801
▁تظاه	-1802
▁مرح	-1803
▁افرادی	-1804
▁بنی	-1805
اخته	-1806
▁اید	-1807
▁وح	-1808
مندان	-1809
▁پایین	-1810
▁مناسب	-1811
▁صندوق	-1812
▁اختص	-1813
▁بدهی	-1814
▁بست	-1815
▁فشار	-1816
ولو	-1817
▁بودن	-1818
ریب	-1819
▁هشد	-1820
▁زده	-1821
▁خوبی	-1822
▁بازگشت	-1823
▁نوع	-1824
یشه	-1825
▁واقعا	-1826
▁برس	-1827
▁کافی	-1828
▁23	-1829
▁اتاق	-1830
▁لح	-1831
أت	-1832
▁اعمال	-1833
سل	-1834
▁دختر	-1835
عهد	-1836
▁مثل	-1837
▁اهد	-1838
▁اختصاص	-1839
.5	-1840
▁ترس	-1841
▁تقویت	-1842
▁انجمن	-1843
بایف	-1844
اژ	-1845
▁موفقیت	-1846
▁متخصص	-1847
ریف	-1848
▁2008	-1849
▁حوزه	-1850
▁سند	-1851
▁جریان	-1852
▁اون	-1853
▁چگونه	-1854
▁طبیعی	-1855
▁مراق	-1856
▁مذاکرات	-1857
▁بهتر	-1858
▁بگیر	-1859
▁حکم	-1860
▁گردش	-1861
▁فرست	-1862
▁توانست	-1863
الت	-1864
ینا	-1865
▁منب	-1866
ایان	-1867
▁آخرین	-1868
اها	-1869
▁عه	-1870
تح	-1871
▁یابد	-1872
▁همچنان	-1873
▁توضی	-1874
غال	-1875
▁کیلوگرم	-1876
▁جایی	-1877
▁سایت	-1878
▁توص	-1879
▁اضافه	-1880
▁آنان	-1881
▁خیاب	-1882
▁حداقل	-1883
▁قرارداد	-1884
ظیم	-1885
▁دره	-1886
▁مجبور	-1887
نت	-1888
▁اختیار	-1889
دیگر	-1890
وقف	-1891
▁اوش	-1892
▁مسیر	-1893
وعه	-1894
▁وس	-1895
▁28	-1896
▁جذ	-1897
میل	-1898
▁هشدار	-1899
▁روشن	-1900
▁متوقف	-1901
▁کشف	-1902
▁اصلاحات	-1903
▁مقابل	-1904
▁مستقل	-1905
▁پشتی	-1906
ریه	-1907
▁27	-1908
نگی	-1909
▁26	-1910
▁اعتراض	-1911
▁بدست	-1912
▁مرحله	-1913
▁آگاه	-1914
▁40	-1915
▁مرتب	-1916
▁ممنوع	-1917
▁مجد	-1918
▁اطمین	-1919
▁حالیکه	-1920
▁نزدیکی	-1921
▁بازسازی	-1922
▁عربستان	-1923
▁کوه	-1924
▁سالانه	-1925
▁دهیم	-1926
▁کمتر	-1927
▁احز	-1928
▁شع	-1929
▁صرف	-1930
▁اوب	-1931
▁آلمان	-1932
▁مشابه	-1933
▁آوری	-1934
▁ملاق	-1935
▁تهیه	-1936
▁دارم	-1937
▁گردید	-1938
▁شدید	-1939
▁اطمینان	-1940
فه	-1941
▁مالک	-1942
▁برداشت	-1943
▁خاص	-1944
▁فراهم	-1945
▁توضیح	-1946
▁داشتن	-1947
▁همیشه	-1948
ساد	-1949
▁آمیز	-1950
▁استرات	-1951
▁پسر	-1952
نرانی	-1953
▁امسال	-1954
▁شاید	-1955
حال	-1956
اوی	-1957
▁سخنرانی	-1958
اوم	-1959
قف	-1960
▁داخل	-1961
فاوت	-1962
▁متع	-1963
▁احزاب	-1964
▁گذاشته	-1965
▁نظارت	-1966
▁موسی	-1967
ژانس	-1968
▁دستی	-1969
▁بهترین	-1970
▁قهر	-1971
▁ژاپن	-1972
▁عهده	-1973
▁اندازه	-1974
▁باور	-1975
▁کویت	-1976
▁نگرانی	-1977
▁منف	-1978
▁هیأت	-1979
▁نکرده	-1980
▁واردات	-1981
▁سؤ	-1982
▁برآ	-1983
▁استخ	-1984
▁انسان	-1985
▁تجه	-1986
▁سیل	-1987
▁وب	-1988
▁تجهیز	-1989
شکند	-1990
▁نظامیان	-1991
▁تیر	-1992
▁A	-1993
اهره	-1994
▁مراک	-1995
▁سعی	-1996
▁تاسیس	-1997
▁ظرف	-1998
▁مقر	-1999
ارات	-2000
▁ترکیه	-2001
▁تقاض	-2002
▁جدی	-2003
▁موقعیت	-2004
▁ایستگاه	-2005
▁بای	-2006
▁بپ	-2007
▁خواهان	-2008
▁تری	-2009
▁موافقت	-2010
▁منبع	-2011
▁بریت	-2012
▁ایده	-2013
▁سب	-2014
▁میز	-2015
▁اوباما	-2016
▁تاشکند	-2017
▁ملاقات	-2018
▁مجاز	-2019
▁مساف	-2020
▁تشویق	-2021
راحی	-2022
وسط	-2023
رایی	-2024
تون	-2025
▁2011	-2026
▁سعودی	-2027
▁قاهره	-2028
ربه	-2029
▁زندانی	-2030
مر	-2031
▁کشورها	-2032
▁تمامی	-2033
▁برگذاری	-2034
▁مساله	-2035
▁مشاور	-2036
▁امیدوار	-2037
▁آزمای	-2038
▁دسترسی	-2039
▁آید	-2040
▁وزیرستان	-2041
▁فی	-2042
▁ندارند	-2043
▁کوت	-2044
▁آسیا	-2045
▁سازد	-2046
▁گیرند	-2047
▁تون	-2048
▁خواهم	-2049
▁تلفن	-2050
▁آستانه	-2051
▁نب	-2052
▁امتی	-2053
▁کمپ	-2054
تور	-2055
▁بس	-2056
▁ماند	-2057
▁اخیرا	-2058
▁متر	-2059
ناک	-2060
▁محس	-2061
▁سلام	-2062
▁تاب	-2063
▁بلند	-2064
▁هنگام	-2065
▁بیست	-2066
▁مطبوعاتی	-2067
▁سربازان	-2068
▁بزرگترین	-2069
▁حادث	-2070
▁گرفتند	-2071
▁فرز	-2072
▁تجربه	-2073
▁ابراز	-2074
▁اهل	-2075
▁فار	-2076
خته	-2077
الیا	-2078
▁کشتند	-2079
اگ	-2080
لند	-2081
▁زیاد	-2082
گوی	-2083
▁مطالعه	-2084
▁شدت	-2085
▁حادثه	-2086
▁خیابان	-2087
▁جمعه	-2088
کرد	-2089
▁پشتیبانی	-2090
▁واش	-2091
▁وسیله	-2092
▁تعدادی	-2093
▁هستم	-2094
▁یکدیگر	-2095
▁تاکنون	-2096
▁دات	-2097
▁دام	-2098
▁وک	-2099
▁کردیم	-2100
▁رژ	-2101
▁عشق	-2102
▁گرایی	-2103
▁چال	-2104
جو	-2105
▁لباس	-2106
▁0	-2107
▁سرز	-2108
▁اطلاعاتی	-2109
راری	-2110
▁نتای	-2111
ورده	-2112
چار	-2113
▁نار	-2114
▁هماه	-2115
▁صب	-2116
▁پیام	-2117
▁رای	-2118
▁جست	-2119
▁آورده	-2120
▁کیلوم	-2121
▁آهن	-2122
▁سرویس	-2123
سات	-2124
▁نات	-2125
▁رفتن	-2126
▁صنایع	-2127
▁پا	-2128
سف	-2129
▁غذایی	-2130
خی	-2131
▁کارشناس	-2132
▁گمرک	-2133
▁29	-2134
▁گشت	-2135
▁ماشین	-2136
اقع	-2137
گره	-2138
سانی	-2139
▁لایحه	-2140
▁فرود	-2141
▁گذاران	-2142
▁غربی	-2143
▁نامزد	-2144
▁گری	-2145
▁ماموران	-2146
▁دع	-2147
ادگی	-2148
▁خواسته	-2149
خواه	-2150
▁نجات	-2151
▁افس	-2152
▁راست	-2153
▁خیر	-2154
بته	-2155
▁آلم	-2156
▁لاه	-2157
▁رفته	-2158
▁رژیم	-2159
▁داستان	-2160
▁غذا	-2161
▁آمار	-2162
▁سؤال	-2163
▁آژانس	-2164
▁سرد	-2165
ازد	-2166
نل	-2167
▁امتیاز	-2168
▁مراقبت	-2169
▁پرواز	-2170
تخت	-2171
وال	-2172
▁البته	-2173
▁ازد	-2174
▁برج	-2175
▁نهایی	-2176
▁واکنش	-2177
شا	-2178
ریم	-2179
▁حاکم	-2180
▁جدا	-2181
▁حفا	-2182
▁سوات	-2183
▁جرم	-2184
▁گتی	-2185
▁پایتخت	-2186
▁نتایج	-2187
▁قربانیان	-2188
▁اخبار	-2189
▁خودرو	-2190
▁بندی	-2191
▁روح	-2192
▁مرتبط	-2193
▁خاور	-2194
▁طولانی	-2195
▁خودش	-2196
▁مبل	-2197
▁ضمن	-2198
▁صف	-2199
▁حقیق	-2200
▁ایماژ	-2201
▁کره	-2202
▁گسترده	-2203
▁نیستند	-2204
ایسه	-2205
اصل	-2206
طان	-2207
▁مقایسه	-2208
▁حکوم	-2209
▁مهاجر	-2210
طی	-2211
▁اث	-2212
▁تجهیزات	-2213
است	-2214
▁تصو	-2215
▁رسیدن	-2216
▁احتمالا	-2217
▁عد	-2218
▁قض	-2219
▁محم	-2220
واج	-2221
اشی	-2222
▁حساب	-2223
▁درون	-2224
▁ذخ	-2225
پر	-2226
▁اختلاف	-2227
▁فوتبال	-2228
ولد	-2229
▁منفجر	-2230
▁2007	-2231
▁اهداف	-2232
راج	-2233
▁تضمین	-2234
▁خون	-2235
▁آموزان	-2236
▁بک	-2237
▁تماس	-2238
▁دسته	-2239
▁مذاکره	-2240
▁اندازی	-2241
▁نژ	-2242
▁رساند	-2243
▁آرام	-2244
ثی	-2245
▁واب	-2246
عات	-2247
نظ	-2248
▁لو	-2249
اذ	-2250
▁دقی	-2251
▁ارز	-2252
▁درک	-2253
▁عب	-2254
رگانی	-2255
▁تلویزیون	-2256
▁بازدید	-2257
عتی	-2258
▁چار	-2259
▁ورود	-2260
▁بازرسی	-2261
غم	-2262
▁بازرگانی	-2263
▁بودم	-2264
نو	-2265
▁M	-2266
▁یون	-2267
لیت	-2268
▁واشنگ	-2269
یب	-2270
▁فرار	-2271
▁یوس	-2272
▁رفتار	-2273
رفی	-2274
▁هنگامی	-2275
▁دستگیری	-2276
▁حفاظت	-2277
انونی	-2278
▁اردو	-2279
▁عز	-2280
▁ببین	-2281
▁سریع	-2282
▁کیف	-2283
▁مستقیم	-2284
▁کارگران	-2285
رز	-2286
▁ائ	-2287
▁افسر	-2288
▁پیروزی	-2289
اضی	-2290
▁شورشیان	-2291
ادار	-2292
▁اسپ	-2293
▁اتحاد	-2294
--	-2295
▁بدن	-2296
▁صبح	-2297
▁لغ	-2298
▁حذ	-2299
▁مخفی	-2300
▁سرعت	-2301
▁هرگز	-2302
▁چی	-2303
▁معتق	-2304
▁اولیه	-2305
▁برادر	-2306
▁همسای	-2307
▁درواقع	-2308
▁متو	-2309
▁حالا	-2310
▁توانیم	-2311
قدر	-2312
▁چالش	-2313
▁مای	-2314
▁جدیدی	-2315
ویل	-2316
رائی	-2317
▁مؤسسات	-2318
▁پخش	-2319
▁غیرقانونی	-2320
▁علت	-2321
▁آزمایش	-2322
▁دانشجویان	-2323
▁جذب	-2324
▁ثبات	-2325
▁سهام	-2326
▁میدان	-2327
▁وظ	-2328
▁حاصل	-2329
▁زیست	-2330
لال	-2331
▁الی	-2332
▁فصل	-2333
▁سودان	-2334
یمان	-2335
▁فلج	-2336
▁رحمان	-2337
▁نمایشگاه	-2338
▁2002	-2339
▁خورد	-2340
وتی	-2341
رائیلی	-2342
▁شیر	-2343
▁اسک	-2344
سون	-2345
ستگی	-2346
▁فرهنگی	-2347
سک	-2348
▁طل	-2349
گیرد	-2350
▁دقیقه	-2351
▁دهنده	-2352
▁ازدواج	-2353
ولا	-2354
▁استق	-2355
اهر	-2356
▁ناب	-2357
▁حسین	-2358
▁اسرائیلی	-2359
▁لاهور	-2360
▁نص	-2361
▁بزرگی	-2362
▁سفید	-2363
راب	-2364
▁تمای	-2365
▁S	-2366
▁سوخت	-2367
▁پرسنل	-2368
▁الش	-2369
▁خاک	-2370
▁مدال	-2371
▁شناخته	-2372
اهده	-2373
▁فهر	-2374
▁نباید	-2375
شکر	-2376
ریت	-2377
▁ارزی	-2378
▁عمر	-2379
▁دخ	-2380
▁ذکر	-2381
▁ماهی	-2382
لز	-2383
هره	-2384
امت	-2385
▁اجرایی	-2386
▁واشنگتن	-2387
▁ارت	-2388
▁تبلی	-2389
▁دقیق	-2390
▁جویی	-2391
▁مسلمانان	-2392
▁مانده	-2393
▁بازیک	-2394
▁دچار	-2395
جع	-2396
▁حقیقت	-2397
این	-2398
▁تبادل	-2399
▁فض	-2400
▁صنعتی	-2401
▁مردمی	-2402
قیب	-2403
▁عبار	-2404
▁عرض	-2405
نظامی	-2406
▁منص	-2407
اصله	-2408
▁ائت	-2409
▁بعضی	-2410
▁شیوه	-2411
▁والدین	-2412
▁یوسف	-2413
▁شاخ	-2414
انگ	-2415
بیه	-2416
▁حرفه	-2417
▁غیرنظامی	-2418
▁توانید	-2419
▁دریایی	-2420
▁پایگاه	-2421
▁مشغ	-2422
▁ولایت	-2423
▁پوشش	-2424
▁پست	-2425
▁نگران	-2426
▁کارکن	-2427
وده	-2428
▁خن	-2429
▁بند	-2430
▁مجموعه	-2431
لو	-2432
▁مقاوم	-2433
▁تظاهرات	-2434
▁دیدن	-2435
▁واکس	-2436
▁مبلغ	-2437
وچ	-2438
▁معرفی	-2439
ورتی	-2440
داران	-2441
▁میتوان	-2442
بای	-2443
نای	-2444
▁علاقه	-2445
▁مشغول	-2446
راح	-2447
▁خدمت	-2448
▁شخصی	-2449
▁کریک	-2450
فال	-2451
▁کارکنان	-2452
ابله	-2453
▁حکومت	-2454
▁تبلیغ	-2455
▁فرودگاه	-2456
▁نبرد	-2457
اندازی	-2458
▁بخاطر	-2459
▁استاند	-2460
▁روپ	-2461
▁کاب	-2462
▁مقدار	-2463
▁رف	-2464
▁نکرد	-2465
▁باشیم	-2466
▁مقابله	-2467
▁جا	-2468
▁آدم	-2469
▁فساد	-2470
▁سرزمین	-2471
▁اروپایی	-2472
نتی	-2473
▁لذ	-2474
مایی	-2475
▁حو	-2476
▁بریتانیا	-2477
دهم	-2478
▁نیمه	-2479
▁جایگز	-2480
رت	-2481
▁موسیقی	-2482
▁صحنه	-2483
▁برده	-2484
▁التح	-2485
▁افتاد	-2486
▁لادن	-2487
▁طراحی	-2488
▁2012	-2489
▁مثال	-2490
ورو	-2491
ادت	-2492
▁اطفال	-2493
میر	-2494
▁روپیه	-2495
انت	-2496
▁گروهی	-2497
▁تعهد	-2498
▁2000	-2499
ضان	-2500
▁مبارک	-2501
رق	-2502
▁منافع	-2503
▁توافقنامه	-2504
▁60	-2505
▁نیروگاه	-2506
▁دلاری	-2507
▁آخر	-2508
▁بهداشتی	-2509
▁واقعیت	-2510
▁مانع	-2511
▁کریکت	-2512
▁دومین	-2513
ورک	-2514
▁بازارهای	-2515
▁ربود	-2516
▁نیازمند	-2517
تو	-2518
▁198	-2519
▁آفریقا	-2520
▁محافظت	-2521
▁دشوار	-2522
مز	-2523
▁فهرست	-2524
▁کمبود	-2525
▁پنجاب	-2526
▁نوشته	-2527
الب	-2528
▁انتقاد	-2529
▁تغییرات	-2530
▁جمعی	-2531
▁میکن	-2532
▁برنده	-2533
▁کشوری	-2534
▁شناسایی	-2535
▁بعدی	-2536
▁عبارت	-2537
er	-2538
▁مف	-2539
قلال	-2540
▁حذف	-2541
▁اعتم	-2542
▁توانایی	-2543
▁مجموع	-2544
an	-2545
▁عقب	-2546
ندم	-2547
▁لند	-2548
▁1.	-2549
▁معتقد	-2550
▁رویداد	-2551
جد	-2552
▁مهاج	-2553
▁استقلال	-2554
▁رنگ	-2555
▁قاضی	-2556
▁دیروز	-2557
▁نتوان	-2558
لیک	-2559
▁بگذار	-2560
راسی	-2561
▁گلوله	-2562
▁مین	-2563
▁باشید	-2564
▁پیوست	-2565
▁نمودند	-2566
▁کارهای	-2567
▁ارسال	-2568
باشد	-2569
▁گذر	-2570
▁دانست	-2571
▁خلی	-2572
▁سفیر	-2573
لیسی	-2574
▁صاح	-2575
▁مطم	-2576
▁کنونی	-2577
▁بوی	-2578
درا	-2579
▁مور	-2580
▁قوی	-2581
▁قبلا	-2582
▁خطوط	-2583
▁احتر	-2584
▁خدا	-2585
▁قسم	-2586
▁غرب	-2587
▁ملت	-2588
▁بازگرد	-2589
▁ناتو	-2590
▁بنیاد	-2591
▁ورزش	-2592
▁مراکز	-2593
▁کنگره	-2594
▁دیگران	-2595
لیون	-2596
▁کدام	-2597
طیل	-2598
▁خس	-2599
▁نهای	-2600
ریح	-2601
▁بالای	-2602
گانه	-2603
▁اشتب	-2604
▁چطور	-2605
▁بور	-2606
▁مجدد	-2607
سیم	-2608
ندگی	-2609
▁نشین	-2610
ذافی	-2611
امع	-2612
▁دارو	-2613
▁اتخ	-2614
▁استر	-2615
▁35	-2616
▁تعطیل	-2617
▁آلماتی	-2618
▁مطمئن	-2619
صه	-2620
بیل	-2621
دراسیون	-2622
▁مقاومت	-2623
▁قذافی	-2624
▁دستگاه	-2625
▁معد	-2626
▁کا	-2627
▁پنبه	-2628
آن	-2629
▁متوجه	-2630
▁وابسته	-2631
▁اتخاذ	-2632
▁تیراندازی	-2633
▁مبت	-2634
ماند	-2635
▁قدیمی	-2636
▁وزارتخانه	-2637
▁رسانی	-2638
NN	-2639
▁تای	-2640
▁دوران	-2641
احبه	-2642
▁بان	-2643
▁اعتبار	-2644
▁دستیابی	-2645
▁کلاس	-2646
▁تصویر	-2647
▁گردشگری	-2648
▁روب	-2649
▁منع	-2650
▁ایالت	-2651
اخر	-2652
الم	-2653
▁اظهارات	-2654
▁قول	-2655
▁هتل	-2656
ناوری	-2657
▁خودم	-2658
▁31	-2659
▁ضربه	-2660
▁اعتماد	-2661
▁B	-2662
ازند	-2663
▁خنثی	-2664
▁همسر	-2665
▁برجسته	-2666
▁بلوچ	-2667
▁منتقل	-2668
قق	-2669
ارک	-2670
▁مصاحبه	-2671
ترز	-2672
رداری	-2673
▁ساح	-2674
▁بردن	-2675
▁مدنی	-2676
▁توزی	-2677
▁یافتن	-2678
▁اتوم	-2679
▁اواخر	-2680
▁شماره	-2681
▁روزه	-2682
▁فناوری	-2683
لحه	-2684
▁زدن	-2685
▁دعوت	-2686
وذ	-2687
▁پرورش	-2688
▁هزاران	-2689
▁آک	-2690
خار	-2691
▁مجازات	-2692
▁دهم	-2693
▁شیخ	-2694
ولوژی	-2695
▁توزیع	-2696
▁کانال	-2697
▁مخالفت	-2698
▁الا	-2699
▁ارزیابی	-2700
▁ناشی	-2701
▁استاد	-2702
▁سق	-2703
▁میکند	-2704
▁CNN	-2705
▁متوسط	-2706
▁اروپای	-2707
▁اسلحه	-2708
▁بگیرد	-2709
عیف	-2710
چوب	-2711
▁تخریب	-2712
▁تمایل	-2713
▁خام	-2714
گار	-2715
▁تسه	-2716
▁تصور	-2717
▁هایشان	-2718
▁نهادهای	-2719
▁محاک	-2720
▁جد	-2721
▁کشتی	-2722
روی	-2723
▁رده	-2724
▁رویترز	-2725
قت	-2726
▁اپ	-2727
▁لا	-2728
▁درس	-2729
▁بتوانند	-2730
▁ادعا	-2731
حل	-2732
▁باخت	-2733
▁هل	-2734
▁قومی	-2735
▁نداشته	-2736
▁خبرنگاران	-2737
▁تما	-2738
▁L	-2739
▁دیپ	-2740
یتر	-2741
▁گندم	-2742
▁بدان	-2743
▁احترام	-2744
وید	-2745
▁متعلق	-2746
▁گن	-2747
▁برآورد	-2748
▁برند	-2749
▁خانم	-2750
▁دهندگان	-2751
▁عادی	-2752
▁حجم	-2753
▁ثابت	-2754
▁نقطه	-2755
▁بدین	-2756
▁منفج	-2757
پارت	-2758
▁اطراف	-2759
▁ساختن	-2760
▁نمونه	-2761
▁منفجره	-2762
▁صدای	-2763
▁لندن	-2764
▁ارتباطات	-2765
یتی	-2766
▁انتشار	-2767
یدند	-2768
▁کور	-2769
▁خواند	-2770
▁ورز	-2771
▁سنت	-2772
▁آشک	-2773
▁شغل	-2774
▁چهارم	-2775
▁عبور	-2776
▁مدرن	-2777
▁کارشناسان	-2778
نس	-2779
▁نشانه	-2780
▁روستای	-2781
▁دموکراتیک	-2782
▁دنی	-2783
▁فوق	-2784
▁دیدگاه	-2785
▁فنی	-2786
▁تسهیل	-2787
▁زنده	-2788
▁تنظیم	-2789
واست	-2790
▁اعط	-2791
▁زمینی	-2792
▁والی	-2793
آوری	-2794
▁آوردن	-2795
▁صدها	-2796
▁فاش	-2797
▁علوم	-2798
▁استراتژی	-2799
▁عامل	-2800
▁پیشین	-2801
▁سران	-2802
▁عبدالله	-2803
▁سیاه	-2804
▁پایه	-2805
خیص	-2806
▁انتخاباتی	-2807
▁گام	-2808
▁70	-2809
▁معنی	-2810
▁حامی	-2811
▁پل	-2812
▁ایت	-2813
▁مجمع	-2814
اوز	-2815
▁شوروی	-2816
ar	-2817
▁ناشناس	-2818
▁گی	-2819
▁بله	-2820
▁محاکمه	-2821
ندهار	-2822
▁گمرکی	-2823
▁برگ	-2824
▁دارایی	-2825
▁برسد	-2826
▁لوله	-2827
▁نوشت	-2828
▁جور	-2829
▁توقی	-2830
▁انسانی	-2831
▁موقت	-2832
▁اسرای	-2833
ژیک	-2834
▁نسل	-2835
▁توصیه	-2836
▁میر	-2837
▁افتت	-2838
▁خوان	-2839
▁مهند	-2840
▁قندهار	-2841
▁ضرب	-2842
▁آس	-2843
▁انقل	-2844
▁شهری	-2845
تبه	-2846
▁شار	-2847
▁دختران	-2848
یموف	-2849
▁افتاده	-2850
▁مطالعات	-2851
▁نیوی	-2852
▁2005	-2853
▁دهید	-2854
▁درد	-2855
▁جایگزین	-2856
▁آشکار	-2857
▁محمود	-2858
شید	-2859
▁نح	-2860
▁سالم	-2861
پیک	-2862
▁الج	-2863
▁ماده	-2864
▁صورتی	-2865
▁یو	-2866
▁باره	-2867
▁بتواند	-2868
ولای	-2869
▁جنسی	-2870
▁حالت	-2871
▁بگیرند	-2872
پرس	-2873
▁وا	-2874
▁استاندارد	-2875
▁انگلیسی	-2876
▁زم	-2877
▁نفوذ	-2878
▁اشتباه	-2879
▁پزشکان	-2880
▁شرق	-2881
▁گش	-2882
▁الح	-2883
▁تکن	-2884
▁قبلی	-2885
▁توقیف	-2886
▁ضروری	-2887
▁تحویل	-2888
▁اردوگاه	-2889
▁چهارشنبه	-2890
▁قرن	-2891
▁دموکراسی	-2892
▁500	-2893
▁پاد	-2894
▁خودشان	-2895
▁زود	-2896
▁لشکر	-2897
▁80	-2898
▁دانند	-2899
▁مستقر	-2900
▁N	-2901
▁جزئی	-2902
کته	-2903
▁الدین	-2904
▁باشگاه	-2905
▁جایگاه	-2906
▁روزهای	-2907
▁داوط	-2908
زا	-2909
▁سک	-2910
▁سخن	-2911
▁انداخت	-2912
▁197	-2913
▁کری	-2914
▁کشاورزان	-2915
▁مول	-2916
ئین	-2917
▁اردن	-2918
▁وع	-2919
▁اضط	-2920
▁افسران	-2921
اسر	-2922
▁تداب	-2923
▁مثبت	-2924
▁میل	-2925
▁پیچ	-2926
▁ساده	-2927
▁دلایل	-2928
▁نیویورک	-2929
▁مشه	-2930
▁اگرچه	-2931
وح	-2932
▁سام	-2933
گفت	-2934
▁گرم	-2935
▁عمده	-2936
▁پژ	-2937
واری	-2938
▁دارید	-2939
▁کلیس	-2940
▁ائتلاف	-2941
قاد	-2942
▁لغو	-2943
▁علمی	-2944
▁دین	-2945
▁مسی	-2946
رکز	-2947
▁باد	-2948
▁بگو	-2949
▁نمایندگی	-2950
اصر	-2951
انا	-2952
غذ	-2953
اظ	-2954
▁داند	-2955
قا	-2956
▁تسلیم	-2957
میانه	-2958
▁ظرفیت	-2959
▁مربی	-2960
▁اسراییل	-2961
▁مسجد	-2962
▁رسیدگی	-2963
▁رک	-2964
▁روبرو	-2965
▁متفاوت	-2966
▁عموم	-2967
زام	-2968
یفه	-2969
▁2003	-2970
▁خرو	-2971
▁نشد	-2972
▁کاخ	-2973
▁300	-2974
▁گوش	-2975
▁سقوط	-2976
▁المپیک	-2977
▁انگل	-2978
▁تشخیص	-2979
▁دائ	-2980
▁اسما	-2981
▁کارآ	-2982
▁تکمیل	-2983
▁آت	-2984
▁سهم	-2985
▁مؤثر	-2986
▁اتومبیل	-2987
ابری	-2988
.2	-2989
▁دوستان	-2990
▁روستایی	-2991
▁یورو	-2992
صی	-2993
▁حسن	-2994
▁تمرکز	-2995
▁برخوردار	-2996
▁مز	-2997
کاران	-2998
▁شرقی	-2999
▁تاریخی	-3000
▁کوتاه	-3001
عهده	-3002
▁کیفیت	-3003
امد	-3004
▁همسایه	-3005
پارتمان	-3006
▁نهایت	-3007
▁بپرد	-3008
ضاع	-3009
▁حرف	-3010
▁افراطی	-3011
▁بوش	-3012
▁رنج	-3013
▁استع	-3014
▁بویژه	-3015
هی	-3016
▁دادستان	-3017
والی	-3018
▁شورا	-3019
▁مایل	-3020
▁فرستاده	-3021
▁خواب	-3022
▁موشک	-3023
▁میده	-3024
▁ابتدا	-3025
▁سید	-3026
▁قضایی	-3027
جوان	-3028
▁سنتی	-3029
▁کالاهای	-3030
▁خاورمیانه	-3031
▁ترور	-3032
▁تلویزیونی	-3033
ایق	-3034
▁45	-3035
کور	-3036
▁آشغال	-3037
▁نکته	-3038
▁2006	-3039
گون	-3040
▁قبول	-3041
روم	-3042
▁معروف	-3043
▁رم	-3044
الله	-3045
ثار	-3046
▁انداز	-3047
▁اینترنت	-3048
▁شبیه	-3049
co	-3050
تک	-3051
▁بازنش	-3052
▁رب	-3053
▁شیمی	-3054
لع	-3055
▁پناهندگان	-3056
دس	-3057
▁خلیج	-3058
▁فعالان	-3059
▁ناپ	-3060
▁توقف	-3061
▁جس	-3062
▁ناخ	-3063
ایند	-3064
▁وکیل	-3065
▁محدودیت	-3066
▁غل	-3067
▁فردی	-3068
▁وظیفه	-3069
▁سای	-3070
▁1,	-3071
▁باج	-3072
▁جلال	-3073
عل	-3074
▁انگلستان	-3075
▁قسمت	-3076
▁نظام	-3077
هران	-3078
▁رشته	-3079
▁نهاد	-3080
▁معل	-3081
▁ریشه	-3082
▁خنده	-3083
▁جایزه	-3084
▁افتخار	-3085
▁اسن	-3086
▁شکایت	-3087
▁قهرمان	-3088
▁انفجاری	-3089
▁بیک	-3090
▁ناظ	-3091
▁مناق	-3092
▁تجدید	-3093
▁کویته	-3094
▁برداری	-3095
▁شهرهای	-3096
جانبه	-3097
▁بلوچستان	-3098
▁P	-3099
رکن	-3100
▁ضمنا	-3101
▁استانی	-3102
▁استخدام	-3103
▁E	-3104
ورا	-3105
▁نگاران	-3106
▁پارلمانی	-3107
▁چاپ	-3108
▁شناسی	-3109
▁نفتی	-3110
▁محسوب	-3111
▁90	-3112
▁هایش	-3113
▁ابزار	-3114
▁مشاهده	-3115
▁تونس	-3116
▁مجوز	-3117
▁خال	-3118
▁دیپلم	-3119
▁مهاجرت	-3120
کا	-3121
▁توری	-3122
or	-3123
▁حک	-3124
▁I	-3125
▁G	-3126
.3	-3127
▁حین	-3128
▁فعلی	-3129
▁وعده	-3130
▁موتور	-3131
▁جهاد	-3132
▁دشمن	-3133
▁اکث	-3134
▁قهرمانی	-3135
وسی	-3136
▁بانکی	-3137
▁فرانس	-3138
▁اولویت	-3139
▁برعهده	-3140
▁T	-3141
▁چهره	-3142
▁چیست	-3143
▁سفارت	-3144
▁گون	-3145
▁فدراسیون	-3146
گانی	-3147
▁اوضاع	-3148
▁استقبال	-3149
▁متن	-3150
▁فاصله	-3151
▁وقوع	-3152
▁کارگر	-3153
▁موضع	-3154
▁خبرنگار	-3155
▁*	-3156
▁رودخانه	-3157
▁درم	-3158
▁مقررات	-3159
▁کابینه	-3160
▁درجه	-3161
شکده	-3162
▁چینی	-3163
▁شورش	-3164
▁معتر	-3165
هان	-3166
▁تاز	-3167
▁نقض	-3168
▁اصول	-3169
▁ادع	-3170
▁تقاضای	-3171
▁نوجوان	-3172
باب	-3173
▁کشیده	-3174
▁بازرس	-3175
▁خشک	-3176
▁هماهنگی	-3177
ئو	-3178
▁طلا	-3179
▁معرض	-3180
▁گناه	-3181
▁اخراج	-3182
▁اوایل	-3183
▁توصیف	-3184
▁کیلومتر	-3185
▁خطرناک	-3186
مون	-3187
▁چنان	-3188
وقی	-3189
▁سابقه	-3190
▁دانشکده	-3191
▁تار	-3192
▁تجاوز	-3193
▁سومالی	-3194
زنی	-3195
▁فقر	-3196
▁نکن	-3197
▁ولس	-3198
▁سنگین	-3199
▁قربان	-3200
دهی	-3201
▁اعتقاد	-3202
▁کارت	-3203
▁عراقی	-3204
▁هدایت	-3205
▁استرالیا	-3206
▁تحلیلگران	-3207
▁پارک	-3208
▁سین	-3209
▁منتظر	-3210
▁درگیر	-3211
ولتی	-3212
▁عوض	-3213
▁سعید	-3214
▁راهی	-3215
▁آگاهی	-3216
▁گرایان	-3217
▁رها	-3218
▁مقدم	-3219
▁بیشترین	-3220
▁فرام	-3221
نز	-3222
راک	-3223
▁نقشه	-3224
▁تدابیر	-3225
.7	-3226
▁اسم	-3227
▁دیپلمات	-3228
▁جزیره	-3229
جویی	-3230
▁عرو	-3231
▁کنی	-3232
▁ایدز	-3233
▁مهمی	-3234
▁شف	-3235
▁سرک	-3236
قیه	-3237
▁پرتاب	-3238
▁نظربایف	-3239
اکی	-3240
▁196	-3241
▁اتوب	-3242
▁تئ	-3243
▁اعراب	-3244
▁متخصصان	-3245
ارا	-3246
▁کلیدی	-3247
▁افزوده	-3248
▁عقیده	-3249
▁جولای	-3250
▁درصدی	-3251
وران	-3252
▁منفی	-3253
▁درحال	-3254
▁شدم	-3255
▁شکن	-3256
▁صدور	-3257
▁جشنواره	-3258
▁زنی	-3259
علی	-3260
▁فت	-3261
▁انقلاب	-3262
▁آیند	-3263
▁اضطراری	-3264
▁بیماران	-3265
▁کارمندان	-3266
▁یهودی	-3267
.4	-3268
قوه	-3269
▁نگار	-3270
▁ولسوالی	-3271
رمان	-3272
▁تروی	-3273
▁تعقیب	-3274
▁مقاله	-3275
▁نبوده	-3276
▁حوادث	-3277
▁قل	-3278
▁هواپیما	-3279
▁ورزشی	-3280
▁ملا	-3281
▁ترد	-3282
▁عص	-3283
▁ناد	-3284
▁لحظه	-3285
ئه	-3286
▁پذیرش	-3287
▁ظاهر	-3288
▁نیازهای	-3289
▁سگ	-3290
▁شیمیایی	-3291
سن	-3292
▁انح	-3293
▁اخوان	-3294
▁تفاوت	-3295
▁پیشگیری	-3296
▁چارچوب	-3297
▁متشک	-3298
جام	-3299
▁تنگ	-3300
▁بالقوه	-3301
▁افتتاح	-3302
▁ماموریت	-3303
▁لحاظ	-3304
▁نوعی	-3305
عب	-3306
سین	-3307
شاه	-3308
▁عملیاتی	-3309
▁تازگی	-3310
▁روحانی	-3311
▁2004	-3312
▁بالغ	-3313
▁درخت	-3314
on	-3315
▁گوناگ	-3316
▁کف	-3317
▁معمولا	-3318
▁آسان	-3319
▁شرکتهای	-3320
▁رقم	-3321
▁توانم	-3322
▁فرزند	-3323
وانی	-3324
▁ویک	-3325
▁سلامت	-3326
روت	-3327
▁تجار	-3328
▁راح	-3329
▁پاید	-3330
▁اکثریت	-3331
.8	-3332
کتی	-3333
▁توپ	-3334
قات	-3335
وایی	-3336
▁بیمه	-3337
▁شگفت	-3338
▁جنایی	-3339
نرال	-3340
▁اتوبوس	-3341
▁کجا	-3342
in	-3343
زمان	-3344
▁بقیه	-3345
▁کسری	-3346
▁مشهور	-3347
▁پیشنهادی	-3348
▁شلیک	-3349
▁غیرد	-3350
50	-3351
شتی	-3352
▁وضع	-3353
▁کشید	-3354
▁اسکات	-3355
▁تقسیم	-3356
امله	-3357
بران	-3358
▁راهن	-3359
▁مسکن	-3360
▁تمرین	-3361
▁همانطور	-3362
▁مزای	-3363
▁مخالفان	-3364
اتور	-3365
▁الملل	-3366
انز	-3367
▁چرخ	-3368
▁آثار	-3369
▁تدری	-3370
▁پدید	-3371
انع	-3372
خیر	-3373
▁جنگی	-3374
▁اکس	-3375
▁اتهامات	-3376
▁بج	-3377
▁ژنرال	-3378
▁معدن	-3379
▁کلین	-3380
▁سرخ	-3381
▁افغانی	-3382
.6	-3383
▁پیمان	-3384
▁کاپ	-3385
▁فضای	-3386
▁جر	-3387
▁ببر	-3388
▁سختی	-3389
▁ساکن	-3390
▁العاده	-3391
▁تند	-3392
▁توجهی	-3393
▁شارون	-3394
▁الکتر	-3395
▁ترویج	-3396
بط	-3397
▁نظیر	-3398
▁مهارت	-3399
en	-3400
▁ابو	-3401
▁چپ	-3402
▁انتظامی	-3403
▁پیوند	-3404
▁سان	-3405
▁کول	-3406
▁پرسش	-3407
▁ادارات	-3408
▁میزبان	-3409
▁نامش	-3410
شتر	-3411
گین	-3412
▁رؤ	-3413
▁خور	-3414
▁عظیم	-3415
▁ربوده	-3416
▁بخواه	-3417
▁تکر	-3418
▁فقیر	-3419
▁تحریم	-3420
▁یف	-3421
▁نماز	-3422
▁تهران	-3423
▁اچ	-3424
▁خلا	-3425
▁عرف	-3426
▁بکار	-3427
▁رتبه	-3428
▁نژاد	-3429
▁طبقه	-3430
▁F	-3431
▁مغازه	-3432
▁یمن	-3433
ساخت	-3434
▁کاند	-3435
▁وسایل	-3436
▁D	-3437
افت	-3438
▁غیردولتی	-3439
▁سواست	-3440
▁عضویت	-3441
اهیم	-3442
▁هماهنگ	-3443
▁الکترون	-3444
یش	-3445
ادا	-3446
▁گیل	-3447
▁دخالت	-3448
▁جناح	-3449
▁روزانه	-3450
▁H	-3451
▁عک	-3452
▁پو	-3453
مرکز	-3454
▁حقوقی	-3455
▁ذخیره	-3456
▁ویران	-3457
▁آورند	-3458
▁معامله	-3459
ائو	-3460
▁رغم	-3461
▁ابتکار	-3462
▁غیرقابل	-3463
▁اجلاس	-3464
▁خواهید	-3465
▁ترا	-3466
▁نیک	-3467
▁الان	-3468
یای	-3469
▁جواب	-3470
▁فرانسوی	-3471
▁سواستفاده	-3472
▁سرت	-3473
▁برقراری	-3474
▁فوری	-3475
▁فهم	-3476
▁دوجانبه	-3477
ریر	-3478
▁32	-3479
▁پیاده	-3480
▁شهروند	-3481
▁جلب	-3482
▁بدهد	-3483
▁اوراک	-3484
▁برقرار	-3485
▁عن	-3486
▁جبه	-3487
▁نوز	-3488
▁گزینه	-3489
▁ساحل	-3490
▁جوامع	-3491
▁طرفداران	-3492
▁خشم	-3493
▁سبک	-3494
▁معت	-3495
▁بایست	-3496
▁دنیای	-3497
▁فرقه	-3498
▁کیلومتری	-3499
▁تلفنی	-3500
▁مهمترین	-3501
▁قلب	-3502
▁شویم	-3503
▁لط	-3504
▁جستجو	-3505
غلی	-3506
▁دیوار	-3507
▁حیوان	-3508
▁یادداشت	-3509
▁شخصیت	-3510
▁خودداری	-3511
اجی	-3512
▁تحمل	-3513
▁صاحب	-3514
▁مند	-3515
▁خوشحال	-3516
▁احتمالی	-3517
▁آتی	-3518
▁سوز	-3519
▁تماشا	-3520
▁مذکور	-3521
▁دانم	-3522
▁عوار	-3523
▁سیاستمد	-3524
امون	-3525
▁بوت	-3526
▁لیره	-3527
▁رز	-3528
▁موضوعات	-3529
▁گاه	-3530
▁گذارد	-3531
▁چقدر	-3532
▁متمرکز	-3533
پار	-3534
▁اسناد	-3535
▁نحوه	-3536
▁وحشت	-3537
▁فرزندان	-3538
اجد	-3539
▁نرم	-3540
▁زودی	-3541
▁انگیز	-3542
خه	-3543
▁مغز	-3544
وج	-3545
▁روان	-3546
▁عوامل	-3547
▁ضعیف	-3548
▁زیرساخت	-3549
▁صفحه	-3550
▁کامپی	-3551
ستری	-3552
▁نویسنده	-3553
بیت	-3554
▁اکثر	-3555
▁جلس	-3556
▁محب	-3557
ناب	-3558
الح	-3559
نشان	-3560
▁ارتق	-3561
سو	-3562
▁نظرات	-3563
▁کامی	-3564
▁بازیکن	-3565
▁جبهه	-3566
▁مسکو	-3567
▁تخصص	-3568
رافی	-3569
▁آشن	-3570
▁طلب	-3571
اترین	-3572
▁آشوب	-3573
▁ثروت	-3574
▁معنای	-3575
al	-3576
▁مکانی	-3577
▁سد	-3578
اتل	-3579
▁عصر	-3580
▁کوش	-3581
▁میباشد	-3582
▁عث	-3583
▁داوطلب	-3584
باری	-3585
.1	-3586
▁گزارشی	-3587
▁جداگانه	-3588
باد	-3589
لاک	-3590
▁عین	-3591
▁ساختار	-3592
▁بردی	-3593
لت	-3594
▁عرضه	-3595
▁اوراق	-3596
لزله	-3597
▁مطبوعات	-3598
▁بغ	-3599
▁رمضان	-3600
▁مالیاتی	-3601
وین	-3602
▁قلم	-3603
▁موقع	-3604
▁ارتقا	-3605
▁سازماندهی	-3606
▁خب	-3607
▁زلزله	-3608
▁مرزهای	-3609
▁اذ	-3610
▁انگیزه	-3611
عیل	-3612
▁لیگ	-3613
▁برگرد	-3614
▁گران	-3615
▁ضبط	-3616
▁کرسی	-3617
▁پیک	-3618
▁ناگه	-3619
▁تقاضا	-3620
▁مید	-3621
▁تحلیلگر	-3622
▁آنج	-3623
▁متأ	-3624
▁الس	-3625
▁داشتم	-3626
▁ممنوعیت	-3627
بل	-3628
اورد	-3629
▁نواز	-3630
▁پژوه	-3631
▁قطعنامه	-3632
▁شفاف	-3633
▁ماهه	-3634
▁جستجوی	-3635
▁هرو	-3636
▁محقق	-3637
com	-3638
▁الجز	-3639
▁مخصوص	-3640
▁تصاو	-3641
▁همگی	-3642
▁باری	-3643
▁سرهنگ	-3644
آر	-3645
▁بگوی	-3646
▁نژادی	-3647
▁عادل	-3648
زین	-3649
▁معلم	-3650
▁ماری	-3651
▁بورس	-3652
▁مسیحی	-3653
▁ایتالیا	-3654
▁داری	-3655
▁جزئیات	-3656
▁غنی	-3657
▁خسارت	-3658
لبان	-3659
▁عام	-3660
▁بودیم	-3661
▁عوارض	-3662
پا	-3663
▁تابستان	-3664
▁400	-3665
▁ایرانی	-3666
▁فری	-3667
▁نفع	-3668
▁منح	-3669
▁استراتژیک	-3670
▁ون	-3671
▁دریای	-3672
▁خورش	-3673
▁شکنجه	-3674
▁ناظران	-3675
بس	-3676
▁پوست	-3677
▁گوشت	-3678
▁آمادگی	-3679
▁فروشگاه	-3680
▁فرماندار	-3681
▁شغلی	-3682
▁کارمند	-3683
▁اسماعیل	-3684
▁2013	-3685
▁کشتار	-3686
▁ابتد	-3687
▁همزمان	-3688
▁قی	-3689
▁کمپین	-3690
▁ذهن	-3691
▁کشتن	-3692
▁مطابق	-3693
▁هروئین	-3694
▁نگهداری	-3695
▁گم	-3696
▁بوجود	-3697
▁عمی	-3698
▁سوار	-3699
▁R	-3700
▁تصاد	-3701
▁خاطرنشان	-3702
▁روبه	-3703
▁مدیره	-3704
عود	-3705
▁قدم	-3706
▁زدند	-3707
▁حج	-3708
فاعی	-3709
▁شریف	-3710
▁مدعی	-3711
▁آسیایی	-3712
▁33	-3713
صورت	-3714
▁رایگان	-3715
▁مشتریان	-3716
▁هلمند	-3717
▁مسافر	-3718
▁رست	-3719
▁گاهی	-3720
اسطه	-3721
زاده	-3722
▁سپرده	-3723
▁زندانیان	-3724
▁حاکی	-3725
▁شاخه	-3726
یدم	-3727
▁مجددا	-3728
▁جلسات	-3729
▁وادار	-3730
▁سرتاسر	-3731
اقد	-3732
ومه	-3733
▁فارغ	-3734
▁اوراکزی	-3735
▁کنون	-3736
▁اوقات	-3737
▁علیر	-3738
▁پیچیده	-3739
▁مهاجمان	-3740
▁LE	-3741
▁تلفات	-3742
یناسیون	-3743
▁واکسیناسیون	-3744
▁تنش	-3745
▁پولی	-3746
▁امضای	-3747
▁تحمیل	-3748
▁تکرار	-3749
▁آرز	-3750
▁دینی	-3751
▁نیمی	-3752
▁آفر	-3753
▁ظهر	-3754
▁فاج	-3755
▁خروج	-3756
▁گزارشات	-3757
▁مبتلا	-3758
▁نقلیه	-3759
▁جرائ	-3760
▁شناخت	-3761
▁فاجعه	-3762
▁مبارز	-3763
کش	-3764
▁عرفات	-3765
لاقی	-3766
▁خات	-3767
▁خودروی	-3768
▁طوری	-3769
▁دقیقا	-3770
رکنندگان	-3771
▁خاصی	-3772
▁اندکی	-3773
▁هستید	-3774
▁علیرغم	-3775
▁آوار	-3776
▁هنری	-3777
▁انکار	-3778
نظر	-3779
▁اشک	-3780
▁چیزهایی	-3781
افظ	-3782
▁150	-3783
▁روزی	-3784
▁درمانی	-3785
▁بم	-3786
▁عید	-3787
جیه	-3788
▁حماس	-3789
▁غیرم	-3790
▁پاسگاه	-3791
▁سبز	-3792
▁اوست	-3793
▁محبوب	-3794
▁غزه	-3795
▁التحریر	-3796
▁پیرامون	-3797
▁بالاتر	-3798
غد	-3799
بینی	-3800
▁سومین	-3801
▁عدالت	-3802
▁متعهد	-3803
▁نابود	-3804
▁نسخه	-3805
▁نقاط	-3806
▁دبیرکل	-3807
▁آفریقایی	-3808
▁ویدی	-3809
▁اصل	-3810
▁ماس	-3811
▁بروز	-3812
▁راستای	-3813
▁دپارتمان	-3814
▁آو	-3815
▁بزرگر	-3816
احت	-3817
▁عاش	-3818
▁آبیاری	-3819
نم	-3820
▁لیست	-3821
▁مردی	-3822
▁اتفاقی	-3823
▁رویدادهای	-3824
انو	-3825
▁سقف	-3826
▁شرک	-3827
▁شواه	-3828
▁تعریف	-3829
▁کامیون	-3830
روح	-3831
▁المن	-3832
▁آفریقای	-3833
▁بات	-3834
▁حیات	-3835
▁نشینی	-3836
کنندگان	-3837
▁خریداری	-3838
▁نظم	-3839
▁دسترس	-3840
▁هرگونه	-3841
▁مدل	-3842
▁حامیان	-3843
▁پیوستن	-3844
▁ارتباطی	-3845
برت	-3846
نانی	-3847
▁ورزشک	-3848
▁نخواهند	-3849
▁بازیکنان	-3850
▁فن	-3851
▁سوئ	-3852
▁1999	-3853
▁اسپانیا	-3854
at	-3855
▁دیوید	-3856
▁تحصیلات	-3857
▁وف	-3858
▁طرفدار	-3859
▁خد	-3860
▁موس	-3861
▁معادل	-3862
▁وزرای	-3863
▁جنبه	-3864
▁گردند	-3865
فان	-3866
▁لذا	-3867
▁انگلیس	-3868
▁قدرتمند	-3869
▁نادر	-3870
▁باران	-3871
▁نوش	-3872
▁باجور	-3873
▁فراتر	-3874
.9	-3875
کتور	-3876
▁مکز	-3877
▁اداری	-3878
▁سردبیر	-3879
▁پذیرفته	-3880
▁عط	-3881
شدید	-3882
▁پیروز	-3883
▁موزه	-3884
▁آرا	-3885
▁همکاران	-3886
▁36	-3887
▁روستا	-3888
▁پذیرفت	-3889
▁آنرا	-3890
▁عثمان	-3891
▁جورج	-3892
▁ناآر	-3893
سب	-3894
ظم	-3895
خوان	-3896
▁همانند	-3897
▁عبارتند	-3898
▁بعدا	-3899
▁امروزه	-3900
ویز	-3901
▁رفع	-3902
▁سرپر	-3903
▁پاکسازی	-3904
▁لر	-3905
▁خورده	-3906
▁اعتراضات	-3907
▁خز	-3908
امید	-3909
▁جرائم	-3910
▁تکنولوژی	-3911
▁بزرگراه	-3912
▁رع	-3913
▁لذت	-3914
▁آمدن	-3915
▁همواره	-3916
تیو	-3917
▁خالی	-3918
▁تشدید	-3919
▁نصب	-3920
انیایی	-3921
▁اقامت	-3922
▁سخنان	-3923
▁شماری	-3924
20	-3925
ادمی	-3926
▁بغداد	-3927
▁بیلیون	-3928
مات	-3929
▁معامل	-3930
گوست	-3931
▁خلق	-3932
▁پایدار	-3933
دامی	-3934
▁رقص	-3935
▁بکن	-3936
▁رسم	-3937
▁ناک	-3938
▁گفتم	-3939
▁یخ	-3940
▁قایق	-3941
▁ویروس	-3942
ازده	-3943
▁توجیه	-3944
▁ابراهیم	-3945
فتی	-3946
▁وزن	-3947
▁اتم	-3948
▁تانک	-3949
▁دانشجوی	-3950
▁غر	-3951
▁مجروح	-3952
▁محافظه	-3953
▁گردیده	-3954
رانی	-3955
▁سلط	-3956
▁راجع	-3957
▁میکنم	-3958
آور	-3959
وتر	-3960
▁اسب	-3961
▁جالب	-3962
▁هویت	-3963
▁لبنانی	-3964
▁پیشرفته	-3965
ادله	-3966
▁روس	-3967
▁شام	-3968
▁گوناگون	-3969
ستر	-3970
▁کرزای	-3971
▁امتح	-3972
▁مدرک	-3973
▁نوار	-3974
لامیه	-3975
▁انوا	-3976
▁اثبات	-3977
▁ذخایر	-3978
▁پنهان	-3979
▁عزیز	-3980
▁مقدس	-3981
▁مدافع	-3982
▁وحشی	-3983
▁فراموش	-3984
▁پذ	-3985
▁حاوی	-3986
▁ایمنی	-3987
▁آکادمی	-3988
▁سالگرد	-3989
▁حبس	-3990
▁محروم	-3991
▁معنا	-3992
▁اورانی	-3993
▁تبلیغات	-3994
صیلی	-3995
▁کلا	-3996
▁گور	-3997
گردان	-3998
▁پرست	-3999
وفی	-4000
▁جامع	-4001
زدی	-4002
▁آمام	-4003
▁جنایت	-4004
جاع	-4005
اشته	-4006
ایات	-4007
▁1990	-4008
▁عف	-4009
▁توی	-4010
▁گرا	-4011
▁یورش	-4012
▁انواع	-4013
آی	-4014
▁باق	-4015
▁متعد	-4016
▁مذهب	-4017
▁سرطان	-4018
▁رسانده	-4019
▁هواپیمای	-4020
▁34	-4021
شناسی	-4022
▁متأسف	-4023
▁وخ	-4024
▁اجتناب	-4025
▁بیکاری	-4026
▁گیلانی	-4027
زوم	-4028
▁امت	-4029
▁ستاره	-4030
▁نمودن	-4031
باله	-4032
▁ردی	-4033
▁شوهر	-4034
مپ	-4035
گویی	-4036
▁الن	-4037
▁فاقد	-4038
▁تردید	-4039
▁نیل	-4040
▁ایشان	-4041
اغل	-4042
▁جرگ	-4043
▁سیم	-4044
▁ناخال	-4045
▁حاکمیت	-4046
▁اسکاتلند	-4047
▁اورانیوم	-4048
▁فلسطینیان	-4049
▁مشرو	-4050
▁بگویم	-4051
▁زباله	-4052
▁تسهیلات	-4053
▁سهمی	-4054
▁مکعب	-4055
▁میگو	-4056
▁انبار	-4057
▁جراح	-4058
▁پیشتر	-4059
▁معلمان	-4060
لین	-4061
رگان	-4062
▁بمان	-4063
▁مشاوره	-4064
▁جرگه	-4065
▁منز	-4066
▁تأخیر	-4067
▁نان	-4068
▁تصاویر	-4069
▁معاملات	-4070
▁دهی	-4071
▁نادیده	-4072
▁ترجی	-4073
▁جلوی	-4074
▁حامد	-4075
▁آرامش	-4076
▁رض	-4077
▁پال	-4078
▁اخلاقی	-4079
▁تال	-4080
▁قطار	-4081
▁منصوب	-4082
es	-4083
▁-1	-4084
▁سپاه	-4085
▁گمان	-4086
▁افزون	-4087
▁پژوهش	-4088
▁اکسپرس	-4089
▁برود	-4090
▁تئاتر	-4091
▁امتحان	-4092
▁رستوران	-4093
وانسیون	-4094
▁مربوطه	-4095
ضه	-4096
جیب	-4097
▁زیب	-4098
▁تولد	-4099
▁شوید	-4100
سالی	-4101
▁شای	-4102
▁مجتم	-4103
▁یکپار	-4104
گستری	-4105
▁اعطا	-4106
▁ناخالص	-4107
▁بازجویی	-4108
▁جاس	-4109
▁بازرگان	-4110
گن	-4111
▁قاب	-4112
▁نشود	-4113
▁راننده	-4114
شند	-4115
چیان	-4116
▁فیز	-4117
▁دادم	-4118
▁سالن	-4119
▁نیروها	-4120
یدر	-4121
▁تام	-4122
▁خلاف	-4123
▁عظ	-4124
▁تعمیر	-4125
▁کنوانسیون	-4126
▁روانی	-4127
▁مراجع	-4128
▁دادگستری	-4129
▁شهرک	-4130
▁42	-4131
▁هج	-4132
▁اعتص	-4133
▁عکاس	-4134
▁متولد	-4135
▁موانع	-4136
▁جسد	-4137
رحمان	-4138
▁مختلفی	-4139
همان	-4140
▁فضل	-4141
▁صلاح	-4142
▁مزار	-4143
▁یونان	-4144
▁نگرفته	-4145
▁اعلامیه	-4146
▁هواپیمایی	-4147
▁امکانات	-4148
▁مسافران	-4149
گل	-4150
▁تز	-4151
▁زرداری	-4152
▁آگوست	-4153
▁احیای	-4154
▁موج	-4155
▁مجتمع	-4156
▁غذای	-4157
▁بدهند	-4158
▁نداده	-4159
▁رون	-4160
▁شوم	-4161
▁تصریح	-4162
▁حیاتی	-4163
▁مراحل	-4164
سا	-4165
▁باغ	-4166
▁الیوم	-4167
▁مجرمان	-4168
▁ناآرامی	-4169
▁ماک	-4170
▁محافظ	-4171
▁بف	-4172
▁عبید	-4173
▁مون	-4174
▁مطلب	-4175
▁دوستانه	-4176
▁دبیرستان	-4177
▁اعزام	-4178
▁دانیم	-4179
صار	-4180
▁المسل	-4181
▁تعویق	-4182
▁رسیدند	-4183
▁زور	-4184
▁وین	-4185
▁بندر	-4186
▁قرآن	-4187
▁مساجد	-4188
▁اینگونه	-4189
▁کرم	-4190
▁امیر	-4191
▁شرایطی	-4192
▁الکس	-4193
▁کلیه	-4194
▁اصرار	-4195
▁خواستند	-4196
صاب	-4197
▁بنگ	-4198
▁آتام	-4199
▁متشکل	-4200
▁جمهوریخواه	-4201
کشی	-4202
▁اسد	-4203
▁دائمی	-4204
▁سازند	-4205
وای	-4206
▁ایفا	-4207
▁محکومیت	-4208
▁المسلمین	-4209
اندا	-4210
▁شدگان	-4211
فور	-4212
▁ظاه	-4213
▁شانس	-4214
▁مطلع	-4215
▁یونی	-4216
500	-4217
▁افتد	-4218
▁معترضان	-4219
▁اصلا	-4220
▁حضار	-4221
▁حومه	-4222
▁مهمات	-4223
▁اقدامی	-4224
▁نتوانست	-4225
▁اقلیت	-4226
▁سرکوب	-4227
▁محسود	-4228
▁ترجیح	-4229
▁نقاشی	-4230
▁صدا	-4231
▁شاخص	-4232
▁ملاح	-4233
▁اقداماتی	-4234
صف	-4235
▁میدهد	-4236
وکس	-4237
▁یونس	-4238
▁همچون	-4239
▁گرده	-4240
شای	-4241
گاری	-4242
▁خراب	-4243
▁خطاب	-4244
نمای	-4245
▁بگذ	-4246
▁التحصیل	-4247
▁خج	-4248
▁پت	-4249
▁مدارک	-4250
▁خرد	-4251
سیسات	-4252
▁مدتی	-4253
▁آمدند	-4254
سیل	-4255
▁صدام	-4256
▁محیطی	-4257
▁اعتصاب	-4258
▁رویکرد	-4259
▁رانندگی	-4260
▁بالاترین	-4261
لوب	-4262
▁الشرق	-4263
▁نداریم	-4264
▁تأسیسات	-4265
اسب	-4266
▁زیبا	-4267
▁تصمیمات	-4268
زبی	-4269
▁امد	-4270
▁راهنمایی	-4271
▁رش	-4272
▁بدتر	-4273
▁چک	-4274
▁بیت	-4275
▁دوی	-4276
▁واض	-4277
▁مشابهی	-4278
▁حیوانات	-4279
غام	-4280
▁روسای	-4281
▁کتابخانه	-4282
▁امان	-4283
▁جماعت	-4284
▁پیو	-4285
▁پنجم	-4286
▁کالی	-4287
▁مدیران	-4288
▁سیاستمداران	-4289
بیک	-4290
اشیه	-4291
▁راس	-4292
▁عاشق	-4293
▁مرتک	-4294
200	-4295
ردار	-4296
▁ساختمانی	-4297
طر	-4298
چرخ	-4299
▁شانگ	-4300
▁گرای	-4301
▁شری	-4302
▁نای	-4303
▁پیم	-4304
▁آزوز	-4305
▁اعدام	-4306
▁دریاچه	-4307
▁ممنوعه	-4308
▁چیزهای	-4309
▁یار	-4310
▁تعطیلات	-4311
▁سنی	-4312
▁باشم	-4313
▁مداخ	-4314
▁کنس	-4315
▁نفره	-4316
▁بیروت	-4317
▁المنافع	-4318
▁آری	-4319
▁شرح	-4320
▁عمد	-4321
▁تبعی	-4322
▁زمستان	-4323
▁کامپیوتر	-4324
▁38	-4325
تناع	-4326
▁پرچ	-4327
▁ایدئ	-4328
▁فرستاد	-4329
▁سبب	-4330
▁حاشیه	-4331
▁استانداردهای	-4332
کری	-4333
▁وید	-4334
▁میوه	-4335
ردن	-4336
▁قرمز	-4337
▁احتی	-4338
▁میرا	-4339
▁کشیدن	-4340
▁امتناع	-4341
▁افزودند	-4342
ایه	-4343
▁بزن	-4344
▁همد	-4345
▁ایمن	-4346
▁دفاتر	-4347
▁ببینید	-4348
▁بدترین	-4349
▁داون	-4350
▁خیریه	-4351
▁برداشته	-4352
▁فرماندهی	-4353
لان	-4354
▁کالا	-4355
▁افزار	-4356
▁مهاجران	-4357
غذیه	-4358
▁بدر	-4359
▁ازای	-4360
▁ویلی	-4361
▁کریم	-4362
▁کشورهایی	-4363
فای	-4364
▁خیل	-4365
▁سلی	-4366
▁الحی	-4367
▁75	-4368
▁ویت	-4369
▁پرسید	-4370
▁خواندن	-4371
کام	-4372
▁دب	-4373
اریس	-4374
▁درمورد	-4375
▁شهرداری	-4376
سیله	-4377
▁سنا	-4378
▁37	-4379
▁درسی	-4380
▁بروند	-4381
▁کانادا	-4382
ونا	-4383
▁پرده	-4384
▁یابند	-4385
▁امارات	-4386
▁پاول	-4387
▁باراک	-4388
▁پشتون	-4389
▁بازاری	-4390
▁هنرمند	-4391
▁W	-4392
▁لرزه	-4393
▁متحمل	-4394
▁یافتند	-4395
▁نوجوانان	-4396
▁بازپ	-4397
▁الاوسط	-4398
▁آفت	-4399
▁مارک	-4400
▁نرو	-4401
▁سمین	-4402
▁صالح	-4403
▁اعتراف	-4404
▁بوسیله	-4405
▁مالکیت	-4406
▁جمال	-4407
▁حداک	-4408
▁خاتمه	-4409
▁فرصتی	-4410
▁کارگاه	-4411
▁مشکلی	-4412
▁مناسبت	-4413
وئ	-4414
منت	-4415
▁رقیب	-4416
▁بردند	-4417
▁سهمیه	-4418
▁مشتاق	-4419
▁دقت	-4420
فاوتی	-4421
▁شعبه	-4422
▁صادق	-4423
▁ماهواره	-4424
ویم	-4425
▁هکت	-4426
▁2014	-4427
▁الکترونیکی	-4428
دیق	-4429
▁محله	-4430
▁بصورت	-4431
▁شهادت	-4432
▁اوک	-4433
▁کالج	-4434
▁عوامی	-4435
▁گرایش	-4436
فس	-4437
وپ	-4438
▁اسکند	-4439
▁تغذیه	-4440
▁دفاعی	-4441
▁انع	-4442
▁خوی	-4443
▁سیر	-4444
▁اپوزی	-4445
is	-4446
▁مفه	-4447
▁صرفا	-4448
▁تبعیض	-4449
▁خودمان	-4450
▁اختلافات	-4451
▁محت	-4452
▁ترکیب	-4453
▁شنیده	-4454
▁همتای	-4455
اهد	-4456
▁حدی	-4457
▁کوب	-4458
▁مثلا	-4459
▁بنیان	-4460
▁فضایی	-4461
▁پیگیری	-4462
▁زمانیکه	-4463
▁بجای	-4464
▁توفان	-4465
▁جبران	-4466
▁دیپلماتیک	-4467
▁برمی	-4468
▁امتداد	-4469
▁وجه	-4470
▁تعلی	-4471
عان	-4472
▁اعطای	-4473
▁حداکثر	-4474
ارف	-4475
▁رویار	-4476
▁الحیات	-4477
▁خوانده	-4478
▁فعالیتهای	-4479
ادری	-4480
▁مگر	-4481
▁جانب	-4482
▁خانگی	-4483
▁تولیدات	-4484
بایوا	-4485
▁پسران	-4486
▁گذاشتن	-4487
▁مگ	-4488
اهایی	-4489
▁عباس	-4490
▁پیوسته	-4491
▁مسئولین	-4492
▁غیرنظامیان	-4493
ودگی	-4494
▁کنیا	-4495
▁هرچ	-4496
▁نوزاد	-4497
▁هیجان	-4498
▁توانستند	-4499
▁اپوزیسیون	-4500
ازن	-4501
▁جرای	-4502
▁سرنگ	-4503
جمه	-4504
▁بومی	-4505
▁گفتن	-4506
▁اموال	-4507
▁عقاید	-4508
▁باختری	-4509
▁معاهده	-4510
▁میکرد	-4511
▁آلمانی	-4512
▁مهندسی	-4513
▁جاو	-4514
▁رضا	-4515
▁اسامه	-4516
▁برگشت	-4517
▁استخراج	-4518
▁کت	-4519
▁فرآی	-4520
▁متأسفانه	-4521
▁توط	-4522
▁آهنگ	-4523
▁میرس	-4524
▁مکزیک	-4525
▁کارها	-4526
▁اجباری	-4527
▁تعهدات	-4528
▁قابلیت	-4529
ردو	-4530
انوس	-4531
خشان	-4532
▁کوچکی	-4533
▁سناتور	-4534
▁احساسات	-4535
▁روغ	-4536
▁فردا	-4537
▁واضح	-4538
▁مجاور	-4539
▁سطوح	-4540
▁شعار	-4541
▁سلطان	-4542
▁مداوم	-4543
▁ورودی	-4544
▁44	-4545
▁سرنو	-4546
▁سلامتی	-4547
خصی	-4548
وردی	-4549
▁دون	-4550
▁جریم	-4551
▁پرچم	-4552
▁توطئه	-4553
▁مسلحانه	-4554
▁خانوادگی	-4555
▁بابت	-4556
▁مراکش	-4557
▁بانکها	-4558
▁سالهای	-4559
▁مض	-4560
▁نیا	-4561
▁آشتی	-4562
▁قطعا	-4563
▁بماند	-4564
▁جریمه	-4565
▁رفتند	-4566
▁طبیعت	-4567
▁43	-4568
چرخه	-4569
▁برانگ	-4570
▁گردهمایی	-4571
▁دانشمندان	-4572
▁تریاک	-4573
▁بازنشسته	-4574
▁47	-4575
▁آه	-4576
▁رام	-4577
▁رسمیت	-4578
▁شهردار	-4579
▁بگذارید	-4580
▁K	-4581
قاعد	-4582
▁شواهد	-4583
▁واکسن	-4584
▁زوج	-4585
▁دوچرخه	-4586
▁ویلیام	-4587
خان	-4588
▁امداد	-4589
▁متقاعد	-4590
▁الکساند	-4591
▁رساندند	-4592
▁تست	-4593
▁تکذ	-4594
▁پدرش	-4595
▁ادعای	-4596
▁املاک	-4597
▁مرتکب	-4598
▁چنانچه	-4599
ابتی	-4600
▁متق	-4601
▁پردازد	-4602
▁بازرگانان	-4603
▁65	-4604
▁نفس	-4605
▁مشکلاتی	-4606
▁گروههای	-4607
▁چش	-4608
▁آصف	-4609
▁برگز	-4610
▁لزوم	-4611
▁پاریس	-4612
▁نز	-4613
▁چگون	-4614
▁گذشت	-4615
▁آوارگان	-4616
بو	-4617
▁شرط	-4618
▁حامل	-4619
▁دانید	-4620
▁نگهبان	-4621
▁بیل	-4622
▁خالد	-4623
▁هندو	-4624
▁گارد	-4625
▁میراث	-4626
▁مداخله	-4627
▁حزبی	-4628
▁شریک	-4629
▁تعلیق	-4630
▁جراحی	-4631
▁مزایای	-4632
اصره	-4633
انکا	-4634
▁نارنج	-4635
▁هکتار	-4636
▁جاوید	-4637
▁ثمر	-4638
▁وظایف	-4639
▁تحصیلی	-4640
▁محموله	-4641
▁دستاورد	-4642
▁قزاقستانی	-4643
روس	-4644
▁نیازی	-4645
▁معمولی	-4646
▁خشن	-4647
▁رشوه	-4648
▁مرداک	-4649
▁آوردند	-4650
▁استعفا	-4651
▁U	-4652
▁بارد	-4653
▁باشه	-4654
▁تورم	-4655
▁چگونگی	-4656
▁رویارویی	-4657
▁ششم	-4658
▁مسک	-4659
▁مفید	-4660
▁کاغذ	-4661
▁اتمام	-4662
▁عمدتا	-4663
▁معمول	-4664
▁پادشاه	-4665
بتی	-4666
▁مکر	-4667
▁برکن	-4668
▁تدوین	-4669
▁ندارم	-4670
▁محاصره	-4671
▁جع	-4672
▁ریز	-4673
تباری	-4674
▁تکذیب	-4675
▁شدیدی	-4676
▁پدیده	-4677
▁العالم	-4678
▁سلطنتی	-4679
▁آذ	-4680
▁بالایی	-4681
▁دوربین	-4682
▁فرماندهان	-4683
داث	-4684
▁48	-4685
▁55	-4686
▁شرم	-4687
▁تفنگ	-4688
▁ریاض	-4689
▁کمال	-4690
▁زیبایی	-4691
▁صاحبان	-4692
▁اعتباری	-4693
عم	-4694
▁بط	-4695
▁سیب	-4696
▁اهدا	-4697
▁واحدهای	-4698
وره	-4699
▁معن	-4700
▁پسرش	-4701
قد	-4702
▁فش	-4703
وهای	-4704
▁جیم	-4705
▁سغد	-4706
▁تراف	-4707
▁معاف	-4708
▁نقشی	-4709
▁بیاور	-4710
▁آفریدی	-4711
▁600	-4712
▁ارق	-4713
ونیست	-4714
▁استث	-4715
▁تحول	-4716
▁اجاره	-4717
▁مبادله	-4718
▁نوسازی	-4719
▁مبارزان	-4720
▁قطر	-4721
▁کون	-4722
▁جرایم	-4723
یان	-4724
▁دروغ	-4725
بره	-4726
▁بستگی	-4727
▁سالگی	-4728
▁گز	-4729
▁ایستاده	-4730
▁پرداخته	-4731
▁رکود	-4732
▁مقصد	-4733
▁گیاه	-4734
الیایی	-4735
▁احداث	-4736
▁کشورش	-4737
▁آد	-4738
▁عمیق	-4739
▁سرنوشت	-4740
▁وط	-4741
▁کلمه	-4742
▁بنزین	-4743
▁علمای	-4744
▁شاهزاده	-4745
▁ویژ	-4746
▁پرت	-4747
▁دخیل	-4748
▁مجله	-4749
▁تفاهم	-4750
▁صندلی	-4751
▁کلیسای	-4752
▁بدی	-4753
▁اضافی	-4754
▁ثانیه	-4755
▁خوردن	-4756
اهیر	-4757
▁تکه	-4758
▁هرات	-4759
▁مشاغل	-4760
▁واسطه	-4761
▁مخفیگاه	-4762
یتان	-4763
▁تحقق	-4764
▁تراز	-4765
▁تخمین	-4766
▁رضایت	-4767
▁عناصر	-4768
▁فرآیند	-4769
▁رعایت	-4770
▁میگوید	-4771
اطع	-4772
▁اقی	-4773
▁کشد	-4774
▁قطعی	-4775
▁خطرات	-4776
▁اینترنتی	-4777
▁اتمی	-4778
▁دیدم	-4779
▁گواهی	-4780
حالی	-4781
پذیر	-4782
▁ترابری	-4783
بول	-4784
▁دلی	-4785
▁گنج	-4786
▁بهای	-4787
▁رکورد	-4788
▁نگاهی	-4789
▁کریموف	-4790
▁برآورده	-4791
▁مراج	-4792
▁پروت	-4793
▁بیاب	-4794
▁1,000	-4795
▁تخصصی	-4796
▁تنگه	-4797
▁مشعل	-4798
▁آزمایشگاه	-4799
زبانی	-4800
▁آشنا	-4801
▁اعضا	-4802
▁وج	-4803
▁جون	-4804
▁اعظم	-4805
▁ویکت	-4806
▁بینید	-4807
▁مسدود	-4808
بند	-4809
▁شهرت	-4810
▁شیعه	-4811
▁سیمان	-4812
▁شانگهای	-4813
لیپ	-4814
▁194	-4815
▁نباشد	-4816
▁دال	-4817
▁بیند	-4818
▁سلول	-4819
▁نسبتا	-4820
▁انجامید	-4821
راس	-4822
تونی	-4823
▁فرم	-4824
▁مجرم	-4825
▁مسلم	-4826
▁نقره	-4827
▁اجساد	-4828
▁واگذار	-4829
▁250	-4830
کننده	-4831
▁تدار	-4832
▁مقاد	-4833
نیا	-4834
▁حساس	-4835
▁تقد	-4836
▁1998	-4837
▁نارنجک	-4838
▁برانگیز	-4839
▁1997	-4840
▁باند	-4841
▁سبزی	-4842
▁شهرها	-4843
▁وارداتی	-4844
▁همسرش	-4845
▁بزرگان	-4846
▁بازبینی	-4847
▁جنگل	-4848
▁ضرورت	-4849
▁گال	-4850
▁تعجب	-4851
▁مرده	-4852
▁آزمون	-4853
▁همایش	-4854
▁انداخته	-4855
it	-4856
ختن	-4857
لاست	-4858
▁خصوصا	-4859
▁نشسته	-4860
آباد	-4861
▁برنز	-4862
▁قالب	-4863
▁کالاها	-4864
▁آتامبایف	-4865
▁ویژگی	-4866
▁گرفتم	-4867
▁تنهایی	-4868
▁داشتیم	-4869
▁کلینتون	-4870
تیک	-4871
غیب	-4872
یکا	-4873
▁الف	-4874
▁بحرین	-4875
▁تدارک	-4876
▁کناره	-4877
▁ماهانه	-4878
▁تهدیدات	-4879
▁هنرمندان	-4880
▁مدار	-4881
▁تحقیقاتی	-4882
سکی	-4883
▁هوش	-4884
▁زاده	-4885
▁سرقت	-4886
▁رسوایی	-4887
▁بهار	-4888
▁افکار	-4889
▁بهتری	-4890
▁تایمز	-4891
▁گشایش	-4892
▁ملاحظه	-4893
لافی	-4894
▁حسنی	-4895
قیقی	-4896
▁میک	-4897
▁مراجعه	-4898
راتی	-4899
▁ماندن	-4900
▁جانشین	-4901
▁پناهگاه	-4902
انند	-4903
▁خاط	-4904
▁هندی	-4905
▁عروسی	-4906
▁سمینار	-4907
▁فرایند	-4908
▁نامیده	-4909
شور	-4910
ازیم	-4911
▁تان	-4912
▁فرغ	-4913
▁کشی	-4914
ادلات	-4915
▁طرحی	-4916
▁بستگان	-4917
حیح	-4918
شایی	-4919
▁عدد	-4920
▁سوسی	-4921
▁ترغیب	-4922
▁جدایی	-4923
▁ظاهرا	-4924
▁تلاشی	-4925
▁195	-4926
▁زای	-4927
▁امین	-4928
▁ناپدید	-4929
▁کاندید	-4930
▁یادبود	-4931
▁استقرار	-4932
زم	-4933
سیر	-4934
▁ساع	-4935
▁مهر	-4936
▁مخاط	-4937
▁رساندن	-4938
منی	-4939
▁تمدید	-4940
▁بدنبال	-4941
▁پایانی	-4942
ic	-4943
▁پارچه	-4944
▁مناقشه	-4945
▁ماهر	-4946
▁محکم	-4947
وگ	-4948
▁محض	-4949
▁عجیب	-4950
▁مفتی	-4951
▁الهام	-4952
▁سامانی	-4953
▁علم	-4954
▁برتر	-4955
▁زنند	-4956
▁ژاپنی	-4957
▁خجند	-4958
▁فارس	-4959
▁فراری	-4960
▁جماهیر	-4961
مار	-4962
▁سوال	-4963
▁فریاد	-4964
▁تصادف	-4965
▁گرفتار	-4966
▁نع	-4967
▁تلقی	-4968
▁رشید	-4969
▁اثرات	-4970
▁ارقام	-4971
▁بردار	-4972
▁بپردازند	-4973
▁شادی	-4974
▁صرفه	-4975
▁غلبه	-4976
▁حقانی	-4977
▁فقدان	-4978
گرمی	-4979
▁دیک	-4980
▁قبر	-4981
▁پتان	-4982
▁سیگار	-4983
▁منطقی	-4984
as	-4985
▁سریل	-4986
▁شکاف	-4987
▁گرچه	-4988
▁گفتگوی	-4989
خاص	-4990
وشی	-4991
▁اوج	-4992
زاینده	-4993
▁بازگشته	-4994
ou	-4995
سیک	-4996
▁حافظ	-4997
▁معلول	-4998
▁شنود	-4999
▁دادیم	-5000
▁انتصاب	-5001
▁کارآفر	-5002
▁نیج	-5003
▁سایه	-5004
▁کرزی	-5005
▁کاربرد	-5006
▁فزاینده	-5007
طرف	-5008
▁حرک	-5009
▁آواره	-5010
▁ربایی	-5011
▁مهمان	-5012
▁ارتقای	-5013
▁عادلانه	-5014
فیق	-5015
▁مصط	-5016
▁احمدی	-5017
▁اوستا	-5018
▁مفهوم	-5019
▁هزاره	-5020
▁بازنشستگی	-5021
طار	-5022
کسی	-5023
▁بیگ	-5024
▁دای	-5025
▁تعلق	-5026
▁داره	-5027
▁رفاه	-5028
▁معیار	-5029
خاش	-5030
▁نده	-5031
▁ترکی	-5032
رهای	-5033
▁زنگ	-5034
▁مایکل	-5035
▁درآورد	-5036
▁اصلاحیه	-5037
▁یکپارچه	-5038
▁جذاب	-5039
▁شکار	-5040
▁عر	-5041
▁الز	-5042
▁سرانجام	-5043
▁مبادلات	-5044
▁آزار	-5045
▁بخشد	-5046
▁ایمان	-5047
مم	-5048
برگ	-5049
▁الکت	-5050
▁حلقه	-5051
▁مادران	-5052
وستی	-5053
▁پیروی	-5054
▁فرغانه	-5055
▁مسکونی	-5056
▁صادراتی	-5057
▁قراردادهای	-5058
el	-5059
ویچ	-5060
▁جغ	-5061
▁بید	-5062
▁شکر	-5063
▁نوی	-5064
▁مطالب	-5065
▁کالیفر	-5066
▁مراد	-5067
واک	-5068
▁ارزان	-5069
▁ترجمه	-5070
▁پتانسیل	-5071
شون	-5072
▁بول	-5073
▁درحالیکه	-5074
▁بت	-5075
▁فضا	-5076
▁کلاه	-5077
▁افزاید	-5078
▁سلیمان	-5079
▁یهودیان	-5080
▁لیر	-5081
▁میرز	-5082
گذشت	-5083
▁انب	-5084
▁نیجریه	-5085
▁ظه	-5086
▁صدر	-5087
▁هار	-5088
▁بینند	-5089
▁راحتی	-5090
▁پرویز	-5091
▁معتقدند	-5092
▁بانکداری	-5093
▁علاق	-5094
▁مصطفی	-5095
▁دشمنان	-5096
▁بگذارند	-5097
▁ناگهانی	-5098
il	-5099
وطه	-5100
▁تپ	-5101
▁الاس	-5102
▁فورا	-5103
▁قیام	-5104
▁مربع	-5105
▁هاکی	-5106
▁کلیسا	-5107
▁مبارزات	-5108
لد	-5109
▁آمو	-5110
▁نرس	-5111
▁بهانه	-5112
▁سواری	-5113
▁محمدوف	-5114
▁خرج	-5115
▁یکم	-5116
▁استد	-5117
▁اذعان	-5118
▁تضعیف	-5119
▁فیلیپ	-5120
▁سریلانکا	-5121
عید	-5122
لیو	-5123
▁46	-5124
▁عفو	-5125
▁مقبره	-5126
▁خورشید	-5127
ed	-5128
▁41	-5129
▁ویل	-5130
الدین	-5131
▁نداد	-5132
▁عظیمی	-5133
تلان	-5134
▁چوب	-5135
▁تصویری	-5136
▁بپردازد	-5137
am	-5138
شده	-5139
▁عاط	-5140
▁عال	-5141
▁قضا	-5142
شیش	-5143
لاگ	-5144
▁قه	-5145
▁دوستی	-5146
کول	-5147
▁محاس	-5148
اضع	-5149
▁سم	-5150
▁کات	-5151
▁زیان	-5152
▁قاتل	-5153
▁ناظر	-5154
▁گشود	-5155
▁گردشگران	-5156
ووا	-5157
▁سیف	-5158
▁وار	-5159
▁راحت	-5160
▁بخصوص	-5161
▁رقابتی	-5162
▁گروگان	-5163
▁شدیم	-5164
روز	-5165
لات	-5166
▁میخ	-5167
▁استی	-5168
اداران	-5169
▁زغال	-5170
▁نوبه	-5171
▁هوای	-5172
▁کمکی	-5173
▁کاز	-5174
▁باقیم	-5175
▁هرچند	-5176
▁تاجران	-5177
▁تارنمای	-5178
▁کوهستان	-5179
تج	-5180
▁شایع	-5181
▁بارها	-5182
رون	-5183
ونزی	-5184
▁ببرد	-5185
▁حیدر	-5186
▁ریسک	-5187
▁گویی	-5188
▁تدریس	-5189
▁اشتراک	-5190
▁نن	-5191
▁الاز	-5192
▁روغن	-5193
▁مزارع	-5194
اقب	-5195
ولپ	-5196
▁تفکر	-5197
▁جانبه	-5198
▁کمتری	-5199
▁دروازه	-5200
et	-5201
الد	-5202
سلا	-5203
▁52	-5204
هایش	-5205
▁800	-5206
▁توه	-5207
▁صدم	-5208
▁پکن	-5209
▁هاست	-5210
▁بایستی	-5211
وود	-5212
▁آلوده	-5213
▁دشواری	-5214
▁اسکندریه	-5215
▁نامزدهای	-5216
زبور	-5217
▁شاد	-5218
▁صهی	-5219
▁ماج	-5220
▁تولی	-5221
▁دمشق	-5222
▁طلوع	-5223
▁مانور	-5224
▁ترافیک	-5225
▁میخواه	-5226
▁هدفمند	-5227
▁مقدماتی	-5228
آم	-5229
مق	-5230
▁شیوع	-5231
▁وسیع	-5232
▁درستی	-5233
▁نوشهره	-5234
ایا	-5235
▁حشیش	-5236
▁بیاند	-5237
▁بمانند	-5238
▁اوکراین	-5239
▁مجه	-5240
▁ویز	-5241
▁برپا	-5242
▁شهید	-5243
▁لوازم	-5244
▁مهندس	-5245
▁رومانی	-5246
حات	-5247
▁برسند	-5248
▁مقداری	-5249
▁بازگشایی	-5250
▁خلع	-5251
▁پاپ	-5252
▁بران	-5253
▁تورن	-5254
▁برساند	-5255
سلطان	-5256
▁احیا	-5257
▁ادغام	-5258
▁شبانه	-5259
▁آمریکای	-5260
▁1.5	-5261
▁120	-5262
▁غزنی	-5263
▁چندان	-5264
▁فراخوان	-5265
ew	-5266
غان	-5267
▁حر	-5268
▁غم	-5269
▁بری	-5270
▁اندی	-5271
▁سلیم	-5272
▁ولای	-5273
وام	-5274
▁پوشیده	-5275
▁باقیمانده	-5276
▁قدرد	-5277
▁آسمان	-5278
▁ائتلافی	-5279
▁اقیانوس	-5280
▁الجزایر	-5281
▁اندونزی	-5282
▁کوهستانی	-5283
▁تظاهرکنندگان	-5284
گا	-5285
▁باب	-5286
▁تها	-5287
▁توم	-5288
▁الازهر	-5289
▁استدلال	-5290
بخت	-5291
▁بخوان	-5292
▁رادیویی	-5293
گور	-5294
یاس	-5295
ختند	-5296
▁بلاف	-5297
▁تکان	-5298
▁بدهید	-5299
▁نکنند	-5300
▁بگیریم	-5301
▁خداوند	-5302
▁تبلیغاتی	-5303
▁پرداختند	-5304
BE	-5305
طلاح	-5306
▁تبه	-5307
▁خلاق	-5308
▁نروژ	-5309
▁مشکوک	-5310
▁مناسبی	-5311
▁39	-5312
▁تنوع	-5313
▁دستم	-5314
▁متصل	-5315
▁O	-5316
ردی	-5317
▁فرض	-5318
▁برنج	-5319
▁حاجی	-5320
▁پانز	-5321
▁مواضع	-5322
▁کودکی	-5323
▁اختلال	-5324
▁بپی	-5325
▁بنظر	-5326
▁اجتماع	-5327
پور	-5328
غالی	-5329
نایی	-5330
▁خسته	-5331
▁مواردی	-5332
▁2,	-5333
شویی	-5334
میلی	-5335
ژیکی	-5336
▁مجهز	-5337
▁اشخاص	-5338
▁معتاد	-5339
▁وکلای	-5340
ایشی	-5341
▁شین	-5342
▁بشردو	-5343
▁ساحلی	-5344
▁طرفین	-5345
▁قلمرو	-5346
▁مخصوصا	-5347
▁وحشتناک	-5348
▁امیدوارم	-5349
مدن	-5350
▁سور	-5351
▁تفسیر	-5352
▁مقیاس	-5353
▁نشستی	-5354
ظهر	-5355
▁فه	-5356
راضی	-5357
▁700	-5358
▁گرس	-5359
▁خلبان	-5360
▁دامنه	-5361
▁آند	-5362
▁چای	-5363
▁پراک	-5364
▁بگیرید	-5365
▁سازمانی	-5366
▁علاقمند	-5367
▁نورسلطان	-5368
▁سازمانهای	-5369
ir	-5370
▁138	-5371
▁بتوانیم	-5372
▁بلافاصله	-5373
ته	-5374
▁چاق	-5375
▁ادبی	-5376
▁کاشت	-5377
▁مهمند	-5378
▁بازاریابی	-5379
▁راد	-5380
▁ولز	-5381
▁کیت	-5382
▁اکتش	-5383
▁برسان	-5384
▁کاپیتان	-5385
▁عی	-5386
▁برف	-5387
▁وطن	-5388
▁روشی	-5389
▁آنقدر	-5390
▁مادرش	-5391
▁پیامی	-5392
▁54	-5393
▁تخت	-5394
▁مری	-5395
شر	-5396
اروف	-5397
انسی	-5398
▁بشک	-5399
▁تنی	-5400
▁مباح	-5401
اکن	-5402
▁بوک	-5403
▁دوش	-5404
▁فول	-5405
▁روزها	-5406
▁قطعات	-5407
▁میتواند	-5408
شل	-5409
▁مجسم	-5410
▁کای	-5411
گرهار	-5412
▁2015	-5413
▁نفری	-5414
▁ابتدایی	-5415
پز	-5416
ونگ	-5417
▁وه	-5418
▁لات	-5419
▁امامع	-5420
▁ببرند	-5421
▁رابرت	-5422
▁قدردانی	-5423
▁میتوانیم	-5424
▁غرامت	-5425
▁پنجاه	-5426
▁یکسان	-5427
▁برابری	-5428
▁شاهدان	-5429
▁فیزیکی	-5430
▁امامعلی	-5431
رعه	-5432
رداخت	-5433
▁ارجاع	-5434
▁چشمان	-5435
▁الکساندر	-5436
▁فرمانداری	-5437
▁مخاب	-5438
▁بدخشان	-5439
▁پیشنهادها	-5440
▁هواپیماهای	-5441
صب	-5442
اسط	-5443
زیز	-5444
اروس	-5445
▁جین	-5446
▁اسکی	-5447
▁عادت	-5448
▁وخیم	-5449
▁محوطه	-5450
▁بگ	-5451
▁مزرعه	-5452
▁پلاست	-5453
▁جاسوسی	-5454
▁جغرافی	-5455
▁مظنونان	-5456
جید	-5457
طیلی	-5458
▁ماب	-5459
▁خشخاش	-5460
▁صلاحیت	-5461
▁اقتصاددان	-5462
▁ورزشکاران	-5463
▁رسند	-5464
▁عرصه	-5465
▁راهبرد	-5466
▁مستقیما	-5467
▁طرز	-5468
▁چهل	-5469
▁تخلیه	-5470
▁ببینیم	-5471
▁نادرست	-5472
▁ننگرهار	-5473
قلی	-5474
▁سار	-5475
▁دانی	-5476
▁توهین	-5477
▁بشردوستانه	-5478
30	-5479
th	-5480
یتد	-5481
▁عده	-5482
▁لیبر	-5483
▁منحصر	-5484
▁بپیوند	-5485
▁تهدیدی	-5486
▁آپارتمان	-5487
▁داوطلبانه	-5488
یما	-5489
راحت	-5490
▁ماز	-5491
▁پری	-5492
▁تسلی	-5493
▁دراز	-5494
▁علای	-5495
▁مسایل	-5496
▁همکار	-5497
▁تعطیلی	-5498
▁دخترانه	-5499
▁کالیفرنیا	-5500
یرا	-5501
ساری	-5502
میلیون	-5503
▁وقایع	-5504
▁درختان	-5505
▁پردازند	-5506
▁بعداز	-5507
▁چیزها	-5508
▁متفاوتی	-5509
▁نکند	-5510
▁ثروتمند	-5511
▁ایدئولوژی	-5512
▁بازگرداندن	-5513
▁باک	-5514
▁صلی	-5515
باران	-5516
▁اوائل	-5517
▁ربانی	-5518
▁استادی	-5519
▁خودمخت	-5520
▁ردیابی	-5521
▁نداشتند	-5522
▁آرد	-5523
▁پات	-5524
▁ظهور	-5525
▁معترض	-5526
▁راهپیم	-5527
غه	-5528
نوعی	-5529
▁بدهیم	-5530
▁تحسین	-5531
▁فروشی	-5532
▁نوشتن	-5533
▁یادآور	-5534
لط	-5535
▁آینه	-5536
▁غیره	-5537
▁برادران	-5538
▁شلو	-5539
▁بیای	-5540
▁پلاس	-5541
▁دیگه	-5542
▁تربیت	-5543
▁پنجره	-5544
▁آلودگی	-5545
▁مقادیر	-5546
بز	-5547
▁اگه	-5548
▁چادر	-5549
▁مشتری	-5550
▁بخشیدن	-5551
▁نابودی	-5552
▁کوتاهی	-5553
▁درآمدهای	-5554
▁49	-5555
▁بام	-5556
▁مرو	-5557
ازدهم	-5558
▁1992	-5559
▁یاسر	-5560
▁اشتیا	-5561
▁کرانه	-5562
▁قراردادی	-5563
▁نهم	-5564
▁تخلف	-5565
▁مظنونین	-5566
▁عذ	-5567
نشین	-5568
▁مرغ	-5569
▁متوس	-5570
▁جاب	-5571
▁عاج	-5572
▁ناه	-5573
▁صعود	-5574
▁قهوه	-5575
▁استعد	-5576
▁خلاصه	-5577
▁مادرم	-5578
▁انداختن	-5579
▁توانسته	-5580
▁روحانیون	-5581
لوس	-5582
ثیری	-5583
▁کرب	-5584
▁دلیلی	-5585
▁میران	-5586
زمین	-5587
▁تعرفه	-5588
▁مباحث	-5589
▁برخلاف	-5590
▁بازماند	-5591
▁گفتگوهای	-5592
امین	-5593
▁تولیدی	-5594
▁دوازده	-5595
کلت	-5596
▁57	-5597
▁58	-5598
▁تث	-5599
▁تاجر	-5600
▁اقلام	-5601
▁تعادل	-5602
▁ابتدای	-5603
▁خسارات	-5604
▁انتخابی	-5605
▁جنگجویان	-5606
وعی	-5607
▁طلای	-5608
▁هفتم	-5609
▁نشریه	-5610
▁بریتانیایی	-5611
▁دزد	-5612
▁سرل	-5613
▁جاهای	-5614
وات	-5615
▁56	-5616
▁کشم	-5617
▁اعتی	-5618
▁تیمی	-5619
▁پیامد	-5620
▁محدوده	-5621
فاع	-5622
▁بفر	-5623
▁اقبال	-5624
▁راکتور	-5625
▁کارهایی	-5626
باتی	-5627
سنجی	-5628
▁لین	-5629
▁مارت	-5630
▁اصطلاح	-5631
▁اعتیاد	-5632
▁بلاروس	-5633
زن	-5634
التی	-5635
▁مرات	-5636
▁هلند	-5637
▁طلبان	-5638
▁مواجهه	-5639
▁همسایگان	-5640
بخش	-5641
▁اوگ	-5642
▁داغ	-5643
▁عملا	-5644
▁تثبیت	-5645
▁ایرلند	-5646
▁شفافیت	-5647
گزار	-5648
▁کفش	-5649
▁کیسه	-5650
▁بگذارد	-5651
▁باستانی	-5652
▁تورنمنت	-5653
▁خشکسالی	-5654
اقت	-5655
▁51	-5656
▁دربر	-5657
▁بگوید	-5658
فع	-5659
▁ملح	-5660
▁راضی	-5661
▁هشتم	-5662
▁برانگی	-5663
▁جنایات	-5664
▁ناگهان	-5665
▁قربانقلی	-5666
ربای	-5667
▁عمران	-5668
▁مرزها	-5669
▁روستاهای	-5670
دت	-5671
عمل	-5672
▁کوک	-5673
▁نمیت	-5674
▁اهالی	-5675
▁مجسمه	-5676
▁الجزیره	-5677
▁صحیح	-5678
▁باستان	-5679
▁سرلشکر	-5680
▁دانشگاهی	-5681
▁نتوانسته	-5682
▁سعد	-5683
▁کنف	-5684
▁کوم	-5685
▁ملکه	-5686
▁نظری	-5687
▁آفتاب	-5688
▁طلایی	-5689
▁فرانک	-5690
▁منعکس	-5691
▁ببینند	-5692
▁خودکشی	-5693
▁زمستانی	-5694
مع	-5695
اسم	-5696
▁85	-5697
▁داور	-5698
▁سوزی	-5699
▁فکری	-5700
▁منظم	-5701
▁کارش	-5702
▁پیگرد	-5703
▁داروهای	-5704
همند	-5705
▁غرق	-5706
▁حکیم	-5707
▁رایج	-5708
▁قاره	-5709
▁کانی	-5710
▁الزام	-5711
▁تساوی	-5712
▁دستان	-5713
▁پذیری	-5714
عف	-5715
▁ریچ	-5716
▁بابا	-5717
▁تجربی	-5718
▁سالها	-5719
▁شریعت	-5720
▁پیکار	-5721
▁اطلاعی	-5722
▁متعددی	-5723
▁ناراحت	-5724
▁گذارند	-5725
▁بمباران	-5726
▁سکوت	-5727
▁فیصل	-5728
▁قبال	-5729
▁پکتی	-5730
▁مالزی	-5731
▁بالگرد	-5732
▁یونیسف	-5733
ادیم	-5734
وانه	-5735
رابلس	-5736
▁راند	-5737
▁دیوان	-5738
▁آنتونی	-5739
▁سؤالات	-5740
▁بازپرداخت	-5741
▁صبر	-5742
▁خطاک	-5743
▁مبال	-5744
▁معتبر	-5745
▁مهاجم	-5746
▁نیستم	-5747
▁استادان	-5748
پل	-5749
▁آوی	-5750
▁پرز	-5751
▁اونا	-5752
▁خواهی	-5753
▁دستیار	-5754
▁طرابلس	-5755
▁بون	-5756
▁دعا	-5757
▁سرو	-5758
▁کنسر	-5759
▁بزودی	-5760
▁تأثیرات	-5761
▁سبزیجات	-5762
▁راهپیمایی	-5763
▁صفر	-5764
▁نظرسنجی	-5765
سری	-5766
بیند	-5767
▁سوا	-5768
▁یاس	-5769
▁جعبه	-5770
▁کشند	-5771
▁نساجی	-5772
▁پروفس	-5773
▁مسیحیان	-5774
▁ناس	-5775
▁کاس	-5776
▁بستن	-5777
▁بنابر	-5778
▁کاران	-5779
▁همراهی	-5780
ارش	-5781
▁فروپ	-5782
▁تصدیق	-5783
▁توریست	-5784
اتیک	-5785
▁علام	-5786
▁میانگین	-5787
وغ	-5788
▁تگز	-5789
▁دارا	-5790
▁اشتیاق	-5791
▁کمپانی	-5792
اکس	-5793
▁باار	-5794
▁تشکر	-5795
▁تکیه	-5796
▁جیمز	-5797
▁مسعود	-5798
▁فروخته	-5799
ad	-5800
▁الب	-5801
▁بروک	-5802
▁فریب	-5803
▁مقصر	-5804
▁رید	-5805
▁رفتم	-5806
▁هجوم	-5807
▁مبتنی	-5808
طاف	-5809
▁خزر	-5810
▁نصر	-5811
▁1991	-5812
▁ماست	-5813
شو	-5814
▁بذ	-5815
▁اسکان	-5816
▁بیاید	-5817
▁راولپ	-5818
▁متهمان	-5819
▁پروفسور	-5820
کوپ	-5821
ریکی	-5822
▁مرج	-5823
▁اتیو	-5824
▁طراح	-5825
▁ویدیو	-5826
▁ارتفاع	-5827
▁خودروهای	-5828
▁هواداران	-5829
▁نر	-5830
▁الخ	-5831
▁ارتک	-5832
▁منتق	-5833
▁نگاری	-5834
▁نبودند	-5835
▁بازماندگان	-5836
▁له	-5837
▁زیم	-5838
▁میث	-5839
▁ستاد	-5840
▁سینه	-5841
▁شکسته	-5842
▁مراقب	-5843
▁نامید	-5844
▁ندیده	-5845
▁اتیوپی	-5846
▁راولپندی	-5847
▁تمیز	-5848
▁عالم	-5849
▁مغزی	-5850
▁وحدت	-5851
▁تاثیر	-5852
▁مبنای	-5853
▁یادآوری	-5854
پن	-5855
▁53	-5856
▁رفر	-5857
▁تخصی	-5858
گیرانه	-5859
▁اکتشاف	-5860
▁بگوییم	-5861
ستین	-5862
▁بوس	-5863
▁1980	-5864
▁انتف	-5865
▁رسما	-5866
▁سوئز	-5867
▁قاطع	-5868
▁میکنیم	-5869
▁تشکیلات	-5870
سمی	-5871
گام	-5872
▁زاد	-5873
▁اعلی	-5874
▁اساسا	-5875
▁انگشت	-5876
▁قبائل	-5877
▁معدنی	-5878
▁میثاق	-5879
▁آذربای	-5880
▁کلینیک	-5881
▁یونسکو	-5882
▁خواننده	-5883
▁J	-5884
ارج	-5885
اضه	-5886
▁غی	-5887
▁لس	-5888
لیقه	-5889
▁هیل	-5890
▁شکلی	-5891
▁شیشه	-5892
▁وزرا	-5893
▁عبدالع	-5894
▁زائ	-5895
▁قضات	-5896
▁نوین	-5897
▁اسامی	-5898
▁معنوی	-5899
▁وبلاگ	-5900
▁فروپاشی	-5901
یس	-5902
▁'	-5903
▁فین	-5904
▁1996	-5905
▁بایف	-5906
▁صوفی	-5907
▁قلبی	-5908
▁جهادی	-5909
▁برداشتن	-5910
▁چشمگیری	-5911
▁گذاشتند	-5912
تین	-5913
▁ناو	-5914
▁بکشد	-5915
▁محور	-5916
▁بدلیل	-5917
▁تندرو	-5918
▁زودتر	-5919
▁سرزنش	-5920
▁دارویی	-5921
▁مسافرت	-5922
▁چهارمین	-5923
▁قاچاقچیان	-5924
org	-5925
▁اخذ	-5926
▁بدهم	-5927
▁قطعه	-5928
▁باتکن	-5929
▁تخصیص	-5930
▁تگزاس	-5931
▁خاموش	-5932
▁شرکای	-5933
▁مزبور	-5934
▁سرپرستی	-5935
▁سما	-5936
▁اشغالی	-5937
ru	-5938
کیف	-5939
▁ایس	-5940
▁ممان	-5941
▁اواسط	-5942
▁ماهیت	-5943
▁سرپرست	-5944
▁بازرسان	-5945
▁همینطور	-5946
زیه	-5947
▁95	-5948
▁بغل	-5949
▁تپه	-5950
▁شعر	-5951
▁ماد	-5952
▁پان	-5953
▁کتک	-5954
▁گازی	-5955
امیدنی	-5956
▁مشترکی	-5957
▁انتفاضه	-5958
▁مخابرات	-5959
▁پراکنده	-5960
▁فای	-5961
▁نامزدی	-5962
▁بیدار	-5963
▁مساحت	-5964
▁نکردند	-5965
▁وابستگی	-5966
▁امیدواری	-5967
▁دادستانی	-5968
لبی	-5969
▁فرید	-5970
▁ناصر	-5971
▁گذران	-5972
▁موضوعی	-5973
▁پیشبرد	-5974
▁خورشیدی	-5975
اضل	-5976
زاد	-5977
لاوه	-5978
ودری	-5979
▁1000	-5980
▁شانز	-5981
▁ملحق	-5982
▁پورت	-5983
▁پروتکل	-5984
ولین	-5985
راتور	-5986
▁مشرف	-5987
▁نماد	-5988
▁معلوم	-5989
▁شرکتها	-5990
▁برگزیده	-5991
NA	-5992
روش	-5993
پوف	-5994
▁سوگ	-5995
▁نیت	-5996
▁انور	-5997
▁فلور	-5998
▁مثبتی	-5999
▁الشباب	-6000
▁پیمانک	-6001
خره	-6002
▁اوز	-6003
▁برپ	-6004
▁بلا	-6005
▁جوز	-6006
▁سرح	-6007
الیست	-6008
▁آرزو	-6009
▁ضمان	-6010
▁منزل	-6011
▁ارتکاب	-6012
▁تأثیری	-6013
▁سازنده	-6014
▁مرگبار	-6015
▁نخواست	-6016
▁آشامیدنی	-6017
▁کارآفرین	-6018
اتوف	-6019
▁ملک	-6020
▁حضرت	-6021
▁علیف	-6022
کلی	-6023
بزرگ	-6024
▁اکر	-6025
▁بانو	-6026
▁دزدی	-6027
▁میرسد	-6028
اعد	-6029
▁ستون	-6030
▁مسیح	-6031
▁ساختند	-6032
▁میرانشاه	-6033
ac	-6034
▁ضعف	-6035
▁کرو	-6036
▁اسلو	-6037
▁بلیت	-6038
▁بنگل	-6039
▁انتقام	-6040
▁خواستم	-6041
▁شایسته	-6042
▁عصبانی	-6043
▁نماییم	-6044
▁بازارها	-6045
وتا	-6046
کتری	-6047
▁بفرست	-6048
▁حملاتی	-6049
▁خوانندگان	-6050
▁کنفدراسیون	-6051
▁اولی	-6052
▁بازه	-6053
▁کینگ	-6054
▁مطلوب	-6055
▁کندوز	-6056
▁زایمان	-6057
▁مصنوعی	-6058
▁پالایش	-6059
▁داوطلبان	-6060
le	-6061
ادش	-6062
اوات	-6063
▁دود	-6064
▁گاو	-6065
▁امری	-6066
▁غارت	-6067
▁هدیه	-6068
▁مستند	-6069
▁دانشجو	-6070
▁نبا	-6071
▁بزند	-6072
▁سوری	-6073
امپ	-6074
شدت	-6075
▁زه	-6076
▁بخت	-6077
▁قضیه	-6078
▁اشکال	-6079
▁ببینم	-6080
▁خواهر	-6081
▁نوشید	-6082
▁چهارچوب	-6083
▁اختیارات	-6084
▁آذربایجان	-6085
▁ایتالیایی	-6086
▁جغرافیایی	-6087
▁صادرکنندگان	-6088
صت	-6089
گرا	-6090
▁عوام	-6091
▁ملزم	-6092
▁کهنه	-6093
▁بحرانی	-6094
▁انتقالی	-6095
▁66	-6096
اوری	-6097
▁ارک	-6098
▁1994	-6099
▁اثنی	-6100
▁سادگی	-6101
▁سوئیس	-6102
▁یکبار	-6103
سپ	-6104
انش	-6105
جیت	-6106
▁-2	-6107
شنال	-6108
وارد	-6109
▁سیز	-6110
▁اندک	-6111
▁بشکه	-6112
▁ناپذیر	-6113
▁عبدالرحمان	-6114
عاد	-6115
▁همج	-6116
اهرام	-6117
▁پدرم	-6118
▁سواحل	-6119
▁سینما	-6120
▁مازاد	-6121
▁کاروان	-6122
▁کاربران	-6123
▁دز	-6124
ارتی	-6125
صاری	-6126
▁شاع	-6127
▁هرک	-6128
▁عاطف	-6129
▁قرضه	-6130
▁مصمم	-6131
▁اشغال	-6132
▁ملاله	-6133
▁ولادیم	-6134
▁کمیساری	-6135
ذکر	-6136
الیف	-6137
▁نقد	-6138
▁هلی	-6139
▁هول	-6140
▁الشی	-6141
▁ساری	-6142
▁شلوغ	-6143
▁قبطی	-6144
▁قدیر	-6145
▁وجوه	-6146
▁ببیند	-6147
▁بیکار	-6148
▁تاکتی	-6149
▁گردان	-6150
▁رفراند	-6151
ادو	-6152
تیپ	-6153
گذاران	-6154
▁حفاری	-6155
▁نظریه	-6156
▁دستمزد	-6157
▁غذاهای	-6158
▁الاهرام	-6159
▁میزبانی	-6160
▁62	-6161
▁اله	-6162
▁بشدت	-6163
▁عروس	-6164
▁علایم	-6165
▁برکنار	-6166
▁محققان	-6167
چن	-6168
▁63	-6169
▁هف	-6170
ریزی	-6171
▁ورد	-6172
▁میشل	-6173
▁بینیم	-6174
▁شدیدا	-6175
▁پذیرد	-6176
▁خیابانی	-6177
▁موتورسی	-6178
▁التحصیلان	-6179
دل	-6180
یزم	-6181
▁ذه	-6182
▁1995	-6183
▁2,000	-6184
▁تزریق	-6185
▁عبادت	-6186
▁مخارج	-6187
▁بدانند	-6188
▁مربیان	-6189
▁وزیران	-6190
▁توانستم	-6191
▁دستورال	-6192
▁ولادیمیر	-6193
▁امیدواریم	-6194
▁ریس	-6195
▁شیم	-6196
▁مونت	-6197
▁میشه	-6198
▁آتلان	-6199
▁کنسرت	-6200
راق	-6201
▁CBE	-6202
▁نیو	-6203
▁زیستی	-6204
▁قضاوت	-6205
▁10,000	-6206
▁ریچارد	-6207
▁یارانه	-6208
صور	-6209
انوف	-6210
▁کنه	-6211
▁فاضل	-6212
▁ضیا	-6213
اداری	-6214
▁پژواک	-6215
▁بعلاوه	-6216
▁تماشای	-6217
▁مناقصه	-6218
▁الرحمان	-6219
▁گذرنامه	-6220
اقض	-6221
▁زین	-6222
▁ناام	-6223
▁ابوال	-6224
▁دراین	-6225
▁سرتیپ	-6226
▁ضمانت	-6227
▁مختار	-6228
فکر	-6229
▁سپری	-6230
▁صلیب	-6231
▁قائل	-6232
حم	-6233
▁تایل	-6234
▁متعدد	-6235
▁پیروان	-6236
▁موتورسیکلت	-6237
ews	-6238
ئید	-6239
ریع	-6240
مکن	-6241
نشنال	-6242
▁رونق	-6243
▁مهلت	-6244
▁گرین	-6245
▁بانکهای	-6246
▁زیرزمین	-6247
▁وحشیانه	-6248
مانه	-6249
▁نصف	-6250
▁ثباتی	-6251
▁امدادی	-6252
▁ایالتی	-6253
▁ممانعت	-6254
▁سرنگونی	-6255
اتح	-6256
▁ژن	-6257
▁قید	-6258
▁لوک	-6259
▁سرور	-6260
▁منسو	-6261
یترانه	-6262
▁بستری	-6263
▁تلاشهای	-6264
▁ورزشکار	-6265
▁پناهنده	-6266
▁شصت	-6267
▁سالی	-6268
▁تجزیه	-6269
▁پاییز	-6270
▁آزمایشی	-6271
▁64	-6272
▁شخصا	-6273
▁تصمیمی	-6274
▁فراوانی	-6275
▁یادگیری	-6276
▁سیاستهای	-6277
▁الکترونیک	-6278
سیا	-6279
▁نت	-6280
▁زخم	-6281
▁مات	-6282
▁بشیر	-6283
▁رسول	-6284
▁قدیم	-6285
▁یاری	-6286
▁اسباب	-6287
▁بشریت	-6288
▁جوانی	-6289
▁خودتان	-6290
▁خودکار	-6291
▁آق	-6292
▁حت	-6293
▁شل	-6294
ائلی	-6295
سلاو	-6296
▁قرض	-6297
▁خالص	-6298
▁قاسم	-6299
▁میلادی	-6300
▁کامرون	-6301
▁افزایشی	-6302
▁دستورات	-6303
▁نویسندگان	-6304
kz	-6305
روب	-6306
لما	-6307
▁72	-6308
▁فد	-6309
▁کد	-6310
▁جیو	-6311
▁دفن	-6312
0,000	-6313
▁رحمت	-6314
▁خوانند	-6315
▁سایرین	-6316
الا	-6317
اکو	-6318
فره	-6319
▁بشری	-6320
▁جانی	-6321
▁5,000	-6322
▁عواقب	-6323
▁نظروف	-6324
▁احساسی	-6325
▁هری	-6326
▁ملیت	-6327
▁هراس	-6328
▁یازده	-6329
▁مولانا	-6330
▁کوچکتر	-6331
▁قهرمانان	-6332
▁حلی	-6333
▁وسط	-6334
▁مصرفی	-6335
▁بخواهد	-6336
▁درحالی	-6337
▁مناطقی	-6338
وبه	-6339
وتو	-6340
▁انس	-6341
▁کاک	-6342
▁کین	-6343
▁گریه	-6344
▁آلماز	-6345
▁نویسی	-6346
▁آنجایی	-6347
▁اندازد	-6348
▁سنگینی	-6349
پس	-6350
ایم	-6351
▁67	-6352
▁برع	-6353
▁ژئو	-6354
▁آواز	-6355
▁برایش	-6356
▁زنانی	-6357
▁ساعته	-6358
▁باارزش	-6359
▁سرگرمی	-6360
ناس	-6361
▁هک	-6362
▁گویم	-6363
▁پرداز	-6364
▁کارگذ	-6365
▁ابزارهای	-6366
re	-6367
▁فو	-6368
گاران	-6369
▁آنجلس	-6370
▁جلیقه	-6371
▁تغییری	-6372
▁رایانه	-6373
▁هندوستان	-6374
BC	-6375
▁انز	-6376
▁برز	-6377
▁صدمه	-6378
▁ابعاد	-6379
▁تبعید	-6380
▁انتهای	-6381
اطی	-6382
.000	-6383
عودی	-6384
▁تأسف	-6385
▁تیره	-6386
▁الشیخ	-6387
▁قبایل	-6388
▁هنرهای	-6389
▁100,000	-6390
▁جمهوریخواهان	-6391
شینی	-6392
▁فرق	-6393
▁اکبر	-6394
▁روحیه	-6395
▁ریاضی	-6396
▁شناسد	-6397
▁کشمیر	-6398
▁هوشمند	-6399
▁استراحت	-6400
▁کشورشان	-6401
▁اینترنشنال	-6402
خب	-6403
ent	-6404
▁68	-6405
▁تدا	-6406
▁ضرر	-6407
▁موز	-6408
▁آلات	-6409
▁تمدن	-6410
▁گوشه	-6411
▁سکونت	-6412
▁چهارد	-6413
▁ترکیبی	-6414
▁درگذشت	-6415
ردگی	-6416
▁سرگ	-6417
▁قائ	-6418
▁لیبرال	-6419
▁محاسبه	-6420
▁تابستانی	-6421
▁تط	-6422
▁سون	-6423
▁بارش	-6424
▁کاست	-6425
▁کندی	-6426
▁اراده	-6427
▁وسائل	-6428
▁نمیتوان	-6429
▁همب	-6430
▁بسیج	-6431
▁ورلد	-6432
▁تسریع	-6433
▁تمجید	-6434
▁علامت	-6435
▁عموما	-6436
▁فاروق	-6437
▁امدادر	-6438
▁ساکنین	-6439
▁مسائلی	-6440
ارق	-6441
ورن	-6442
▁ویا	-6443
▁سینا	-6444
▁طاهر	-6445
▁خروجی	-6446
▁خزانه	-6447
▁خوراکی	-6448
▁موهمند	-6449
▁تهدیدهای	-6450
▁گیت	-6451
رمانه	-6452
▁اسقف	-6453
▁عینی	-6454
▁جزایی	-6455
▁روشنی	-6456
▁کلمات	-6457
▁دانستند	-6458
▁مدیترانه	-6459
▁دستورالعمل	-6460
وو	-6461
باع	-6462
▁61	-6463
▁مبد	-6464
▁پاش	-6465
▁پره	-6466
▁جردن	-6467
▁هرچه	-6468
▁تشریح	-6469
▁تنبیه	-6470
▁دخترش	-6471
▁تحولات	-6472
▁آزادانه	-6473
ساز	-6474
▁ید	-6475
خصوص	-6476
▁اری	-6477
▁کلان	-6478
▁اخطار	-6479
▁بالاخ	-6480
▁شکایات	-6481
▁متشکرم	-6482
▁کشاورز	-6483
▁کشیدند	-6484
▁دانشمند	-6485
مدت	-6486
کین	-6487
افقی	-6488
▁گذرد	-6489
▁آنگاه	-6490
▁دبلیو	-6491
▁دیجیت	-6492
▁جمعیتی	-6493
▁دبیرخانه	-6494
صری	-6495
مره	-6496
▁ریش	-6497
▁سمی	-6498
▁اشفق	-6499
ضل	-6500
▁زا	-6501
وتین	-6502
▁امپ	-6503
▁لبخ	-6504
▁استح	-6505
▁تصرف	-6506
▁تقلب	-6507
راییلی	-6508
▁اصابت	-6509
▁بزرگسال	-6510
اسد	-6511
غیر	-6512
▁عج	-6513
▁بشود	-6514
▁رحیم	-6515
▁ایراد	-6516
▁منعقد	-6517
▁واقعه	-6518
▁پاداش	-6519
▁چراکه	-6520
▁استعفای	-6521
▁بازیابی	-6522
خر	-6523
قب	-6524
یرت	-6525
▁اوی	-6526
▁ممل	-6527
▁نصیر	-6528
▁برایم	-6529
▁متقابل	-6530
▁توریستی	-6531
▁جایگزینی	-6532
▁کارشناسی	-6533
حت	-6534
▁76	-6535
گاهی	-6536
▁فور	-6537
▁دانه	-6538
▁عمان	-6539
▁چراغ	-6540
▁نویسد	-6541
▁فرستادن	-6542
▁نامزدها	-6543
▁پولشویی	-6544
افز	-6545
بیب	-6546
▁بیایید	-6547
▁توافقی	-6548
▁آزادسازی	-6549
▁استادیوم	-6550
▁عبدالعزیز	-6551
ah	-6552
احتی	-6553
▁سرس	-6554
▁صدد	-6555
▁سواد	-6556
▁فدان	-6557
▁نگرش	-6558
▁نکنید	-6559
▁یاسین	-6560
▁توریسم	-6561
▁معناست	-6562
▁نووستی	-6563
▁محرمانه	-6564
▁افتتاحیه	-6565
▁دستاوردهای	-6566
▁CA	-6567
شلیم	-6568
▁مقت	-6569
▁کاش	-6570
▁کیم	-6571
▁اشرف	-6572
▁بیستم	-6573
▁ناهار	-6574
▁وفادار	-6575
▁چر	-6576
ستون	-6577
▁خرس	-6578
وشیتد	-6579
▁طارق	-6580
▁مجری	-6581
▁مکرر	-6582
▁میهن	-6583
▁رؤسای	-6584
▁همجنس	-6585
ولوژیکی	-6586
▁گیاهان	-6587
10	-6588
مده	-6589
ویتی	-6590
▁1993	-6591
▁عیسی	-6592
▁کلید	-6593
▁حدودا	-6594
▁پوشاک	-6595
▁رانندگان	-6596
▁رشت	-6597
▁معط	-6598
▁پمپ	-6599
▁مرور	-6600
▁کنگو	-6601
▁شرکتی	-6602
▁شنیدن	-6603
▁ربودند	-6604
▁اختصاصی	-6605
▁اسراییلی	-6606
یدیم	-6607
▁خیز	-6608
▁شوک	-6609
▁بینم	-6610
▁نزاع	-6611
▁تعامل	-6612
▁منصور	-6613
▁همگان	-6614
▁معافیت	-6615
▁اورشلیم	-6616
▁نوشیدنی	-6617
▁کودکانی	-6618
خنده	-6619
▁آیت	-6620
▁باه	-6621
▁حائ	-6622
▁رزا	-6623
▁شنا	-6624
سرویس	-6625
▁ساعات	-6626
▁بنگلادش	-6627
▁تجربیات	-6628
▁خودمختار	-6629
فیف	-6630
▁قطب	-6631
▁برطرف	-6632
▁ترانز	-6633
▁دادرسی	-6634
▁امتیازات	-6635
▁رفراندوم	-6636
ولت	-6637
پزشک	-6638
▁جنس	-6639
▁خند	-6640
▁مخل	-6641
▁الاح	-6642
▁بشار	-6643
▁مطلق	-6644
▁کنسول	-6645
▁همدیگر	-6646
لیف	-6647
ومت	-6648
گرفت	-6649
▁جرج	-6650
▁بدنی	-6651
▁مهار	-6652
▁صعودی	-6653
▁بهادار	-6654
▁برسانند	-6655
▁نخواهیم	-6656
▁آموزگاران	-6657
▁اسپانیایی	-6658
ئون	-6659
کیم	-6660
یتری	-6661
▁عمق	-6662
▁تنیس	-6663
▁حمید	-6664
▁محتو	-6665
▁گرمای	-6666
▁منتقدان	-6667
▁مذاکراتی	-6668
وض	-6669
اقی	-6670
▁سرش	-6671
▁فیس	-6672
▁بلوک	-6673
▁خدمه	-6674
▁مینگ	-6675
▁کربن	-6676
▁بعدها	-6677
▁اسماعی	-6678
▁خوشبخت	-6679
▁مسیرهای	-6680
▁نگهبانان	-6681
شات	-6682
▁اعم	-6683
▁زنج	-6684
▁شجاع	-6685
▁رهایی	-6686
▁اینطور	-6687
▁بازیگر	-6688
▁اوگاندا	-6689
مس	-6690
▁آپ	-6691
▁دگر	-6692
▁ستار	-6693
▁قانع	-6694
▁احتیاج	-6695
▁سوسیال	-6696
▁کاندیدا	-6697
▁73	-6698
▁برن	-6699
▁دفع	-6700
▁میت	-6701
▁یول	-6702
▁احمق	-6703
▁اقوام	-6704
▁تکاور	-6705
▁محبوبیت	-6706
▁اینترسرویس	-6707
ویک	-6708
▁59	-6709
▁توده	-6710
▁وکلا	-6711
▁پاره	-6712
▁کریس	-6713
▁احکام	-6714
▁سفارش	-6715
▁وسیعی	-6716
▁تایوان	-6717
▁انحصاری	-6718
▁پیامدهای	-6719
▁74	-6720
▁لن	-6721
ولان	-6722
▁الد	-6723
▁راز	-6724
▁هرج	-6725
▁دیکت	-6726
خواستی	-6727
▁آرزوی	-6728
▁بزنند	-6729
▁تاریک	-6730
▁ایستاد	-6731
▁فراوان	-6732
ولیک	-6733
▁دبی	-6734
▁غلام	-6735
▁ویدئو	-6736
▁کیفری	-6737
▁ماکسیم	-6738
om	-6739
مدی	-6740
الات	-6741
وتری	-6742
▁سرم	-6743
▁فاز	-6744
▁قوم	-6745
▁پلی	-6746
▁سپاس	-6747
▁ویدئ	-6748
▁اونها	-6749
▁رانده	-6750
▁اشتغال	-6751
▁بالاخره	-6752
▁همبستگی	-6753
▁کمونیست	-6754
▁آنف	-6755
▁جیب	-6756
▁آشپز	-6757
▁الکل	-6758
▁العمل	-6759
.0	-6760
انم	-6761
▁برچ	-6762
▁راک	-6763
▁چاه	-6764
▁حکمی	-6765
▁رمان	-6766
▁غلات	-6767
▁سیاره	-6768
▁افتادن	-6769
▁ویدیویی	-6770
▁کنفرانسی	-6771
▁افغانستانی	-6772
بخ	-6773
ابد	-6774
▁دیم	-6775
▁سوق	-6776
▁بقای	-6777
گرایان	-6778
▁بروید	-6779
▁نیستیم	-6780
تره	-6781
▁شج	-6782
بازی	-6783
مانده	-6784
▁اسکن	-6785
▁دوری	-6786
▁صوتی	-6787
▁مساوی	-6788
▁فاضلاب	-6789
▁استعداد	-6790
▁شهروندی	-6791
▁فلوریدا	-6792
ww	-6793
رام	-6794
ویا	-6795
▁رن	-6796
▁ظن	-6797
▁الگو	-6798
▁شیعی	-6799
▁گواه	-6800
▁اوتان	-6801
▁دزدید	-6802
▁کوشند	-6803
▁تصادفی	-6804
▁خدماتی	-6805
▁میهمان	-6806
ol	-6807
یاط	-6808
برای	-6809
▁شست	-6810
▁وست	-6811
▁بفهم	-6812
▁جدول	-6813
▁برویم	-6814
▁بغلان	-6815
▁شوهرش	-6816
▁منشور	-6817
▁نپذیر	-6818
▁مشاوران	-6819
▁گفتگوها	-6820
جار	-6821
دری	-6822
مری	-6823
عامل	-6824
▁بسر	-6825
جستان	-6826
▁غالی	-6827
▁گشته	-6828
▁آسانی	-6829
▁توازن	-6830
▁میانجی	-6831
▁ویکتور	-6832
▁بعدازظهر	-6833
▁پاسخگویی	-6834
▁پیکارجویان	-6835
ظات	-6836
▁ورشک	-6837
▁بخشهای	-6838
▁بواسطه	-6839
▁دیوانه	-6840
▁اورژانس	-6841
▁همانگونه	-6842
▁کمیساریای	-6843
▁جال	-6844
▁موگ	-6845
▁بنام	-6846
▁ساند	-6847
هایشان	-6848
▁قسمتی	-6849
▁مگاوات	-6850
▁گرسنگی	-6851
▁پرداختن	-6852
▁کارگردان	-6853
▁زرد	-6854
▁استن	-6855
▁حائز	-6856
▁متری	-6857
▁مقرر	-6858
▁نایب	-6859
▁انگار	-6860
▁ربودن	-6861
▁سناری	-6862
▁مشخصی	-6863
▁حکومتی	-6864
▁دانسته	-6865
شب	-6866
▁69	-6867
▁1.2	-6868
▁تبر	-6869
▁روم	-6870
▁سنج	-6871
خوانی	-6872
ضایتی	-6873
▁مستح	-6874
▁نقدی	-6875
▁وقفه	-6876
▁احسان	-6877
▁انبوه	-6878
▁تهاجم	-6879
▁فشرده	-6880
▁مطمئنا	-6881
▁گوناگونی	-6882
DP	-6883
▁s	-6884
داش	-6885
ایلی	-6886
تشان	-6887
▁مبه	-6888
▁واگ	-6889
▁مایک	-6890
▁هوان	-6891
▁ژنتی	-6892
افتاده	-6893
▁معماری	-6894
▁گذراند	-6895
▁اتفاقات	-6896
▁توانمند	-6897
ay	-6898
▁&	-6899
عاب	-6900
▁86	-6901
اکوف	-6902
▁منه	-6903
▁نقص	-6904
▁دعوی	-6905
▁رستم	-6906
▁چرخه	-6907
▁برتری	-6908
▁مشورت	-6909
▁خشمگین	-6910
شاهی	-6911
یکوف	-6912
▁سلف	-6913
▁شطر	-6914
▁فتح	-6915
▁خویش	-6916
▁سکول	-6917
▁صریح	-6918
▁مترو	-6919
▁برزیل	-6920
▁چودری	-6921
▁برپایی	-6922
▁محمداف	-6923
os	-6924
▁2.5	-6925
▁مقا	-6926
▁آیین	-6927
▁بروم	-6928
▁بونر	-6929
▁شعله	-6930
▁3,000	-6931
▁باکیف	-6932
▁دایره	-6933
▁شایان	-6934
▁کانون	-6935
▁گشودند	-6936
▁مدیرعامل	-6937
▁موافقتنامه	-6938
لر	-6939
▁3,	-6940
▁77	-6941
▁رسان	-6942
▁کوشد	-6943
▁ابتلا	-6944
▁ارگان	-6945
▁تداوم	-6946
▁حرکتی	-6947
▁ناامید	-6948
ur	-6949
ارگ	-6950
قیر	-6951
کات	-6952
شمنی	-6953
▁ناز	-6954
ایشان	-6955
▁شوکت	-6956
▁شکوف	-6957
▁نامن	-6958
▁یابی	-6959
▁متمای	-6960
▁ارزشمند	-6961
▁انقلابی	-6962
▁کامپیوتری	-6963
us	-6964
ایز	-6965
نام	-6966
▁ساد	-6967
▁قند	-6968
▁قوه	-6969
▁محرک	-6970
▁مرجع	-6971
▁دشمنی	-6972
▁چشمگیر	-6973
▁گرجستان	-6974
مول	-6975
یتا	-6976
ایای	-6977
▁باخ	-6978
▁هان	-6979
شماری	-6980
▁اذیت	-6981
▁بطری	-6982
▁رویه	-6983
▁مسال	-6984
▁منتخب	-6985
▁نشانی	-6986
▁هنرپی	-6987
▁العربی	-6988
▁جنگنده	-6989
لزم	-6990
▁الت	-6991
▁فرش	-6992
▁المق	-6993
▁دائم	-6994
▁پیشرو	-6995
بق	-6996
▁قور	-6997
▁مفق	-6998
▁کارد	-6999
▁خلیفه	-7000
▁موشکی	-7001
▁پیشروی	-7002
▁رادیواک	-7003
▁روستاها	-7004
19	-7005
▁حبیب	-7006
▁دیلی	-7007
▁سنجی	-7008
▁فراز	-7009
▁ایوان	-7010
▁باقیف	-7011
▁داران	-7012
▁بگویید	-7013
▁بیایند	-7014
▁فرآوری	-7015
▁نارضایتی	-7016
کیو	-7017
▁خص	-7018
▁مقد	-7019
▁خداح	-7020
▁کارل	-7021
▁مستلزم	-7022
▁معتقدم	-7023
▁عس	-7024
▁خمپ	-7025
▁درن	-7026
▁اشیا	-7027
▁جواه	-7028
▁مادی	-7029
▁نفرت	-7030
▁بیاورد	-7031
▁خمپاره	-7032
▁طلبانه	-7033
▁محتوای	-7034
▁پادشاهی	-7035
▁زیرزمینی	-7036
▁ماهیگیری	-7037
gh	-7038
زر	-7039
▁باشی	-7040
▁معین	-7041
▁تبریک	-7042
▁تدریج	-7043
▁فولاد	-7044
▁موقتی	-7045
▁انعطاف	-7046
▁روزمره	-7047
▁مسالمت	-7048
▁خداحافظ	-7049
▁خونریزی	-7050
▁دانشجویی	-7051
ab	-7052
تیم	-7053
ریل	-7054
▁لطف	-7055
▁آلوم	-7056
ارستان	-7057
▁تاکسی	-7058
▁خواجه	-7059
▁ریخته	-7060
▁برادرش	-7061
▁ناتوانی	-7062
▁تغییراتی	-7063
22	-7064
شیر	-7065
▁جک	-7066
▁ممت	-7067
▁تجمع	-7068
▁تقدیم	-7069
▁ادبیات	-7070
نار	-7071
زاری	-7072
▁نوه	-7073
▁بلژیک	-7074
▁لاتین	-7075
▁تایلند	-7076
▁نامناسب	-7077
▁بنیادکار	-7078
▁گزارشگران	-7079
موم	-7080
▁?"	-7081
▁Al	-7082
▁برقی	-7083
▁بهشت	-7084
▁واژه	-7085
▁آرمان	-7086
▁شجاعت	-7087
▁ماجرا	-7088
▁میرزا	-7089
▁سرنشین	-7090
اکر	-7091
کنت	-7092
چنین	-7093
▁هال	-7094
المات	-7095
▁شتاب	-7096
▁اخترا	-7097
▁الیاس	-7098
▁بمبئی	-7099
▁گذرگاه	-7100
▁اطلاعیه	-7101
▁بگذاریم	-7102
▁بمبگذاری	-7103
صره	-7104
ودا	-7105
▁84	-7106
ژانت	-7107
▁مایع	-7108
▁اعلان	-7109
▁سوگند	-7110
▁تحقیقی	-7111
▁میدهند	-7112
▁هیچگونه	-7113
مرد	-7114
▁تخم	-7115
▁سول	-7116
▁-200	-7117
▁بخور	-7118
▁گامی	-7119
▁حقایق	-7120
▁تاکتیک	-7121
▁مارتین	-7122
▁نوآوری	-7123
▁کوچولو	-7124
پو	-7125
ریش	-7126
ریشی	-7127
طوری	-7128
▁دندان	-7129
▁شطرنج	-7130
▁انحصار	-7131
▁زادگاه	-7132
▁مالکان	-7133
▁پنجمین	-7134
▁V	-7135
ظره	-7136
درصد	-7137
▁دهک	-7138
▁غال	-7139
▁فلز	-7140
▁قاری	-7141
▁قدری	-7142
▁مایه	-7143
▁هایم	-7144
▁کمرب	-7145
▁بازنگ	-7146
▁توکیو	-7147
▁نشوند	-7148
▁الکتریکی	-7149
id	-7150
ئیت	-7151
ائر	-7152
واهری	-7153
▁دهلی	-7154
▁فستی	-7155
▁پیتر	-7156
▁تئوری	-7157
▁داوود	-7158
▁مبالغ	-7159
▁متوسل	-7160
▁باکتری	-7161
▁نهایتا	-7162
▁تسلیحات	-7163
▁بازگردند	-7164
▁مسن	-7165
تروری	-7166
گرایی	-7167
▁ذهنی	-7168
▁فاسد	-7169
▁گردن	-7170
▁تقدیر	-7171
▁میگوی	-7172
▁نامعل	-7173
▁کاراک	-7174
▁کردید	-7175
فیه	-7176
یلد	-7177
▁جت	-7178
ریحی	-7179
▁حصول	-7180
▁راکت	-7181
▁فرعی	-7182
ونیستی	-7183
▁تعلیم	-7184
▁مهمانی	-7185
▁فروشنده	-7186
▁گزارشگر	-7187
▁قرقیزستانی	-7188
▁تولیدکنندگان	-7189
▁انص	-7190
▁میس	-7191
▁وای	-7192
▁بنای	-7193
▁جونز	-7194
▁خوار	-7195
▁سوپر	-7196
▁عنان	-7197
▁پرنده	-7198
میلیارد	-7199
▁پرستار	-7200
▁نوزادان	-7201
▁اعتبارات	-7202
▁امیدوارند	-7203
▁فروشندگان	-7204
ائی	-7205
▁140	-7206
▁گیف	-7207
▁آرای	-7208
▁هوشی	-7209
▁آموزی	-7210
▁براون	-7211
▁حقیقی	-7212
▁خواری	-7213
▁دهکده	-7214
▁سؤالی	-7215
▁ناموف	-7216
▁آرژانت	-7217
سده	-7218
▁آقا	-7219
▁خرده	-7220
▁مزیت	-7221
▁مکالمات	-7222
▁دورافتاده	-7223
صلی	-7224
▁ارم	-7225
▁هدر	-7226
▁کپی	-7227
▁برون	-7228
▁ایفای	-7229
▁بلندپ	-7230
▁دیدند	-7231
▁سابقا	-7232
▁شیرین	-7233
▁غالبا	-7234
▁مراتب	-7235
▁سودمند	-7236
▁متحدان	-7237
▁کیلووات	-7238
یی	-7239
▁قح	-7240
▁آبر	-7241
▁بره	-7242
▁حجاب	-7243
▁طلبی	-7244
▁لایه	-7245
▁پیشت	-7246
▁کردی	-7247
▁میتون	-7248
▁وزیری	-7249
▁دیداری	-7250
▁مسافرتی	-7251
▁مشروعیت	-7252
▁هوانوردی	-7253
▁پروازهای	-7254
and	-7255
ing	-7256
قول	-7257
▁صرب	-7258
▁لرز	-7259
▁شاعر	-7260
▁کتان	-7261
▁اراضی	-7262
▁تحقیر	-7263
▁معاصر	-7264
ونبایوا	-7265
▁افسانه	-7266
▁چارسده	-7267
▁واکسینه	-7268
▁پایداری	-7269
کوف	-7270
▁خل	-7271
جایی	-7272
رداد	-7273
▁کنت	-7274
▁کنگ	-7275
گرفته	-7276
▁فیزیک	-7277
▁جنسیتی	-7278
سیه	-7279
ستیک	-7280
توانی	-7281
چسلاو	-7282
▁تونل	-7283
▁منحل	-7284
▁وزنه	-7285
▁درآمده	-7286
▁هایمان	-7287
▁توانستیم	-7288
اهب	-7289
کرات	-7290
▁چمن	-7291
▁1970	-7292
▁بپرس	-7293
▁نوبت	-7294
▁لبخند	-7295
▁مفقود	-7296
▁گرفتیم	-7297
▁گریختند	-7298
▁سیاستمدار	-7299
یلی	-7300
▁نپ	-7301
0000	-7302
اخیل	-7303
بورگ	-7304
▁1967	-7305
▁فقرا	-7306
▁ناظم	-7307
▁کاوش	-7308
▁مقدمه	-7309
▁پاسخی	-7310
▁تدریجی	-7311
▁شوراهای	-7312
ژن	-7313
▁شا	-7314
▁وضوح	-7315
▁تظاهر	-7316
▁اهمیتی	-7317
▁قانونگذاری	-7318
جین	-7319
▁بشن	-7320
▁محو	-7321
▁افشا	-7322
▁حیرت	-7323
▁برایشان	-7324
▁ترانزیت	-7325
ion	-7326
لیا	-7327
الان	-7328
فتند	-7329
▁وحش	-7330
▁سراغ	-7331
▁محتر	-7332
▁مشوق	-7333
▁مصاف	-7334
▁انصار	-7335
▁بخشید	-7336
▁منصفه	-7337
▁فراگیر	-7338
▁بازدیدکنندگان	-7339
im	-7340
فین	-7341
News	-7342
▁حدس	-7343
▁صحت	-7344
▁عزم	-7345
▁بکند	-7346
▁حتما	-7347
▁رفیق	-7348
▁سوئد	-7349
▁تکنیک	-7350
FP	-7351
SA	-7352
اتری	-7353
▁شال	-7354
▁گود	-7355
▁1960	-7356
▁دامن	-7357
▁روحی	-7358
▁قحطی	-7359
رکننده	-7360
▁اتباع	-7361
▁شگفتی	-7362
▁مروات	-7363
▁معادن	-7364
▁منتهی	-7365
▁کریست	-7366
▁خاطرات	-7367
▁شیعیان	-7368
▁عبدالرح	-7369
▁غیرممکن	-7370
▁فستیوال	-7371
▁مناقشات	-7372
▁نتوانستند	-7373
بیا	-7374
ویش	-7375
یروف	-7376
▁سلطه	-7377
▁فاری	-7378
▁منشا	-7379
▁آرامی	-7380
▁هفتاد	-7381
▁باردار	-7382
▁روشهای	-7383
▁پانزده	-7384
▁پکتیکا	-7385
▁دک	-7386
ایوف	-7387
فتگی	-7388
کشان	-7389
▁اختر	-7390
▁تابل	-7391
▁سطحی	-7392
▁چاوز	-7393
▁مساعد	-7394
▁کارفر	-7395
▁آشنایی	-7396
▁راهکار	-7397
▁رفتاری	-7398
▁کمترین	-7399
▁رادیواکتیو	-7400
▁71	-7401
یدنت	-7402
یدگی	-7403
▁اسف	-7404
▁بذر	-7405
▁جود	-7406
▁سوپ	-7407
▁غلط	-7408
▁آریل	-7409
▁بفرو	-7410
▁سنین	-7411
▁شانه	-7412
▁معمر	-7413
▁کلمب	-7414
برداری	-7415
▁آسیاپ	-7416
▁ایسیک	-7417
▁بپذیر	-7418
▁جزایر	-7419
▁سکولار	-7420
▁ویاچسلاو	-7421
گرای	-7422
▁الظ	-7423
▁کنن	-7424
▁2020	-7425
▁ساکت	-7426
▁عبدل	-7427
▁نسبی	-7428
▁چندی	-7429
▁مبلغی	-7430
▁وارده	-7431
▁ناموفق	-7432
▁کانیوز	-7433
▁ادعاهای	-7434
▁داستانی	-7435
▁کارآفرینان	-7436
ter	-7437
چگی	-7438
▁حش	-7439
▁قف	-7440
▁بیه	-7441
▁خیره	-7442
▁عصبی	-7443
▁مفاد	-7444
▁هستی	-7445
▁بکشند	-7446
▁سلمان	-7447
▁مذاهب	-7448
▁پوندی	-7449
▁باختند	-7450
▁پدیدار	-7451
▁گردباد	-7452
وها	-7453
▁82	-7454
ازید	-7455
▁هید	-7456
▁الیز	-7457
▁دورد	-7458
▁ایمیل	-7459
▁حدودی	-7460
▁فاریاب	-7461
▁همدردی	-7462
▁یولداش	-7463
▁الزامات	-7464
▁میتوانید	-7465
ta	-7466
عش	-7467
▁بیس	-7468
▁اریک	-7469
▁کافه	-7470
▁آماری	-7471
▁ارایه	-7472
▁رؤیای	-7473
▁ممنون	-7474
▁کمیسر	-7475
▁تابعیت	-7476
▁مراسمی	-7477
▁یازدهم	-7478
▁رویدادها	-7479
▁چنگ	-7480
▁دایر	-7481
▁داوری	-7482
▁باورند	-7483
▁تفریحی	-7484
▁نمایان	-7485
▁همگانی	-7486
▁بخواهند	-7487
▁ضدتروری	-7488
▁اوتانبایوا	-7489
پرت	-7490
گرو	-7491
رسمی	-7492
▁موب	-7493
شاوند	-7494
▁تضاد	-7495
▁لیدی	-7496
▁متکی	-7497
▁ادیان	-7498
▁تائید	-7499
▁فایده	-7500
▁تریلیون	-7501
▁خریداران	-7502
هید	-7503
واب	-7504
ویض	-7505
▁ابد	-7506
▁قریب	-7507
▁مملو	-7508
▁ریگان	-7509
▁تندروی	-7510
▁آلومینی	-7511
▁دولتهای	-7512
▁صادقانه	-7513
▁منسوجات	-7514
▁وم	-7515
▁آبد	-7516
▁یوگ	-7517
اهدین	-7518
▁پرتو	-7519
▁کولی	-7520
▁شناسان	-7521
▁نرسیده	-7522
▁بارداری	-7523
یاض	-7524
▁جلوه	-7525
▁سامی	-7526
▁صدیق	-7527
▁لوگر	-7528
▁لیتر	-7529
▁محرم	-7530
▁کادر	-7531
▁ترسیم	-7532
▁حساسی	-7533
▁خونین	-7534
▁بیاورند	-7535
▁پالایشگاه	-7536
▁نمایندگانی	-7537
he	-7538
طل	-7539
ساب	-7540
ژدی	-7541
▁PA	-7542
▁آتا	-7543
▁ناف	-7544
▁پرا	-7545
▁یور	-7546
▁مواز	-7547
▁خیانت	-7548
▁معطوف	-7549
▁مهمتر	-7550
▁پوتین	-7551
▁کشمکش	-7552
▁پرسیده	-7553
گت	-7554
▁b	-7555
الس	-7556
,500	-7557
سران	-7558
▁900	-7559
▁آدر	-7560
▁خرم	-7561
▁مرت	-7562
اتوری	-7563
خواهی	-7564
▁اجمل	-7565
▁عاری	-7566
▁الگوی	-7567
▁ستایش	-7568
▁سردار	-7569
▁قیمتی	-7570
▁هموار	-7571
▁ابزاری	-7572
▁اندیشه	-7573
▁تراژدی	-7574
▁قرقیزی	-7575
▁کارخان	-7576
▁سرشماری	-7577
▁مکانیسم	-7578
▁جدیدترین	-7579
▁خویشاوند	-7580
▁87	-7581
▁دلس	-7582
▁شفق	-7583
▁موث	-7584
▁نشن	-7585
▁ابری	-7586
▁بوتو	-7587
▁خوست	-7588
▁لطفا	-7589
▁اندیش	-7590
▁دزدان	-7591
▁منبعی	-7592
▁امروزی	-7593
▁سازگاری	-7594
▁ویدئویی	-7595
▁درخواستی	-7596
▁معیارهای	-7597
▁عطا	-7598
▁محک	-7599
▁حریف	-7600
▁سارا	-7601
▁طلاق	-7602
▁میاد	-7603
▁درهای	-7604
▁مابین	-7605
▁میانی	-7606
▁بنیادی	-7607
▁بگویند	-7608
▁نمایید	-7609
▁کلاسیک	-7610
▁کنسرسی	-7611
▁گریخته	-7612
▁لیبیایی	-7613
▁اشتباهات	-7614
▁بپیوندند	-7615
▁شرا	-7616
▁شوی	-7617
▁وات	-7618
▁پیت	-7619
▁اوسل	-7620
▁بکوف	-7621
▁تصفیه	-7622
▁حوالی	-7623
▁دائما	-7624
▁مادری	-7625
▁نشدند	-7626
▁ولایتی	-7627
▁روانشناس	-7628
▁پلاستیکی	-7629
فو	-7630
▁خم	-7631
▁بجز	-7632
▁مشی	-7633
▁وایت	-7634
▁مشروع	-7635
▁ناچار	-7636
▁هلیکوپ	-7637
▁گیفورد	-7638
▁واگذاری	-7639
▁الظواهری	-7640
▁صهیونیست	-7641
ED	-7642
oo	-7643
فتد	-7644
دودی	-7645
▁قرص	-7646
▁وصل	-7647
▁رنگی	-7648
▁بسازد	-7649
▁بیکوف	-7650
▁جوایز	-7651
▁محتمل	-7652
▁انتونی	-7653
▁افسردگی	-7654
▁بردارند	-7655
▁هواشناسی	-7656
▁78	-7657
یاری	-7658
▁110	-7659
▁برم	-7660
انسون	-7661
▁بمبی	-7662
▁سرحد	-7663
▁قائم	-7664
▁مخرب	-7665
▁موری	-7666
▁آوریم	-7667
▁تمهید	-7668
▁سانتی	-7669
▁ناکام	-7670
▁نمایشی	-7671
▁پوشیدن	-7672
▁پرزیدنت	-7673
▁گذراندن	-7674
▁اوتونبایوا	-7675
15	-7676
یافت	-7677
▁130	-7678
▁لاک	-7679
▁صمیم	-7680
▁مناز	-7681
▁نوری	-7682
▁وسعت	-7683
▁کلام	-7684
▁ترمیم	-7685
▁غیررسمی	-7686
▁پیوستند	-7687
اتا	-7688
▁99	-7689
▁سئ	-7690
بندی	-7691
فورد	-7692
▁قله	-7693
▁ناچ	-7694
▁بافت	-7695
▁غروب	-7696
▁مشروط	-7697
▁مولوی	-7698
▁آنهاست	-7699
▁منظورم	-7700
▁ولایات	-7701
▁استخوان	-7702
▁اینجاست	-7703
▁حکمرانی	-7704
▁معترضین	-7705
ئل	-7706
▁83	-7707
▁اتص	-7708
▁باف	-7709
▁ذوب	-7710
ماتوف	-7711
▁برگه	-7712
▁ربای	-7713
▁فینال	-7714
▁چارلز	-7715
اطه	-7716
ماع	-7717
چین	-7718
یمت	-7719
▁88	-7720
▁نمک	-7721
▁بیام	-7722
▁هنگو	-7723
▁واگن	-7724
▁المقدس	-7725
▁درخصوص	-7726
▁ماندند	-7727
▁کهکشان	-7728
▁استرداد	-7729
▁الیزابت	-7730
▁برکناری	-7731
▁میگویند	-7732
▁Z	-7733
خود	-7734
ایتی	-7735
▁درج	-7736
▁تشعش	-7737
▁تونی	-7738
▁خلیل	-7739
▁سهیم	-7740
▁شیکا	-7741
▁نوید	-7742
▁نکات	-7743
▁واجد	-7744
▁بخشند	-7745
▁بیافت	-7746
▁مسیری	-7747
▁دارفور	-7748
▁دورانی	-7749
▁تاثیرگذار	-7750
▁شرف	-7751
▁پائ	-7752
▁ژنو	-7753
هنگام	-7754
▁1979	-7755
▁حیاط	-7756
▁ناشن	-7757
▁بهینه	-7758
▁سرسخت	-7759
▁مایلی	-7760
▁مقاصد	-7761
▁احتیاط	-7762
▁زنجیره	-7763
▁سریعتر	-7764
▁شیکاگو	-7765
▁مادرید	-7766
▁تکاوران	-7767
▁فیلیپین	-7768
▁هنرپیشه	-7769
24	-7770
ia	-7771
امو	-7772
عار	-7773
▁193	-7774
▁3.5	-7775
▁تله	-7776
▁الوف	-7777
▁بادی	-7778
▁سومی	-7779
▁اوسلد	-7780
▁تحکیم	-7781
▁سخنگو	-7782
▁صحرای	-7783
▁کاناد	-7784
▁کوهات	-7785
▁اینکار	-7786
▁بهبودی	-7787
▁بیانگر	-7788
▁حمایتی	-7789
▁عالمان	-7790
▁کارخانجات	-7791
ظف	-7792
▁91	-7793
شاری	-7794
▁سمب	-7795
▁فوک	-7796
دینگی	-7797
▁الهی	-7798
▁عسکر	-7799
▁فورد	-7800
▁بزنید	-7801
▁بکنند	-7802
▁گیریم	-7803
▁ارمغان	-7804
▁ناوگان	-7805
▁ویتنام	-7806
▁ویرانی	-7807
▁حسابرسی	-7808
▁راهنمای	-7809
▁اسماعیلی	-7810
▁بدل	-7811
▁سیک	-7812
▁پسرم	-7813
▁تبرئه	-7814
▁حرکات	-7815
▁ذخائر	-7816
▁میدانی	-7817
▁قرقیزها	-7818
▁بازگردانده	-7819
کوس	-7820
▁81	-7821
یدان	-7822
ینامه	-7823
▁جولی	-7824
▁شفقت	-7825
▁موظف	-7826
▁بنادر	-7827
▁گالری	-7828
▁وضعیتی	-7829
▁تبادلات	-7830
▁دوستانش	-7831
▁راهبردی	-7832
▁نقدینگی	-7833
▁گردآوری	-7834
▁همکارانش	-7835
▁کاندیدای	-7836
▁تیل	-7837
▁نبی	-7838
▁وثی	-7839
▁جعلی	-7840
▁منصف	-7841
▁ویزا	-7842
▁تفریح	-7843
▁اوسلدکو	-7844
▁هلیکوپتر	-7845
▁تاجیکستانی	-7846
اهو	-7847
▁96	-7848
▁نج	-7849
▁یی	-7850
الحه	-7851
▁گار	-7852
▁جنین	-7853
▁سیار	-7854
▁قالی	-7855
▁ندرت	-7856
▁هالی	-7857
▁اجناس	-7858
▁تالاس	-7859
▁خاروغ	-7860
▁سرانه	-7861
▁وثیقه	-7862
▁آشکارا	-7863
▁خانوار	-7864
▁پانزدهم	-7865
▁بازیگران	-7866
▁رفتارهای	-7867
▁93	-7868
یناف	-7869
▁AFP	-7870
▁غری	-7871
▁چسب	-7872
وشیما	-7873
▁درمی	-7874
▁پنتا	-7875
▁بگیرم	-7876
▁مصالح	-7877
▁نوسان	-7878
▁موبایل	-7879
▁خودروها	-7880
▁قیمتهای	-7881
▁خودگردان	-7882
▁گواهینامه	-7883
گهی	-7884
ستند	-7885
▁ایی	-7886
▁تنب	-7887
▁فرس	-7888
▁قوا	-7889
▁منس	-7890
▁کنر	-7891
▁عقیل	-7892
▁مغول	-7893
▁پرنس	-7894
▁تیمور	-7895
▁زدایی	-7896
▁میبین	-7897
▁اریتره	-7898
▁شواهدی	-7899
▁اصلاحاتی	-7900
ro	-7901
روک	-7902
وکی	-7903
▁قن	-7904
▁350	-7905
▁سوت	-7906
▁عقل	-7907
▁نود	-7908
▁خونی	-7909
▁درهم	-7910
▁شیلی	-7911
▁وانه	-7912
▁ارتشی	-7913
▁جراحات	-7914
▁گفتمان	-7915
▁آموزگار	-7916
▁دادگاهی	-7917
ریا	-7918
پورت	-7919
▁حرم	-7920
▁خطری	-7921
▁رزرو	-7922
▁شنید	-7923
▁فلزی	-7924
▁قلعه	-7925
▁مارچ	-7926
▁برچسب	-7927
▁بردارد	-7928
▁تورسون	-7929
▁بازنگری	-7930
▁تدارکات	-7931
▁قوانینی	-7932
▁همسایگی	-7933
▁گرایانه	-7934
25	-7935
زل	-7936
سید	-7937
یکال	-7938
▁هام	-7939
▁نحوی	-7940
▁سراسری	-7941
▁شایعات	-7942
▁کارشان	-7943
▁کمکهای	-7944
▁m	-7945
اسو	-7946
▁توماس	-7947
▁راندن	-7948
▁هفتگی	-7949
▁مشخصات	-7950
▁مصریان	-7951
▁پردازش	-7952
▁آسوشیتد	-7953
▁معتادان	-7954
▁نامعلوم	-7955
▁کارگذاشت	-7956
▁آلومینیوم	-7957
اهت	-7958
ینت	-7959
▁97	-7960
▁زر	-7961
▁ود	-7962
▁گه	-7963
راست	-7964
ستمی	-7965
▁بسکت	-7966
▁علنی	-7967
▁لامپ	-7968
▁تخفیف	-7969
▁جراحت	-7970
▁داروس	-7971
▁سرگئی	-7972
▁سرگرم	-7973
▁مستغل	-7974
▁کونار	-7975
▁خبرهای	-7976
▁پیشتاز	-7977
▁گردشگر	-7978
▁الاسلام	-7979
▁مکانیزم	-7980
▁دادخواست	-7981
گردی	-7982
رسانی	-7983
▁غالب	-7984
▁قریشی	-7985
▁ماریا	-7986
▁مشمول	-7987
▁بیگانه	-7988
▁متوالی	-7989
▁پنتاگون	-7990
ساله	-7991
▁جنج	-7992
▁ریک	-7993
▁کیک	-7994
▁آدام	-7995
▁الحق	-7996
▁مصون	-7997
▁نعمت	-7998
▁کویتی	-7999
▁پیامبر	-8000
▁محافظان	-8001
▁کانادایی	-8002
▁یکپارچگی	-8003
یع	-8004
▁79	-8005
▁98	-8006
▁اوه	-8007
▁معای	-8008
▁نمره	-8009
▁احاطه	-8010
▁تونسی	-8011
▁شمارش	-8012
▁موردی	-8013
▁دانستم	-8014
▁مبلمان	-8015
▁مردمان	-8016
▁نظارتی	-8017
▁ویراست	-8018
▁متخصصین	-8019
▁آرژانتین	-8020
ch	-8021
رها	-8022
چال	-8023
جمله	-8024
▁خنک	-8025
▁لار	-8026
▁نوم	-8027
▁پاف	-8028
▁معلق	-8029
▁آمیزی	-8030
▁زبانی	-8031
▁سریال	-8032
▁میکنه	-8033
▁نهفته	-8034
▁برگزار	-8035
▁ناتوان	-8036
▁آسیاپلوس	-8037
ak	-8038
زونا	-8039
▁ابه	-8040
▁نشت	-8041
▁اردنی	-8042
▁تلافی	-8043
▁داماد	-8044
▁دردسر	-8045
▁سوزان	-8046
▁متعجب	-8047
▁کاملی	-8048
▁گرامی	-8049
▁گردهم	-8050
▁آموخته	-8051
▁بلایای	-8052
▁مشورتی	-8053
▁مصالحه	-8054
▁پلاستیک	-8055
▁کنسرسیوم	-8056
▁قراردادها	-8057
عوض	-8058
موز	-8059
نکو	-8060
▁رگ	-8061
مداد	-8062
ولوف	-8063
▁تسلط	-8064
▁هلال	-8065
▁1,500	-8066
▁آرایش	-8067
▁ترسند	-8068
▁سردرگ	-8069
▁گوییم	-8070
▁کارآمد	-8071
▁پشتیبان	-8072
▁اقامتگاه	-8073
14	-8074
ایوا	-8075
هزار	-8076
ینوف	-8077
▁تفر	-8078
▁سکه	-8079
▁کوهن	-8080
▁استرس	-8081
▁باهوش	-8082
▁شکستن	-8083
▁مالیه	-8084
▁موسوم	-8085
▁انحلال	-8086
▁سونامی	-8087
▁مقالات	-8088
▁گذاریهای	-8089
▁بیمارستانی	-8090
اکا	-8091
وکا	-8092
▁89	-8093
▁آکی	-8094
▁احض	-8095
▁شکی	-8096
▁آگهی	-8097
▁دلتا	-8098
▁عضوی	-8099
▁ماسک	-8100
▁مینی	-8101
▁کوبا	-8102
▁اخلاق	-8103
▁تبهکار	-8104
▁ریدینگ	-8105
▁فعالانه	-8106
▁کشورمان	-8107
▁کنسولگری	-8108
چر	-8109
▁d	-8110
افل	-8111
▁ارعاب	-8112
▁خاطره	-8113
▁مسموم	-8114
▁هشتاد	-8115
▁دبستان	-8116
▁شناختن	-8117
▁قلمداد	-8118
▁بلندمدت	-8119
▁خوشحالی	-8120
▁پیشگیرانه	-8121
▁رئ	-8122
پوری	-8123
خواهد	-8124
فرادی	-8125
یتانی	-8126
▁اسید	-8127
▁سرود	-8128
▁عجله	-8129
▁مبهم	-8130
▁مندی	-8131
▁ارزشی	-8132
▁مرحوم	-8133
▁پستان	-8134
▁بسکتبال	-8135
▁تدابیری	-8136
▁دیجیتال	-8137
▁مجاهدین	-8138
▁مرزبانی	-8139
▁مستغلات	-8140
▁موقعیتی	-8141
▁دیز	-8142
▁لغت	-8143
▁اسبق	-8144
▁صخره	-8145
▁طرفی	-8146
▁نشری	-8147
▁تکامل	-8148
▁خرابی	-8149
▁عواید	-8150
▁کماند	-8151
▁تخلفات	-8152
▁جانسون	-8153
▁رسانند	-8154
▁تاریخچه	-8155
▁برخورداری	-8156
یمه	-8157
▁1.3	-8158
▁آغوش	-8159
▁درخش	-8160
▁سازش	-8161
▁فهمی	-8162
▁گریز	-8163
▁بنویس	-8164
▁محتاط	-8165
▁مورچه	-8166
▁الزامی	-8167
▁تفاوتی	-8168
▁طوریکه	-8169
▁شانزدهم	-8170
▁فشارهای	-8171
▁پرداختی	-8172
▁استرالیایی	-8173
سمس	-8174
باوه	-8175
▁بمن	-8176
▁کوپ	-8177
▁بسوی	-8178
▁حمام	-8179
▁مورخ	-8180
▁کارم	-8181
▁کرای	-8182
▁الحاق	-8183
▁خورند	-8184
▁راستا	-8185
▁سوابق	-8186
▁نوزدهم	-8187
▁نیافته	-8188
▁دیمیتری	-8189
▁ورشکستگی	-8190
,8	-8191
un	-8192
وخ	-8193
اریا	-8194
لندی	-8195
ارهای	-8196
▁ایند	-8197
▁توکت	-8198
▁سفری	-8199
▁موعد	-8200
▁گزین	-8201
▁مدرکی	-8202
▁کتابی	-8203
▁بتوانم	-8204
▁بروکسل	-8205
▁سرنگون	-8206
▁انفرادی	-8207
▁ستارگان	-8208
▁فرصتهای	-8209
اعش	-8210
▁94	-8211
طانی	-8212
علیف	-8213
▁180	-8214
▁اقت	-8215
▁رژه	-8216
▁ونز	-8217
▁جرأت	-8218
▁طالب	-8219
▁فراه	-8220
▁محترم	-8221
▁زخمیان	-8222
▁بازیافت	-8223
▁پیوندهای	-8224
ئیان	-8225
اندو	-8226
سایت	-8227
▁اکو	-8228
▁داعش	-8229
▁رعنا	-8230
▁روال	-8231
▁مؤسس	-8232
▁همیش	-8233
▁اهدای	-8234
▁کلونی	-8235
▁گشتند	-8236
▁20,000	-8237
▁اینقدر	-8238
▁بدانید	-8239
▁قاتلان	-8240
▁مفاهیم	-8241
▁کمربند	-8242
▁توافقات	-8243
▁زیمباوه	-8244
▁ناراحتی	-8245
▁وفاداری	-8246
▁آشپزخانه	-8247
اوت	-8248
شود	-8249
▁160	-8250
▁جاذ	-8251
▁خطی	-8252
▁سوب	-8253
▁هائ	-8254
▁دارن	-8255
▁ردیف	-8256
▁مصاد	-8257
▁نامی	-8258
▁درسال	-8259
▁رخداد	-8260
▁کیانی	-8261
▁استریت	-8262
▁النصره	-8263
▁بازتاب	-8264
▁خانمان	-8265
▁دلایلی	-8266
▁متمایز	-8267
▁انفجارها	-8268
▁انفجارهای	-8269
600	-8270
طوم	-8271
بیون	-8272
روزه	-8273
واهی	-8274
▁بگم	-8275
▁رحم	-8276
▁بریم	-8277
▁تعصب	-8278
▁جوزف	-8279
▁رویم	-8280
▁پوشی	-8281
▁آسیبی	-8282
▁آهسته	-8283
▁بابان	-8284
▁منهدم	-8285
▁تلفاتی	-8286
▁سفرهای	-8287
▁سیستمی	-8288
▁همیشگی	-8289
▁کریسمس	-8290
▁خواندند	-8291
▁رویدادی	-8292
▁پافشاری	-8293
▁1.7	-8294
▁انق	-8295
▁جزو	-8296
▁جزی	-8297
▁کمر	-8298
▁گرگ	-8299
اندند	-8300
▁خلاص	-8301
▁دستش	-8302
▁سالخ	-8303
▁غرور	-8304
▁چاره	-8305
▁افشای	-8306
▁دختری	-8307
▁دوستش	-8308
▁فلسفه	-8309
▁پیغام	-8310
▁گشوده	-8311
▁خلاقیت	-8312
▁کارآیی	-8313
▁روندهای	-8314
▁ازبکستانی	-8315
▁فرزندانشان	-8316
بیح	-8317
شیم	-8318
ینو	-8319
ریقی	-8320
نگان	-8321
▁آلی	-8322
▁جهش	-8323
▁حاف	-8324
▁درح	-8325
▁سهر	-8326
▁علل	-8327
▁خیال	-8328
▁کوهت	-8329
▁آبهای	-8330
▁رایان	-8331
▁صرافی	-8332
▁اختراع	-8333
▁نیازوف	-8334
▁جابجایی	-8335
▁میتوانند	-8336
فرم	-8337
وسک	-8338
▁سج	-8339
▁کث	-8340
اپور	-8341
▁عسل	-8342
▁آدرس	-8343
▁دومی	-8344
▁چربی	-8345
▁جاذبه	-8346
▁دیابت	-8347
▁ونزوئ	-8348
▁پرستی	-8349
▁ارسالی	-8350
▁افزودن	-8351
▁وبسایت	-8352
▁مینگوره	-8353
▁انداختند	-8354
▁بلندپایه	-8355
جمی	-8356
▁زیت	-8357
▁اسلم	-8358
▁دهان	-8359
▁روبر	-8360
▁شراب	-8361
▁غافل	-8362
▁معاش	-8363
▁اسمیت	-8364
▁بداند	-8365
▁بلندی	-8366
▁صفحات	-8367
▁منظره	-8368
▁حاکمان	-8369
▁دوگانه	-8370
▁متناسب	-8371
▁نشریات	-8372
▁قاچاقچی	-8373
▁قانونگذاران	-8374
سلان	-8375
▁فیر	-8376
▁حلال	-8377
▁زیرد	-8378
▁عظمت	-8379
رخواهی	-8380
پوریشن	-8381
▁اونجا	-8382
▁تناقض	-8383
▁زیارت	-8384
▁فهمید	-8385
▁مستعد	-8386
▁میگیر	-8387
▁کاربر	-8388
▁استوار	-8389
▁داروها	-8390
▁مجموعا	-8391
▁مخفیانه	-8392
سپاری	-8393
فکران	-8394
▁الحر	-8395
▁دمای	-8396
▁سیتی	-8397
▁وردک	-8398
▁پیکر	-8399
▁ابراه	-8400
▁برلین	-8401
▁داروی	-8402
▁رفتیم	-8403
▁عالیر	-8404
▁ممتاز	-8405
▁یخچال	-8406
▁اهداکن	-8407
▁مزایده	-8408
▁نشانگر	-8409
▁آتلانتا	-8410
▁مدیریتی	-8411
▁خاکسپاری	-8412
▁بزرگسالان	-8413
ID	-8414
300	-8415
ریس	-8416
پوش	-8417
رینی	-8418
کارا	-8419
▁بهم	-8420
▁توق	-8421
▁جوش	-8422
▁پید	-8423
▁گیج	-8424
▁جمیل	-8425
▁رشدی	-8426
▁منطق	-8427
▁کوفی	-8428
▁فارسی	-8429
▁پرهیز	-8430
▁استثنا	-8431
▁مجاورت	-8432
▁ندارید	-8433
▁هائیتی	-8434
▁انتظارات	-8435
غر	-8436
جدی	-8437
▁08	-8438
▁ین	-8439
فورم	-8440
▁190	-8441
▁آکت	-8442
▁بتر	-8443
▁اروز	-8444
▁گربه	-8445
▁گلگت	-8446
▁اسکار	-8447
▁بیفتد	-8448
▁دوستم	-8449
▁پیراه	-8450
▁دانستن	-8451
▁منصفانه	-8452
▁مهندسان	-8453
▁عالیرتبه	-8454
▁عذرخواهی	-8455
▁اقتصاددانان	-8456
▁غف	-8457
یلند	-8458
▁بلخ	-8459
اکاری	-8460
پزشکی	-8461
▁1989	-8462
▁اصیل	-8463
▁تریب	-8464
▁غریب	-8465
▁منحص	-8466
▁کشیش	-8467
▁بیلور	-8468
▁دویست	-8469
▁متنوع	-8470
▁منحرف	-8471
▁دردناک	-8472
▁فهرستی	-8473
▁مهربان	-8474
▁تریبیون	-8475
▁نورستان	-8476
ud	-8477
ودر	-8478
ذیرد	-8479
راوی	-8480
اتحاد	-8481
▁اکرم	-8482
▁رؤیت	-8483
▁الوفد	-8484
▁برسیم	-8485
▁دیدیم	-8486
▁شنیدم	-8487
▁نوروز	-8488
▁سخنران	-8489
▁مکزیکی	-8490
▁میکنید	-8491
▁چندانی	-8492
▁گلخانه	-8493
▁اعتراضی	-8494
▁توضیحات	-8495
▁معلولیت	-8496
▁کاتولیک	-8497
▁گنجانده	-8498
▁پناهندگی	-8499
▁کب	-8500
اکور	-8501
▁تیپ	-8502
▁قصه	-8503
▁مکت	-8504
▁وری	-8505
▁سراز	-8506
▁شوخی	-8507
▁قبرس	-8508
▁نیام	-8509
▁همون	-8510
▁اعداد	-8511
▁اندوه	-8512
▁روپرت	-8513
▁کردها	-8514
▁رواندا	-8515
▁فهمیدم	-8516
▁نتواند	-8517
▁واشینگ	-8518
▁اشغالگر	-8519
▁اپراتور	-8520
▁سفارتخانه	-8521
▁میلیاردها	-8522
حر	-8523
بخشی	-8524
▁بوگ	-8525
▁جاک	-8526
▁ذین	-8527
▁غول	-8528
▁لیس	-8529
▁گلد	-8530
▁گلف	-8531
▁حریم	-8532
▁رادر	-8533
▁پرسی	-8534
▁انصاف	-8535
▁برعکس	-8536
▁بشناس	-8537
▁حافظه	-8538
▁سهامی	-8539
▁پلیسی	-8540
▁50,000	-8541
▁سهامداران	-8542
▁f	-8543
اپی	-8544
▁رج	-8545
▁1.4	-8546
▁آلن	-8547
▁جنب	-8548
▁شتم	-8549
▁رسوم	-8550
▁قطره	-8551
▁مختص	-8552
▁مناظ	-8553
▁پشتو	-8554
▁گرما	-8555
▁اتریش	-8556
▁روگان	-8557
▁ارزهای	-8558
▁نخواهم	-8559
▁کارایی	-8560
▁گازهای	-8561
▁دوازدهم	-8562
▁همتایان	-8563
▁پدربزرگ	-8564
▁افزارهای	-8565
اوا	-8566
دیف	-8567
بکوف	-8568
▁آلب	-8569
▁سلس	-8570
▁ناص	-8571
▁ناق	-8572
▁کاف	-8573
کردنی	-8574
▁سارک	-8575
▁غرفه	-8576
▁مجزا	-8577
▁ساریف	-8578
▁ضربات	-8579
▁بیاموز	-8580
▁دمکرات	-8581
▁محدودی	-8582
▁نداشتم	-8583
▁پرسیدم	-8584
▁اشتباهی	-8585
▁الاتحاد	-8586
▁برندگان	-8587
▁پیمانکاران	-8588
طال	-8589
وزن	-8590
▁1.6	-8591
▁تول	-8592
▁جنی	-8593
▁رزمی	-8594
▁ریخت	-8595
▁زاهد	-8596
▁فیاض	-8597
▁نثار	-8598
▁پیشی	-8599
▁ایساف	-8600
▁براین	-8601
▁خستگی	-8602
▁مابقی	-8603
▁مزایا	-8604
▁میدون	-8605
▁کالای	-8606
▁استودی	-8607
▁بسازیم	-8608
▁زائران	-8609
▁یوسفزی	-8610
▁الحریری	-8611
▁ونزوئلا	-8612
▁گذرانده	-8613
▁امدادرسانی	-8614
سط	-8615
...	-8616
بیگ	-8617
وروف	-8618
پینگ	-8619
▁125	-8620
▁NDP	-8621
▁عهد	-8622
▁موت	-8623
▁ابوت	-8624
▁باهم	-8625
▁تردد	-8626
▁جزیی	-8627
▁تابوت	-8628
▁درنظر	-8629
▁گورنو	-8630
▁شیمکنت	-8631
▁پذیرند	-8632
▁کلمبیا	-8633
▁گیفوردز	-8634
az	-8635
ارو	-8636
ظور	-8637
لینگ	-8638
دهمین	-8639
▁بکنم	-8640
▁خودی	-8641
▁آپریل	-8642
▁بهادر	-8643
▁عدنان	-8644
▁بقایای	-8645
▁حساسیت	-8646
▁سرگیری	-8647
▁گیرنده	-8648
▁آریزونا	-8649
▁پرستاران	-8650
27	-8651
28	-8652
صیر	-8653
قند	-8654
ملک	-8655
▁وت	-8656
▁4.5	-8657
▁آنگ	-8658
▁بیا	-8659
▁زام	-8660
بانیت	-8661
▁اسیر	-8662
▁الاخ	-8663
▁بوته	-8664
▁زیرب	-8665
▁سمیر	-8666
▁فتوا	-8667
▁مجید	-8668
▁نجیب	-8669
▁بکنیم	-8670
▁شباهت	-8671
▁درآمدی	-8672
▁متعادل	-8673
▁مستحکم	-8674
▁پایبند	-8675
▁احمقانه	-8676
▁بخواهید	-8677
▁تهدیدها	-8678
▁درآورده	-8679
▁فوکوشیما	-8680
▁p	-8681
آمد	-8682
شمی	-8683
وقت	-8684
جاده	-8685
ماری	-8686
▁جاه	-8687
▁قفق	-8688
▁گلن	-8689
▁النه	-8690
▁خوام	-8691
▁گوسف	-8692
▁ترانه	-8693
▁تقلبی	-8694
▁موهای	-8695
▁انسجام	-8696
▁انگیزی	-8697
▁سودانی	-8698
▁منتشره	-8699
▁کارگری	-8700
▁اندیجان	-8701
▁شاهدانه	-8702
▁میکردند	-8703
▁نزدیکتر	-8704
▁پرندگان	-8705
▁چهاردهم	-8706
▁ایستادگی	-8707
▁بزرگداشت	-8708
▁ناشناخته	-8709
▁کارفرمای	-8710
▁نمایشنامه	-8711
مک	-8712
ملی	-8713
ارده	-8714
▁450	-8715
▁برو	-8716
▁درخ	-8717
▁ممد	-8718
انسور	-8719
▁کثیف	-8720
منستان	-8721
▁آمبول	-8722
▁اتصال	-8723
▁رقبای	-8724
▁سلسله	-8725
▁مارات	-8726
▁متذکر	-8727
▁مستمر	-8728
▁مسجدی	-8729
▁ندهند	-8730
▁خارطوم	-8731
▁تمرینات	-8732
▁ورزشگاه	-8733
▁بنیانگذار	-8734
60	-8735
رود	-8736
وقه	-8737
گونی	-8738
▁جفت	-8739
▁لکی	-8740
▁3000	-8741
▁تاون	-8742
▁زندگ	-8743
▁فصلی	-8744
▁مزاح	-8745
▁نگری	-8746
گیرنده	-8747
▁آنکارا	-8748
▁تریبون	-8749
▁تمایلی	-8750
▁جویانه	-8751
▁کارگذاشتنی	-8752
400	-8753
ینز	-8754
اکند	-8755
▁بدم	-8756
▁واس	-8757
▁خودت	-8758
▁درنگ	-8759
▁دهها	-8760
▁عارف	-8761
▁پیرو	-8762
▁گوان	-8763
▁بنگاه	-8764
▁راستی	-8765
▁آشفتگی	-8766
▁کشتگان	-8767
▁یونانی	-8768
▁استیناف	-8769
▁بازگردد	-8770
17	-8771
ana	-8772
▁ذی	-8773
▁رآ	-8774
دینگ	-8775
▁علف	-8776
▁مضر	-8777
▁نما	-8778
▁وقف	-8779
▁پند	-8780
▁کهر	-8781
▁معضل	-8782
▁میسر	-8783
▁برجای	-8784
▁سانحه	-8785
▁سوراخ	-8786
▁متغیر	-8787
▁مدنظر	-8788
▁اضطراب	-8789
▁بخشیده	-8790
▁تاریکی	-8791
▁ترسناک	-8792
▁رونالد	-8793
▁سیاستی	-8794
▁دانمارک	-8795
▁مخاطبان	-8796
▁پذیرفتن	-8797
▁موضوعاتی	-8798
▁هواپیماها	-8799
سام	-8800
▁CI	-8801
▁بهش	-8802
▁صور	-8803
▁مسل	-8804
▁مهد	-8805
▁گره	-8806
لماسی	-8807
▁بیوه	-8808
▁فروم	-8809
روشیمی	-8810
▁آموخت	-8811
▁سیلاب	-8812
▁صدایی	-8813
▁پاراچ	-8814
▁پنالتی	-8815
▁انتقادات	-8816
▁دیپلماسی	-8817
کف	-8818
سار	-8819
وما	-8820
هاست	-8821
ونوف	-8822
▁بخر	-8823
▁ذیل	-8824
▁سمر	-8825
▁متخ	-8826
▁آورم	-8827
▁اتکا	-8828
▁تطبی	-8829
▁جدیت	-8830
▁سراج	-8831
▁سنگی	-8832
▁هدفی	-8833
▁پنجه	-8834
▁اندرو	-8835
▁زیبای	-8836
▁شناور	-8837
▁مصوبه	-8838
▁انجامد	-8839
▁بیافتد	-8840
▁خوردند	-8841
▁سازگار	-8842
▁سربازی	-8843
▁بابانوف	-8844
▁بخواهیم	-8845
▁کنارجاده	-8846
▁آسوشیتدپرس	-8847
,7	-8848
جن	-8849
شاد	-8850
کاس	-8851
کوت	-8852
آمیز	-8853
گردد	-8854
▁توت	-8855
خارجه	-8856
ورانه	-8857
▁آتیر	-8858
▁ترقی	-8859
▁لندی	-8860
▁ابهام	-8861
▁بنشین	-8862
▁جانبی	-8863
▁خاتمی	-8864
▁دورتر	-8865
▁سازیم	-8866
▁سریعا	-8867
▁سندیک	-8868
▁ششمین	-8869
▁شلوار	-8870
▁پوشان	-8871
▁بازنده	-8872
▁مطابقت	-8873
▁موگادی	-8874
▁ویرجین	-8875
▁یکروزه	-8876
▁اروزگان	-8877
▁بتوانید	-8878
▁سؤالاتی	-8879
▁عصبانیت	-8880
▁ارمنستان	-8881
▁صادرکننده	-8882
اندی	-8883
▁170	-8884
▁جاپ	-8885
▁رنس	-8886
▁هات	-8887
▁گین	-8888
▁الاج	-8889
▁شاغل	-8890
▁نعیم	-8891
▁چوبی	-8892
▁مواقع	-8893
▁وخامت	-8894
▁گمراه	-8895
▁بیانات	-8896
▁ماشینی	-8897
▁مردانی	-8898
▁کاترین	-8899
▁کاربردی	-8900
▁آمبولانس	-8901
▁دیوارهای	-8902
▁صهیونیستی	-8903
▁کورپوریشن	-8904
سس	-8905
▁_	-8906
تاج	-8907
شنه	-8908
فری	-8909
پزی	-8910
▁زح	-8911
کسون	-8912
▁TED	-8913
▁طیف	-8914
▁مدد	-8915
▁نگذ	-8916
▁تانز	-8917
▁مبدل	-8918
▁مشاج	-8919
▁منات	-8920
▁ولید	-8921
▁چاقو	-8922
▁یانگ	-8923
▁آشفته	-8924
▁اجبار	-8925
▁رابین	-8926
▁سرگرد	-8927
▁کودتا	-8928
▁حقیقتا	-8929
▁دزدیده	-8930
▁ژنتیکی	-8931
▁کودتای	-8932
▁ترکستان	-8933
▁ساختاری	-8934
▁سارکوزی	-8935
احب	-8936
صود	-8937
پات	-8938
▁St	-8939
▁فج	-8940
▁ستم	-8941
▁ظفر	-8942
▁آویو	-8943
▁حمزه	-8944
▁سینگ	-8945
▁ضایع	-8946
▁محسن	-8947
▁معبد	-8948
▁نظمی	-8949
ادلانه	-8950
▁ابداع	-8951
▁تانکر	-8952
▁درونی	-8953
▁شماست	-8954
▁ملکند	-8955
▁تنباکو	-8956
▁شیرینی	-8957
▁مونتاژ	-8958
▁بپیوندد	-8959
▁خوشحالم	-8960
▁استثنایی	-8961
▁بکارگیری	-8962
▁پتروشیمی	-8963
em	-8964
ra	-8965
ابعی	-8966
امیر	-8967
ربری	-8968
▁صدی	-8969
▁ادای	-8970
▁فیفا	-8971
▁متون	-8972
▁وهله	-8973
▁کوره	-8974
▁مشهود	-8975
▁نکردن	-8976
▁بافندگی	-8977
▁استانبول	-8978
▁ویراستار	-8979
▁یادداشتی	-8980
li	-8981
▁}	-8982
یزا	-8983
خاری	-8984
نمود	-8985
▁ترو	-8986
▁مفت	-8987
یترال	-8988
▁آلای	-8989
▁باطل	-8990
▁بوکس	-8991
▁دوام	-8992
▁شهاب	-8993
▁قرات	-8994
▁کیسی	-8995
▁اسرار	-8996
▁توانی	-8997
▁قاعده	-8998
▁نگرفت	-8999
▁کرایه	-9000
▁گیاهی	-9001
▁رایزنی	-9002
▁مسیحیت	-9003
▁تصاویری	-9004
ظی	-9005
▁{	-9006
کود	-9007
▁In	-9008
▁پد	-9009
بتوف	-9010
▁ابن	-9011
▁بها	-9012
▁قمر	-9013
▁معا	-9014
▁بستر	-9015
▁شفیق	-9016
▁نبیل	-9017
▁اجزای	-9018
▁احضار	-9019
▁بازان	-9020
▁ببریم	-9021
▁تالار	-9022
▁جابجا	-9023
▁ذینفع	-9024
▁فروخت	-9025
▁لزوما	-9026
▁مرتبه	-9027
▁انحراف	-9028
▁پیشینه	-9029
▁تمهیدات	-9030
▁سوزاندن	-9031
▁مدافعان	-9032
▁ناامیدی	-9033
▁درمانگاه	-9034
▁مسافربری	-9035
▁موگادیشو	-9036
▁روستاییان	-9037
▁واردکنندگان	-9038
RA	-9039
▁00	-9040
▁جاد	-9041
▁میه	-9042
انداز	-9043
▁تصدی	-9044
▁اماکن	-9045
▁بازمی	-9046
▁قفقاز	-9047
▁ناچیز	-9048
▁رآکتور	-9049
▁سرازیر	-9050
▁عبدالح	-9051
▁نباشند	-9052
▁نهادها	-9053
▁نیامده	-9054
▁پسرانه	-9055
▁الاخبار	-9056
▁سلاحهای	-9057
▁مالاکند	-9058
مح	-9059
خیل	-9060
▁په	-9061
امیک	-9062
▁تلخ	-9063
▁حذب	-9064
▁فیض	-9065
▁پله	-9066
▁یعق	-9067
ستگان	-9068
▁امیل	-9069
▁اوور	-9070
▁جسمی	-9071
▁استار	-9072
▁الیاف	-9073
▁تبعیت	-9074
▁برادری	-9075
▁سمرقند	-9076
▁پیراهن	-9077
▁200,000	-9078
▁اختیاری	-9079
▁دریافتی	-9080
▁سلطانوف	-9081
▁پیچیدگی	-9082
المه	-9083
▁حتا	-9084
▁نحو	-9085
▁وان	-9086
▁وسو	-9087
▁ژاک	-9088
▁بخار	-9089
▁تخطی	-9090
▁شوکه	-9091
▁عازم	-9092
▁مدود	-9093
▁ناسا	-9094
▁آفرین	-9095
▁برهان	-9096
▁بروکس	-9097
▁جالبی	-9098
▁شیطان	-9099
▁عمیقا	-9100
▁تهاجمی	-9101
▁نتوانند	-9102
▁نگهداشت	-9103
▁ابتکارات	-9104
▁نوازندگان	-9105
40	-9106
▁k	-9107
eal	-9108
غور	-9109
نوف	-9110
گبو	-9111
▁UN	-9112
ارند	-9113
لاسی	-9114
وابی	-9115
▁شیل	-9116
▁گله	-9117
▁1500	-9118
▁سلفی	-9119
▁سنتر	-9120
▁لطمه	-9121
ولوژیک	-9122
▁تصاحب	-9123
▁تعویض	-9124
▁جنگوی	-9125
▁سهراب	-9126
▁شهزاد	-9127
▁متأثر	-9128
▁نارین	-9129
▁بلاعوض	-9130
▁رنسانس	-9131
▁منابعی	-9132
▁داروسازی	-9133
▁پاراچنار	-9134
▁ضدتروریسم	-9135
نط	-9136
▁92	-9137
رسون	-9138
مدان	-9139
▁حفر	-9140
▁زدم	-9141
▁فاک	-9142
▁هشی	-9143
▁بعید	-9144
▁درآن	-9145
▁موان	-9146
▁مینا	-9147
▁یمنی	-9148
▁اشرار	-9149
▁تجارب	-9150
▁فرنگی	-9151
▁نهاده	-9152
▁پاهای	-9153
▁سیزدهم	-9154
▁شناختی	-9155
▁لهستان	-9156
▁مکالمه	-9157
▁ناکامی	-9158
▁پیشگام	-9159
▁استانداری	-9160
▁بازگرداند	-9161
▁تولیدکننده	-9162
زده	-9163
شام	-9164
شوی	-9165
یبت	-9166
استر	-9167
زامی	-9168
وقوع	-9169
▁احت	-9170
▁اوپ	-9171
▁بیز	-9172
▁عجی	-9173
▁قلی	-9174
زیستی	-9175
▁ازوز	-9176
▁اشعه	-9177
▁بایر	-9178
▁بدنه	-9179
▁جرمی	-9180
▁زابل	-9181
▁عاقل	-9182
▁نظیف	-9183
▁هموط	-9184
▁یدکی	-9185
گزاران	-9186
▁آلزای	-9187
▁اسکیت	-9188
▁ایگور	-9189
▁سیدنی	-9190
▁مسلما	-9191
▁مکررا	-9192
▁پارتی	-9193
▁بمنظور	-9194
▁متوسطه	-9195
▁گرداند	-9196
▁لباسهای	-9197
▁نگهبانی	-9198
▁هنگامیکه	-9199
▁سرزمینهای	-9200
اخان	-9201
▁اعض	-9202
▁الص	-9203
▁نشر	-9204
▁هور	-9205
▁واژ	-9206
▁گول	-9207
ونیوز	-9208
▁ببند	-9209
▁جناب	-9210
▁مانی	-9211
▁ندهد	-9212
▁ازاین	-9213
▁دانیل	-9214
▁مسافت	-9215
▁مغلوب	-9216
▁اصلاحی	-9217
▁جویانی	-9218
▁عملکرد	-9219
▁سردرگمی	-9220
▁اختلالات	-9221
▁زودهنگام	-9222
▁بالگردهای	-9223
ضت	-9224
▁زب	-9225
▁چو	-9226
▁220	-9227
▁داب	-9228
▁همت	-9229
▁چوک	-9230
▁کوز	-9231
اهدات	-9232
▁بیاد	-9233
▁تبعه	-9234
▁مهیا	-9235
▁امیدی	-9236
▁ببرید	-9237
▁بدنام	-9238
▁سالار	-9239
▁متخلف	-9240
▁هیاتی	-9241
▁طرحهای	-9242
▁نمودار	-9243
▁همسران	-9244
▁فداکاری	-9245
▁محرومیت	-9246
▁میتوانم	-9247
▁میلیونها	-9248
▁ربایندگان	-9249
FA	-9250
دو	-9251
طع	-9252
شیف	-9253
▁-3	-9254
▁ذرت	-9255
▁مدی	-9256
▁ملخ	-9257
▁ودر	-9258
▁پهن	-9259
▁اخاذ	-9260
▁اکمل	-9261
▁رانی	-9262
▁زانو	-9263
▁سوئی	-9264
▁فائو	-9265
▁فواد	-9266
▁لوای	-9267
▁گشتی	-9268
▁بخوبی	-9269
▁خصومت	-9270
▁میداد	-9271
▁نکنیم	-9272
▁ادوارد	-9273
▁گرمایش	-9274
▁رادیکال	-9275
▁مغولستان	-9276
پت	-9277
مور	-9278
وئل	-9279
باسی	-9280
تقال	-9281
▁DNA	-9282
▁آنی	-9283
▁خوک	-9284
▁زره	-9285
▁سات	-9286
▁پور	-9287
▁کسر	-9288
ریایی	-9289
▁استف	-9290
▁رنجر	-9291
▁فهیم	-9292
▁متلا	-9293
▁وینر	-9294
▁کیفی	-9295
▁یهود	-9296
▁تایید	-9297
▁عفونت	-9298
▁لحظات	-9299
▁هفدهم	-9300
▁انعقاد	-9301
▁درخشان	-9302
▁تانزانیا	-9303
▁سختگیرانه	-9304
▁بازداشتگاه	-9305
PL	-9306
ابا	-9307
پولی	-9308
▁بوم	-9309
▁فرن	-9310
▁مرس	-9311
▁چچن	-9312
یترین	-9313
▁1981	-9314
▁سنای	-9315
▁غیبت	-9316
▁لابی	-9317
▁تعدیل	-9318
▁ریانو	-9319
▁نمیکن	-9320
▁یعقوب	-9321
▁اعزامی	-9322
▁باروری	-9323
▁بسازند	-9324
▁بیابان	-9325
▁دوردست	-9326
▁عبدالغ	-9327
▁نصرالله	-9328
▁نامگذاری	-9329
16	-9330
29	-9331
80	-9332
روبی	-9333
▁اسح	-9334
▁اسل	-9335
▁الک	-9336
▁برا	-9337
▁سرن	-9338
▁معج	-9339
▁ویس	-9340
▁1950	-9341
▁امشب	-9342
▁انان	-9343
▁تمیر	-9344
▁خلال	-9345
▁مغرب	-9346
▁هدفش	-9347
▁امریک	-9348
▁بوسنی	-9349
▁فیلمی	-9350
▁راههای	-9351
▁معاینه	-9352
▁موانعی	-9353
▁ندادند	-9354
▁گشتزنی	-9355
▁بخوانند	-9356
▁تراکتور	-9357
▁محاسبات	-9358
▁دیکتاتور	-9359
حیی	-9360
نشی	-9361
ویف	-9362
▁کج	-9363
▁دلا	-9364
▁عزت	-9365
▁لکه	-9366
▁واد	-9367
▁کرک	-9368
▁گلی	-9369
▁مزمن	-9370
▁مقیم	-9371
▁میله	-9372
▁4,000	-9373
▁سلطنت	-9374
▁کاشته	-9375
▁اختلاس	-9376
▁موجودات	-9377
▁بازمانده	-9378
اته	-9379
سوف	-9380
نند	-9381
طرفه	-9382
گروه	-9383
▁ارو	-9384
▁بلی	-9385
▁بنو	-9386
▁زنم	-9387
▁صید	-9388
▁عزل	-9389
▁قره	-9390
▁قوت	-9391
▁ناع	-9392
▁1988	-9393
▁درام	-9394
▁مکمل	-9395
▁استیو	-9396
▁ترانس	-9397
▁تمایز	-9398
▁زنانه	-9399
▁سرشار	-9400
▁طبقات	-9401
▁لغمان	-9402
▁مانعی	-9403
▁محافل	-9404
▁مرخصی	-9405
▁معکوس	-9406
▁منفعت	-9407
▁ناخوش	-9408
▁پکتیا	-9409
▁بورسیه	-9410
▁میگیرد	-9411
▁چیترال	-9412
▁مالاریا	-9413
▁سپاسگزار	-9414
▁مادربزرگ	-9415
▁روستائیان	-9416
▁سوسیالیست	-9417
رال	-9418
ادور	-9419
وبیل	-9420
▁دما	-9421
▁شنی	-9422
▁لمس	-9423
▁خارق	-9424
▁نمید	-9425
▁آپارت	-9426
▁اخاذی	-9427
▁بدبخت	-9428
▁تسویه	-9429
▁تاجیکی	-9430
▁کورمان	-9431
▁خواستیم	-9432
▁نپذیرفت	-9433
▁سازندگان	-9434
▁نمایشگاهی	-9435
▁کارآفرینی	-9436
▁com	-9437
▁ختم	-9438
▁پنه	-9439
جمعیت	-9440
▁اوتی	-9441
▁خوشم	-9442
▁فایق	-9443
▁موجی	-9444
▁الاسد	-9445
▁امواج	-9446
▁مغایر	-9447
▁داوران	-9448
▁متقاضی	-9449
▁مقدمات	-9450
▁امتحانات	-9451
چا	-9452
رزی	-9453
فیع	-9454
ژان	-9455
▁الر	-9456
▁امی	-9457
▁تفک	-9458
▁رجب	-9459
▁شکم	-9460
▁چوی	-9461
▁گوت	-9462
الیسم	-9463
باشند	-9464
▁آمدم	-9465
▁تلفی	-9466
▁تملک	-9467
▁صلحی	-9468
▁مولد	-9469
▁نامط	-9470
نکردنی	-9471
▁الماس	-9472
▁تشریف	-9473
▁حسینی	-9474
▁شاهین	-9475
▁فلزات	-9476
▁موسوی	-9477
▁نامند	-9478
▁ابریشم	-9479
▁بدانیم	-9480
▁عدالتی	-9481
▁مصونیت	-9482
▁موازنه	-9483
▁پژوهشی	-9484
▁آتیرائو	-9485
▁مراقبتهای	-9486
▁باورنکردنی	-9487
فیلد	-9488
نجان	-9489
کردن	-9490
▁الغ	-9491
▁شرو	-9492
▁متض	-9493
▁پرش	-9494
▁شاتل	-9495
▁واری	-9496
▁یحیی	-9497
مندانه	-9498
▁جنسیت	-9499
▁سوخته	-9500
▁معقول	-9501
▁منسجم	-9502
▁همسرم	-9503
▁آویزان	-9504
▁اقتدار	-9505
▁الشریف	-9506
▁بانوان	-9507
▁صرفنظر	-9508
▁اندازند	-9509
▁پاسپورت	-9510
▁کارولین	-9511
▁اجتماعات	-9512
▁التحصیلی	-9513
▁براندازی	-9514
▁ناعادلانه	-9515
ag	-9516
ri	-9517
شف	-9518
---	-9519
لزل	-9520
▁BBC	-9521
▁آنا	-9522
▁شعی	-9523
▁1948	-9524
▁خدای	-9525
▁مختل	-9526
▁مهدی	-9527
ابراتی	-9528
ندگانی	-9529
وماتوف	-9530
▁6,000	-9531
▁آشپزی	-9532
▁اندام	-9533
▁تسخیر	-9534
▁دیویس	-9535
▁ساعتی	-9536
▁سوابی	-9537
▁لوئیس	-9538
▁مصیبت	-9539
▁چنینی	-9540
▁روبروی	-9541
▁ضایعات	-9542
▁بالاتری	-9543
▁سربازرس	-9544
▁اتهاماتی	-9545
▁اندازهای	-9546
▁مخابراتی	-9547
▁عبدالرحیم	-9548
منط	-9549
وبا	-9550
جاوز	-9551
وانا	-9552
▁---	-9553
▁بسط	-9554
▁بشه	-9555
▁فاط	-9556
▁هیئ	-9557
▁کنج	-9558
▁تندی	-9559
▁توهم	-9560
▁صافی	-9561
▁کلبه	-9562
▁افریق	-9563
▁الکلی	-9564
▁حرارت	-9565
▁روئیت	-9566
▁لیاقت	-9567
▁نمایی	-9568
▁پروسه	-9569
▁کشنده	-9570
▁گوهای	-9571
▁اینچنین	-9572
▁پیشرفتی	-9573
▁گناهکار	-9574
▁بیاندازد	-9575
▁بینندگان	-9576
▁تظاهراتی	-9577
▁خوشبختانه	-9578
▁زیردریایی	-9579
ot	-9580
وسا	-9581
▁سا	-9582
▁لج	-9583
▁توئ	-9584
▁پین	-9585
▁5000	-9586
▁تیتر	-9587
▁دفعه	-9588
▁زحمت	-9589
▁سوگو	-9590
▁شکوه	-9591
▁متصد	-9592
بیانیه	-9593
▁اسارت	-9594
▁جنازه	-9595
▁میزگرد	-9596
▁نشانده	-9597
▁پرتقال	-9598
▁خارجیان	-9599
▁روئیترز	-9600
▁استاندار	-9601
▁تماشاچیان	-9602
ندر	-9603
وکو	-9604
یکس	-9605
▁ژئ	-9606
فران	-9607
وسکی	-9608
▁ایز	-9609
▁لبه	-9610
▁هوی	-9611
▁1982	-9612
▁البر	-9613
▁تحرک	-9614
▁تخته	-9615
▁نابر	-9616
▁کتبی	-9617
▁گیتس	-9618
▁اوهای	-9619
▁تفرقه	-9620
▁اسکناس	-9621
▁قلمروی	-9622
▁مشتزنی	-9623
▁کامران	-9624
▁درآوردن	-9625
▁دشوارتر	-9626
▁ماسیموف	-9627
▁انتشارات	-9628
99	-9629
EA	-9630
▁t	-9631
www	-9632
جاز	-9633
ستن	-9634
نیف	-9635
امان	-9636
ریفی	-9637
عاتی	-9638
لیکا	-9639
▁حول	-9640
ولتای	-9641
▁الاق	-9642
▁ببخش	-9643
▁فایل	-9644
▁پلاک	-9645
▁بودید	-9646
▁تطبیق	-9647
▁تومور	-9648
▁جکسون	-9649
▁رادار	-9650
▁فرمول	-9651
▁ملیتی	-9652
▁کارتر	-9653
▁انزجار	-9654
▁بپذیرد	-9655
▁شدیدتر	-9656
▁طراحان	-9657
▁ناراضی	-9658
▁نوشیدن	-9659
▁امتیازی	-9660
▁بزرگتری	-9661
▁شکوفایی	-9662
▁طرفداری	-9663
▁ماهیگیر	-9664
▁توانبخشی	-9665
▁مجارستان	-9666
▁ساختارهای	-9667
روا	-9668
▁th	-9669
▁رین	-9670
▁زرا	-9671
▁مجر	-9672
▁منا	-9673
▁مکه	-9674
برابر	-9675
▁ایوب	-9676
▁تخار	-9677
▁سعود	-9678
▁غیرع	-9679
▁قلند	-9680
▁متنی	-9681
▁ناهم	-9682
▁هاشم	-9683
▁وحید	-9684
▁کوهی	-9685
▁بدرفت	-9686
▁بستند	-9687
▁تنگری	-9688
▁عجیبی	-9689
▁مسخره	-9690
▁نشستن	-9691
▁نیکول	-9692
▁پیاپی	-9693
▁برعلیه	-9694
▁جاییکه	-9695
▁فنآوری	-9696
▁مباحثه	-9697
▁کانتین	-9698
▁دگرگونی	-9699
▁والدینش	-9700
▁پارکینگ	-9701
▁برانگیخت	-9702
▁حیدرآباد	-9703
▁امدادرسان	-9704
فیظ	-9705
▁IM	-9706
▁چل	-9707
ورند	-9708
▁ریال	-9709
▁ساتی	-9710
▁سرخک	-9711
▁سهیل	-9712
▁نهضت	-9713
▁گینه	-9714
اسلامی	-9715
▁اورال	-9716
▁ختلان	-9717
▁صدیقی	-9718
▁مترجم	-9719
▁عواملی	-9720
▁مرزبان	-9721
▁آلزایمر	-9722
▁ابتکاری	-9723
▁تصادفات	-9724
▁معلولان	-9725
▁کارگیری	-9726
▁گزارشاتی	-9727
▁فراخوانده	-9728
▁رویدادهایی	-9729
11	-9730
ul	-9731
▁h	-9732
est	-9733
▁زل	-9734
جاری	-9735
▁حسی	-9736
▁مجل	-9737
اسازی	-9738
▁تنزل	-9739
▁تنفر	-9740
▁عامه	-9741
▁منشی	-9742
▁بازگو	-9743
▁تفکیک	-9744
▁فروشد	-9745
▁کشاند	-9746
▁30,000	-9747
▁رادیوی	-9748
▁موجودی	-9749
▁300,000	-9750
▁تعمیرات	-9751
▁نیروگیری	-9752
▁برانگیخته	-9753
▁دیکتاتوری	-9754
▁روشنفکران	-9755
▁ریانووستی	-9756
▁پیشنهاداتی	-9757
st	-9758
ذی	-9759
ایب	-9760
یرو	-9761
یمن	-9762
ربچه	-9763
▁آکس	-9764
▁رول	-9765
▁لوب	-9766
▁1986	-9767
▁اونو	-9768
▁بافی	-9769
▁قبضه	-9770
▁لاله	-9771
▁متدا	-9772
▁مدام	-9773
▁خیرین	-9774
▁فجایع	-9775
▁محکمی	-9776
▁مشتمل	-9777
▁کاسته	-9778
▁النهار	-9779
▁انقراض	-9780
▁برادرم	-9781
▁لرزاند	-9782
▁نامشخص	-9783
▁پروانه	-9784
▁دوستانم	-9785
▁ملاقاتی	-9786
▁مهمانان	-9787
▁کردستان	-9788
IV	-9789
ess	-9790
دلار	-9791
فراز	-9792
مبیل	-9793
ودین	-9794
▁جاز	-9795
▁رمز	-9796
▁فطر	-9797
▁چاد	-9798
جانوف	-9799
کولوف	-9800
▁اسمش	-9801
▁بانی	-9802
▁بهمن	-9803
▁رقمی	-9804
▁قویا	-9805
▁لبنی	-9806
▁لطیف	-9807
▁موثر	-9808
▁باختر	-9809
▁یکسال	-9810
▁بدهکار	-9811
▁سوبسید	-9812
▁فاکتور	-9813
▁موریتانی	-9814
▁ابراهیموف	-9815
90	-9816
od	-9817
ردر	-9818
▁وص	-9819
اکان	-9820
چنکو	-9821
▁الط	-9822
▁مزد	-9823
▁مزه	-9824
▁هیج	-9825
▁ورق	-9826
وتیوب	-9827
▁1973	-9828
▁ابوظ	-9829
▁اندو	-9830
▁بارز	-9831
▁دیسک	-9832
▁ربطی	-9833
▁شویی	-9834
▁لنتا	-9835
▁بخورد	-9836
▁زیتون	-9837
▁سامان	-9838
▁مبتکر	-9839
▁پدران	-9840
▁ارکستر	-9841
▁دارنده	-9842
▁دلالان	-9843
▁متلاشی	-9844
▁مسئولی	-9845
▁پذیرای	-9846
▁چهارده	-9847
▁توپخانه	-9848
▁جهانگیر	-9849
▁خاکستری	-9850
▁پذیرایی	-9851
▁برآوردهای	-9852
13	-9853
پش	-9854
راد	-9855
نوا	-9856
ویر	-9857
▁یر	-9858
ذیری	-9859
▁	-9860
ا	-9861
ی	-9862
ر	-9863
د	-9864
ن	-9865
ه	-9866
و	-9867
م	-9868
ت	-9869
ب	-9870
س	-9871
ک	-9872
ل	-9873
ش	-9874
ز	-9875
ف	-9876
گ	-9877
ق	-9878
خ	-9879
ج	-9880
.	-9881
ع	-9882
ح	-9883
,	-9884
آ	-9885
پ	-9886
ط	-9887
ص	-9888
چ	-9889
"	-9890
0	-9891
غ	-9892
ض	-9893
1	-9894
ذ	-9895
ظ	-9896
2	-9897
ئ	-9898
-	-9899
:	-9900
ژ	-9901
ث	-9902
5	-9903
3	-9904
9	-9905
(	-9906
)	-9907
4	-9908
أ	-9909
8	-9910
7	-9911
6	-9912
/	-9913
?	-9914
a	-9915
e	-9916
;	-9917
ؤ	-9918
o	-9919
r	-9920
i	-9921
[	-9922
]	-9923
n	-9924
t	-9925
C	-9926
A	-9927
N	-9928
s	-9929
%	-9930
l	-9931
S	-9932
E	-9933
B	-9934
c	-9935
u	-9936
m	-9937
M	-9938
h	-9939
P	-9940
d	-9941
I	-9942
!	-9943
D	-9944
T	-9945
g	-9946
F	-9947
L	-9948
k	-9949
R	-9950
G	-9951
w	-9952
y	-9953
p	-9954
b	-9955
O	-9956
H	-9957
*	-9958
f	-9959
z	-9960
U	-9961
W	-9962
K	-9963
v	-9964
V	-9965
_	-9966
J	-9967
'	-9968
Z	-9969
x	-9970
&	-9971
j	-9972
Y	-9973
q	-9974
Q	-9975
}	-9976
{	-9977
+	-9978
X	-9979
=	-9980
$	-9981
@	-9982
|	-9983
>	-9984
<	-9985
`	-9986
~	-9987
°	-9988
£	-9989
#	-9990
\	-9991
^	-9992
з	-9993
±	-9994
Г	-9995
Ц	-9996
