[CLS] 1340000
[SEP] 1340000
. 1181288
, 1173223
the 723684
در 566759
و 481315
##ی 441556
به 411359
" 394985
of 386050
که 368892
to 339876
از 331705
and 325850
in 296914
- 294690
م 286932
را 277547
##ه 269652
این 242466
است 231154
a 218869
##s 177295
ا 173475
ن 170210
با 160739
##د 158762
##م 149064
' 147974
##ان 142768
that 137017
برای 120469
##ت 118206
ت 117536
یک 117009
for 112609
is 108521
بر 107076
خ 103833
The 101506
s 100513
##ات 99759
تا 99546
##ا 99187
##های 96139
می 94692
های 94266
##ن 93701
said 93088
: 92286
گفت 90696
ب 89006
( 88290
) 84309
ق 84080
##ش 83277
او 82989
on 82776
آن 82191
##ها 82173
##ند 81869
آ 81447
گ 79714
ف 79690
س 77060
ر 74351
ما 72443
ش 71568
with 70145
کرد 69194
##ف 66775
##ر 65589
##وا 63996
شده 61588
خود 60515
are 60459
by 59965
##س 59892
was 59401
ی 59097
من 59087
بود 58637
##ک 58515
as 58457
ک 57667
it 56964
be 56379
سال 55259
have 53868
from 52837
کار 52641
سر 52458
##ب 50612
##ing 50401
ص 50202
he 50056
آنها 49894
شد 49501
at 48787
##ستان 47747
ج 47146
I 46688
##ز 46504
##ای 46493
will 45627
ه 45274
##خ 45015
##می 44598
روز 44022
ع 43960
has 43840
##و 43283
ال 42897
##ق 42829
##ید 42646
##ین 42548
##ست 42145
هم 41623
دو 41591
an 41529
##ار 41297
not 40832
##ور 40695
ای 40664
##یم 40613
داد 40515
وی 40267
##d 39730
##ل 38818
کشور 38262
تو 37377
ز 37165
this 36368
##ح 36174
##یی 36044
##یت 36012
پ 35933
دست 35787
their 35493
##را 35173
گزارش 34946
کرده 34904
##y 34722
##ed 34525
##ده 33816
/ 33622
ح 32724
بی 32525
? 32505
which 32496
پیش 32398
مورد 32338
خواهد 32335
د 32172
his 32059
were 31877
هر 31819
اما 31796
##گ 31620
ان 31425
دولت 31386
یا 31381
they 31134
چ 30670
##زه 30600
##ون 30404
قرار 30113
##کن 30087
##ذا 29706
##ری 29643
تر 29593
##تی 29386
who 28906
مصر 28834
دارد 28736
باز 28691
کنند 28481
مع 28469
we 28295
##یس 28189
##گاه 27786
رئیس 27780
پاکستان 27243
هستند 27143
##ال 27141
میکند 27069
its 26888
سازمان 26756
##سی 26753
شرکت 26690
پر 26683
دیگر 26661
##ام 26566
##ع 26540
##بار 26489
##به 26463
##یه 26307
or 26230
حال 26152
##جی 26117
##زا 26085
government 26069
you 26041
would 25611
##مای 25589
1 25493
##یز 25349
ماه 25291
##اک 25181
##نی 24985
ام 24963
had 24912
کا 24820
پس 24779
but 24745
میان 24675
##سا 24488
been 24379
##کستان 24349
##انی 24263
پل 24120
##در 23970
پا 23688
people 23600
out 23583
##کر 23571
about 23548
##یر 23408
##دی 23398
##تر 23394
پی 23320
##مان 23298
all 23283
one 22820
##ط 22799
میشود 22763
سو 22676
##یل 22594
more 22583
also 22503
##ظ 22494
##یان 22443
up 22385
##اند 22375
کند 22366
##هن 22348
منطقه 22208
امنیت 22048
re 21879
; 21653
انجام 21599
##با 21341
##خت 21341
کردند 21329
رو 21319
##ly 21294
2 21202
میکنند 21193
##نا 21176
مردم 21164
##h 21146
##أ 21080
داده 21059
##وی 21043
##لا 21026
##مه 20669
نو 20614
##وری 20597
##کی 20553
نظر 20521
جو 20511
##رق 20483
تن 20463
##شن 20405
two 20307
وجود 20284
باید 20275
It 20212
He 20117
وزیر 20012
5 19986
##ران 19886
##n 19885
سی 19841
can 19815
reported 19752
افزایش 19639
نیز 19528
دلار 19518
روی 19465
year 19383
شهر 19322
##پ 19318
سه 19253
000 19215
Al 19173
##نگ 19116
other 19076
A 19027
% 18992
them 18984
In 18798
##شت 18714
میلیون 18711
##چ 18650
##i 18638
##گو 18520
##گی 18253
کمک 18034
##rg 17952
3 17904
اس 17883
##انه 17872
توسط 17867
than 17835
##z 17632
افغانستان 17536
##وند 17502
##ص 17479
##رز 17443
t 17427
ها 17284
##من 17220
##تو 17133
کو 17118
غ 17026
##t 17014
after 16974
_ 16928
راه 16871
بین 16733
همه 16622
##کو 16592
country 16572
##زو 16558
مقام 16545
there 16437
داشت 16428
ملی 16417
##اح 16405
##قی 16405
شود 16324
##اری 16297
اند 16230
بیش 16154
اینکه 16126
ده 16107
یکی 16013
گروه 15996
new 15975
نام 15927
##ضا 15844
some 15829
over 15795
10 15778
Ky 15764
##اس 15717
ل 15708
Taj 15604
##لس 15519
$ 15500
##فی 15483
##سان 15448
نه 15344
##r 15330
بانک 15317
##گان 15306
##گر 15271
##فر 15188
دار 15162
police 15152
[ 15150
] 15106
عنوان 15092
##اب 15050
گذشته 15036
بوده 14965
4 14956
بخش 14914
##e 14890
برنامه 14841
جدید 14834
باشد 14769
##اش 14760
##کا 14752
کل 14701
so 14667
دارند 14617
غیر 14595
همچنین 14563
We 14541
گفته 14458
years 14445
اعلام 14438
هیچ 14433
Pakistan 14432
first 14417
کردن 14416
ex 14415
طالب 14410
##رد 14405
##فت 14373
##تا 14355
بودند 14324
against 14315
##دا 14184
شما 14170
آمریکا 14160
##وف 14148
##زی 14132
##قا 14128
##ج 14115
داشته 14112
بار 14062
when 14011
Egyptian 13885
no 13881
time 13846
نمود 13817
##اد 13748
##کت 13657
نشان 13655
##جار 13631
میباشد 13596
##پی 13557
##وز 13528
تنها 13513
##داد 13511
اگر 13505
خبر 13482
نیست 13479
افراد 13471
##ستی 13461
##داشت 13445
our 13427
security 13393
##es 13340
آسیا 13321
##گیری 13312
نفر 13304
نیروهای 13295
استفاده 13272
##لی 13269
##کس 13198
into 13155
شدند 13138
##ادر 13121
دا 13076
بینالمللی 13074
And 13067
6 13010
what 12981
do 12970
between 12934
20 12921
کشته 12920
##ره 12848
##وش 12815
##جا 12734
درصد 12717
countries 12667
##گذاری 12664
##سته 12662
ایجاد 12653
##شک 12626
مه 12625
told 12589
K 12581
##بی 12542
مالی 12523
##یا 12511
only 12482
her 12407
[UNK] 12363
##کار 12325
##ما 12318
##آ 12303
##جر 12300
##گیر 12239
چه 12239
کردهاند 12201
شدهاند 12161
##گذار 12151
گرفته 12146
شدن 12136
7 12120
##شان 12100
such 12087
##ئول 12055
##دار 12048
##اتی 12034
##له 12030
she 12018
any 11991
~ 11988
million 11979
##یک 11974
توسعه 11953
##زین 11942
##اق 11901
Egypt 11891
##a 11861
حمله 11861
حزب 11845
##رب 11806
برد 11767
کم 11765
وزارت 11760
##فا 11758
during 11738
##وم 11735
8 11709
##بین 11707
##E 11703
صورت 11671
##پر 11656
##غ 11655
مواد 11648
استان 11635
last 11614
نیاز 11588
بو 11578
کی 11545
##جو 11538
But 11498
بیشتر 11471
##T 11465
اش 11454
جنگ 11437
کشورهای 11365
##رس 11361
طی 11338
Taliban 11313
##لو 11311
media 11270
##یو 11261
همکاری 11251
آموزش 11248
جن 11245
##یار 11238
S 11225
This 11219
##نده 11203
under 11194
Afghan 11188
##بر 11171
میدهد 11159
تم 11142
##S 11128
##یف 11112
نظامی 11107
واقع 11098
my 11088
لا 11087
##رو 11057
سیاسی 11023
دید 11022
##P 11003
##ث 10998
قانون 10988
##از 10975
جا 10975
زمان 10971
if 10948
کر 10940
##یب 10935
15 10928
اساس 10923
بسیار 10891
killed 10889
تلاش 10873
ساز 10840
میل 10839
##هایی 10806
##اه 10798
هفت 10788
##شی 10780
militants 10750
زندگی 10731
ترک 10712
those 10703
three 10652
because 10576
اروپا 10533
##هها 10521
##خن 10506
کاهش 10474
##قای 10467
##اور 10456
##ندگان 10434
##رت 10426
آغاز 10381
like 10379
جای 10377
میگوید 10374
##tan 10346
##چه 10337
me 10337
G 10323
##ود 10319
now 10300
بعد 10300
They 10262
##نون 10259
##l 10249
##وار 10210
Minister 10206
could 10191
برخی 10191
11 10166
30 10146
##لح 10142
چند 10121
تولید 10120
لی 10110
##مو 10107
9 10107
##A 10102
##bek 10100
بزرگ 10097
##ژ 10088
President 10067
وارد 10058
اقدام 10041
##حر 10026
بیان 9997
بازار 9978
Afghanistan 9974
مدرسه 9965
آب 9952
ض 9951
these 9922
هدف 9913
تیم 9911
according 9886
گرفت 9883
##جه 9879
##دان 9876
حقوق 9864
12 9848
Kazakhstan 9821
con 9818
##ng 9810
##گران 9758
##ول 9731
should 9725
world 9714
دولتی 9683
Central 9680
آر 9651
billion 9630
رسید 9594
##هب 9568
حدود 9559
اسرائیل 9547
him 9518
##er 9495
Arab 9478
m 9475
##stan 9471
حمایت 9464
تحت 9454
جهانی 9440
W 9411
##دن 9373
added 9364
##ایی 9362
مشکل 9352
com 9351
##ar 9330
##شا 9322
اقتصادی 9301
##v 9298
political 9296
دانش 9293
##ض 9279
many 9241
انتخابات 9234
##هی 9190
work 9182
ساخت 9182
through 9162
##بود 9151
##iki 9149
دی 9143
قبل 9126
پروژه 9114
خانه 9099
مل 9099
##وه 9080
international 9065
چنین 9064
عملیات 9047
اب 9042
##خیر 9034
##سم 9030
officials 9028
just 9023
where 9015
خان 8965
most 8951
US 8937
اتحاد 8933
##H 8929
##گه 8909
دلیل 8898
امر 8884
اطلاعات 8880
خارج 8849
##عت 8847
forces 8836
پنج 8820
زمانی 8789
number 8776
##قر 8736
حمل 8734
##K 8730
##k 8729
چهار 8716
##سل 8682
تغییر 8676
##ینده 8658
state 8642
##یلی 8629
زنان 8622
##که 8618
well 8612
##نان 8590
سوی 8577
##رزش 8570
being 8555
عراق 8550
ممکن 8544
##پا 8536
خارجی 8530
تصمیم 8525
##شد 8474
c 8474
##m 8473
اداره 8440
##ers 8433
حالی 8431
ادامه 8420
سن 8383
تک 8373
اسلام 8358
##کرد 8314
law 8293
Asia 8289
##ههای 8281
کمیته 8279
children 8274
طرح 8270
##بل 8243
##خواست 8197
including 8178
##ظار 8177
ملل 8166
میتوان 8165
day 8160
##تان 8153
U 8153
بسیاری 8151
take 8148
علیه 8141
##zs 8131
##وب 8128
##ov 8120
while 8109
مرکز 8048
پایان 8047
un 8045
توجه 8040
##وان 8019
25 8001
اسلامی 8001
made 7993
طرف 7991
جهت 7990
دادند 7985
زمینه 7985
##ذ 7966
##ژی 7962
export 7899
عمومی 7892
##اج 7886
##R 7885
##ik 7878
de 7874
then 7854
طول 7854
ارائه 7852
اصل 7844
زن 7832
کامل 7822
women 7807
##بیل 7790
##یبا 7784
میشوند 7742
جوان 7735
get 7714
##مار 7684
us 7667
before 7661
ساله 7659
public 7654
say 7648
##ty 7644
part 7632
مهم 7632
گل 7612
اول 7603
war 7602
محمد 7597
عرب 7588
peace 7565
خانواده 7564
جهان 7557
آورد 7539
##هد 7533
خاطر 7528
شامل 7528
##مند 7524
##نو 7503
طریق 7493
14 7486
میتواند 7484
##هار 7482
جمهوری 7479
موضوع 7462
foreign 7457
##وس 7453
al 7452
عمل 7444
##خم 7440
##تن 7432
شاه 7422
آزاد 7421
American 7416
همان 7414
your 7405
پول 7395
کلی 7390
Ministry 7388
آل 7384
help 7374
طور 7367
یافت 7358
پیدا 7357
##داری 7354
how 7354
##انس 7351
may 7343
very 7341
برابر 7336
جمع 7333
تل 7332
##رسی 7330
##عی 7326
make 7319
military 7316
ارتش 7309
##مور 7279
مرد 7277
دور 7272
بدون 7267
##نید 7266
2001 7263
area 7263
##ذیر 7262
زیر 7253
18 7235
##دهی 7208
##گرد 7199
##شید 7189
کمی 7184
##خانه 7176
چیزی 7171
تمام 7168
جان 7125
##رخ 7123
##اط 7118
##ورش 7106
down 7100
محلی 7099
##اع 7089
! 7071
بل 7051
##men 7040
##دو 7039
Ka 7038
آباد 7036
Pakistani 7031
CNN 7025
دریافت 7017
اعضای 7015
##یست 6997
تعداد 6989
##اخ 6980
national 6978
##تل 6970
هنوز 6964
##اف 6961
پرداخت 6961
عضو 6946
##نش 6932
says 6924
2010 6917
##طا 6916
economic 6909
##ماد 6888
17 6866
زیادی 6856
president 6855
since 6852
بن 6851
میدان 6840
مانند 6839
روزنامه 6829
حد 6827
members 6782
متحده 6771
16 6769
میکرد 6767
##دید 6763
group 6753
باعث 6712
منابع 6711
هوا 6698
need 6695
##غان 6689
way 6680
##حت 6662
دهد 6661
So 6659
even 6658
##O 6656
##رگ 6656
co 6653
National 6652
did 6650
ناحیه 6638
##رمان 6636
2009 6636
زمین 6635
13 6631
نخست 6631
تأمین 6625
##وع 6603
سیستم 6601
سیاست 6597
##اهر 6593
24 6593
ارتباط 6583
اشاره 6583
اجرای 6582
سابق 6578
##ting 6573
امور 6573
سوم 6549
##D 6548
وضعیت 6541
حتی 6528
کنترل 6527
نقل 6526
##yev 6503
##مر 6496
اصلی 6484
attack 6479
##اده 6474
##رام 6470
##یج 6466
جمله 6465
##ینی 6464
پیشنهاد 6454
##ونی 6438
قیمت 6434
end 6433
یاد 6429
border 6428
##هم 6421
مناطق 6420
دادن 6414
report 6407
##ازی 6406
100 6397
##شم 6389
همراه 6386
بررسی 6381
##افق 6380
نسبت 6375
support 6359
go 6350
##وت 6343
##عا 6336
called 6328
##رل 6317
local 6313
50 6312
think 6311
##گونه 6309
##رید 6290
back 6290
UN 6285
You 6285
There 6281
second 6281
دکتر 6275
مدیر 6273
##شتن 6269
##عد 6268
دوست 6268
News 6267
جامعه 6263
##یش 6262
##L 6261
##قه 6247
دانشگاه 6241
Mu 6239
##رم 6237
Palestinian 6228
##کش 6224
##سو 6221
وقتی 6211
علی 6198
four 6196
زندان 6192
##شین 6187
ژوئن 6174
یافته 6174
پشت 6162
##بن 6156
still 6134
کودکان 6129
نقش 6128
گا 6100
هزار 6096
##سر 6094
##صد 6087
high 6075
ویژه 6067
Israeli 6056
power 6048
مدت 6044
حاضر 6037
dis 6021
میزان 6020
بازی 6013
حل 6009
ط 6008
Islam 6003
شرایط 6002
شوند 5997
روسیه 5996
##نف 5994
know 5989
right 5986
اولین 5981
قدرت 5981
ایالات 5968
شورای 5965
باشند 5964
آزادی 5957
June 5952
##سه 5950
همین 5949
##زم 5936
companies 5921
water 5913
مجلس 5911
اکنون 5907
official 5902
##مین 5894
R 5890
ایس 5890
##حم 5886
##ونت 5884
As 5879
##دل 5874
##یری 5870
بیشتری 5869
خوب 5869
مخالف 5867
##تم 5864
##سن 5861
##باز 5855
ندارد 5846
دارای 5834
##دم 5819
##خواهد 5818
She 5816
مشترک 5813
school 5809
شروع 5798
##te 5796
##kh 5795
گرفتن 5788
دفتر 5777
مربوط 5770
##جد 5769
آنجا 5767
place 5764
19 5760
دوره 5759
نفت 5757
##لم 5751
چیز 5748
گاز 5748
##Y 5746
خط 5744
رفت 5744
same 5742
terrorist 5741
##وک 5734
آوریل 5733
long 5732
داخلی 5723
every 5711
ایران 5709
فروش 5709
see 5704
##بت 5700
May 5699
five 5688
##rs 5684
Islamic 5684
2008 5682
سپتامبر 5682
##کل 5679
authorities 5679
want 5669
##حی 5664
United 5662
##فق 5653
region 5652
فقط 5652
##رات 5651
آیا 5649
human 5648
دیگری 5647
تشکیل 5633
investment 5632
##al 5628
رسمی 5620
مرگ 5620
going 5607
meeting 5607
اوت 5604
##سانی 5603
##N 5598
operation 5597
areas 5594
##اسی 5591
ریاست 5591
اور 5590
22 5582
رد 5568
داخل 5558
B 5557
##سازی 5556
##ئی 5555
use 5555
Dr 5549
##مات 5545
انه 5543
حضور 5526
##I 5519
روش 5517
April 5514
##وست 5513
ایم 5511
مارس 5511
##بش 5509
##لب 5506
بشر 5506
##هیم 5489
Na 5479
July 5460
قابل 5458
جی 5456
former 5455
##فن 5454
##b 5439
another 5436
تجاری 5436
Sha 5435
##c 5434
##ment 5432
##f 5431
آف 5427
نتیجه 5417
ژانویه 5413
انتخاب 5409
اجتماعی 5406
market 5402
life 5401
##امی 5400
project 5395
much 5394
system 5366
آمریکایی 5361
trade 5352
city 5347
##نت 5345
میدهند 5345
دنبال 5342
##رفت 5338
##ضی 5335
E 5328
21 5324
statement 5323
Khan 5321
e 5314
##G 5313
set 5308
If 5302
March 5298
free 5298
ولی 5297
##اون 5295
ins 5265
طبق 5255
احتمال 5248
##خورد 5239
فرد 5235
کوچک 5227
D 5214
January 5208
کراچی 5203
40 5202
بالا 5201
##ستر 5193
home 5188
##ry 5185
development 5184
##فس 5178
rights 5178
##tion 5176
spoke 5174
زیرا 5174
##شده 5156
##یات 5149
موفق 5145
off 5143
September 5141
عالی 5140
among 5136
good 5132
فرانسه 5128
##ترین 5127
Uzbekistan 5122
head 5122
days 5119
##رک 5112
مختلف 5110
مذهبی 5108
ساعت 5107
عبد 5107
am 5103
##بو 5095
دختر 5094
pro 5091
23 5081
نمایش 5077
Online 5075
Uz 5075
##طور 5067
شکست 5054
لبنان 5051
نیو 5040
At 5034
next 5031
شب 5030
held 5025
det 5022
don 5019
old 5007
both 4997
##ارا 4990
فعال 4987
attacks 4985
سایر 4976
نزدیک 4966
##نج 4965
ژ 4947
##zak 4937
##زار 4927
28 4927
کنار 4927
company 4920
em 4914
خطر 4913
##نه 4911
##C 4910
2011 4908
##جب 4907
##ist 4905
Police 4900
کاری 4897
تأثیر 4893
men 4887
##زاری 4884
##AN 4882
##حبت 4872
کتاب 4872
قطع 4870
increase 4869
اکتبر 4867
لو 4866
Ra 4861
others 4860
come 4855
بحث 4847
دوم 4847
##رف 4846
خصوصی 4845
##چی 4840
several 4836
27 4831
سفر 4830
terrorism 4829
around 4828
family 4826
##istan 4825
##موز 4822
خدمات 4821
اجازه 4818
International 4816
Bank 4810
##انا 4809
information 4807
آنچه 4803
Iraq 4800
##ویت 4799
26 4798
بخشی 4797
چین 4797
حق 4783
##o 4777
office 4769
used 4768
##لاح 4762
##تاد 4761
took 4753
اثر 4735
ذ 4729
August 4721
##رار 4715
minister 4706
Za 4704
رشد 4699
##الی 4693
##بیر 4692
Israel 4692
Ma 4690
must 4690
situation 4685
اقتصاد 4685
##یشه 4682
منظور 4671
مرکزی 4670
##زن 4656
business 4648
##طب 4647
انرژی 4647
World 4646
سری 4644
##قاب 4635
باقی 4629
##رین 4628
شش 4626
تاریخ 4625
##تها 4624
##یابی 4616
بنا 4616
own 4610
per 4608
sh 4607
party 4600
تبدیل 4599
##بع 4598
Security 4596
روابط 4594
کسی 4593
##نامه 4591
Q 4587
دسامبر 4586
ث 4583
مکان 4581
##q 4576
religious 4573
found 4569
##ful 4567
##U 4566
leader 4558
پاسخ 4558
اتفاق 4556
past 4544
##آورد 4543
فوریه 4536
سوریه 4529
months 4524
##عه 4515
might 4514
مقابل 4505
##en 4502
here 4497
دل 4497
health 4493
money 4493
LE 4492
نوامبر 4492
پسر 4491
نیروی 4489
order 4488
متحد 4487
فن 4482
General 4481
Council 4478
جنوبی 4474
##رن 4471
منجر 4459
least 4457
دفاع 4457
gas 4454
came 4449
That 4448
State 4437
##at 4434
##مد 4434
جنوب 4427
##ted 4420
Ba 4418
plan 4417
On 4413
important 4413
##ایش 4410
قانونی 4407
داشتند 4406
won 4405
percent 4404
##اید 4396
##ایت 4394
week 4387
2007 4386
##ber 4383
##حل 4382
without 4379
put 4378
Agency 4358
groups 4358
* 4355
آمده 4353
man 4352
capital 4349
oil 4344
af 4343
درست 4342
Pe 4341
dollars 4336
ژوئیه 4335
میگویند 4333
each 4331
projects 4330
##هان 4326
working 4319
##لت 4314
##TA 4309
##طل 4307
چون 4306
What 4305
2002 4296
team 4292
دنیا 4287
##عهد 4286
different 4275
##تهم 4274
محدود 4274
##ایل 4273
##بد 4266
##sman 4259
##ER 4254
##زر 4248
آمد 4248
تحصیل 4246
میشد 4246
October 4240
##شار 4235
اجرا 4234
December 4230
##ماید 4228
احمد 4224
500 4223
##صت 4214
ضد 4213
سطح 4212
Ali 4211
دهه 4203
کسب 4200
arrested 4192
##خر 4184
الله 4176
##قاد 4175
29 4175
دستور 4175
مردان 4171
مناسب 4171
کشاورزی 4171
##طر 4168
im 4167
##او 4164
##خوان 4146
##B 4130
Sa 4130
States 4123
##لک 4119
میرسد 4116
few 4113
education 4102
رابطه 4099
February 4095
دیده 4094
نبود 4091
هند 4085
مادر 4083
##زان 4082
قتل 4081
##شته 4080
##ness 4076
لازم 4076
sp 4069
امکان 4067
pre 4055
case 4053
شبه 4052
##hs 4043
##ؤ 4042
##حساس 4037
news 4036
ثبت 4032
دان 4026
IN 4021
##گار 4018
عربی 4005
within 4003
نور 4003
leaders 3996
sector 3993
become 3992
##ts 3989
##زد 3989
does 3987
ساختمان 3981
منتشر 3981
##ساند 3979
فعالیت 3978
##on 3974
For 3964
##تون 3963
District 3962
students 3960
chief 3959
extrem 3959
##shaw 3958
##ورا 3957
##hy 3952
##ذر 3948
##ht 3945
en 3943
##ev 3942
سنگ 3942
too 3936
مار 3935
رخ 3933
چندین 3933
November 3931
agreement 3930
especially 3926
##ئو 3925
محل 3923
press 3922
جمعیت 3921
based 3918
schools 3914
suicide 3912
##ویی 3911
درمان 3905
یعنی 3893
real 3891
فعالیتهای 3890
##بس 3885
##in 3884
گونه 3884
hit 3881
Mo 3877
شبکه 3877
##وق 3872
killing 3872
exchange 3871
violence 3871
هو 3870
social 3869
bl 3867
بیرون 3864
##خصص 3856
South 3852
میرود 3851
##گری 3848
young 3840
درآمد 3840
hand 3831
st 3828
##ته 3826
آتش 3808
##zai 3806
##F 3805
رسیده 3801
recent 3800
نماینده 3798
##ity 3786
200 3779
ارشد 3777
بلکه 3777
##گا 3775
تحقیقات 3773
بنابراین 3772
Karachi 3768
##ities 3765
بند 3764
##ism 3761
##صر 3760
control 3759
##har 3750
Russian 3748
Committee 3746
##خل 3743
anti 3741
##بان 3739
تحریک 3737
##IS 3732
month 3728
six 3728
میتوانند 3723
adding 3721
left 3716
کام 3716
##RA 3713
شکل 3712
##تب 3710
ago 3708
operations 3699
IS 3698
##دها 3695
problems 3693
سخت 3688
2000 3686
ظ 3686
TO 3679
However 3678
ve 3677
##ظر 3676
asked 3673
ad 3672
member 3671
##برد 3670
##حافظ 3669
0 3662
far 3656
خودش 3656
near 3654
بیماری 3636
saying 3633
شدید 3631
announced 3628
private 3628
##گیرند 3623
started 3623
point 3621
future 3620
2012 3616
##قل 3614
فی 3612
According 3608
##رانی 3600
##است 3594
60 3586
قوانین 3583
visit 3579
##EN 3578
حرکت 3578
rate 3574
went 3573
##اسر 3572
banks 3572
decision 3567
general 3566
##نس 3559
Iran 3558
##fi 3557
مثل 3556
##p 3549
training 3549
already 3547
هوایی 3547
taken 3544
جاری 3539
##ion 3534
give 3531
##اض 3528
##be 3518
No 3517
##an 3515
صنعت 3513
period 3511
today 3504
##تواند 3499
Qaeda 3498
مدیریت 3497
عدم 3493
مسلمان 3491
محصولات 3490
##دت 3489
شمال 3489
bu 3488
New 3481
death 3480
سمت 3480
efforts 3478
pounds 3478
کمتر 3477
provide 3476
Foreign 3475
##man 3473
financial 3473
موجود 3471
China 3469
role 3468
issue 3463
expected 3461
اک 3454
##gh 3451
حفظ 3450
total 3448
مسائل 3447
P 3442
pointed 3441
جس 3441
change 3438
مشخص 3434
دره 3433
problem 3432
بازگشت 3432
زبان 3432
European 3421
##عو 3419
got 3419
never 3419
food 3417
وقت 3415
court 3412
car 3409
fl 3407
علاوه 3407
find 3402
##وعات 3398
sources 3395
parties 3394
بطور 3393
تصویب 3393
آبی 3392
ye 3391
##HA 3387
گردید 3386
موجب 3385
شمار 3384
Mr 3383
مصرف 3380
really 3376
conference 3373
kg 3371
حرف 3366
O 3364
elections 3357
drug 3356
##حال 3353
اساسی 3353
انتقال 3350
##فته 3349
##وال 3347
فیلم 3345
##ورد 3344
چشم 3339
##ؤسس 3337
##w 3331
Iraqi 3327
##ندی 3325
##لز 3324
میباشند 3321
main 3307
تعیین 3307
Saudi 3306
led 3306
##غال 3302
Party 3300
##واجه 3299
##ble 3298
##ce 3298
C 3295
دوباره 3278
اهمیت 3277
building 3275
##ریزی 3274
##شود 3268
T 3268
production 3267
مراسم 3266
energy 3261
parliament 3261
process 3260
موارد 3255
میکردند 3255
level 3246
رهبری 3246
حکم 3243
One 3234
possible 3231
##ge 3230
##ئ 3223
weapons 3223
due 3222
مطرح 3222
واحد 3218
خودرو 3215
##ادی 3211
##راض 3205
##این 3204
suspect 3203
##گاهی 3201
bank 3201
Libya 3199
##دای 3197
آنکه 3197
land 3196
صرف 3196
start 3194
##able 3193
##US 3189
study 3185
شمالی 3185
##اوی 3183
##SH 3177
able 3174
جدا 3174
until 3173
small 3170
recently 3168
making 3165
run 3159
ترتیب 3158
##بات 3156
injured 3151
##bay 3148
major 3146
Russia 3141
جلوگیری 3141
army 3140
hard 3139
عاد 3138
##ردن 3137
##ists 3134
مسابقه 3133
##مایی 3132
##مس 3131
things 3131
To 3128
means 3127
care 3125
نخستین 3124
##ies 3123
##بال 3122
little 3118
deal 3115
بسته 3115
Now 3113
##زند 3111
دیر 3111
##azi 3109
Turkmenistan 3108
سپس 3100
##or 3097
##وید 3097
##راق 3094
##اشی 3092
##قف 3092
##BA 3087
تحقیق 3086
قادر 3086
##اقل 3085
received 3082
##ive 3076
agencies 3075
اغلب 3072
##se 3070
large 3069
هنر 3069
2005 3068
##قت 3065
Turk 3065
current 3062
third 3059
opposition 3054
محیط 3051
##ged 3050
campaign 3050
When 3049
300 3047
prices 3044
society 3042
##g 3041
##th 3041
director 3041
پایین 3041
sub 3040
##خصوص 3039
Shah 3037
##Z 3034
Radio 3034
open 3034
face 3032
##سد 3031
ساخته 3031
Pak 3024
something 3024
##جات 3023
H 3018
away 3013
وب 3013
service 3012
An 3007
برنامههای 3005
N 3002
##قع 3000
فشار 2999
workers 2997
needs 2996
great 2992
گسترش 2987
بعنوان 2986
##ارت 2985
committee 2984
مسابقات 2984
better 2980
##راز 2979
include 2979
Ha 2977
following 2971
##ندوق 2970
بها 2970
activities 2968
half 2968
KA 2967
force 2966
##نک 2965
economy 2958
پزشکی 2958
##ur 2957
show 2956
مسیر 2956
##حه 2955
##هر 2954
Province 2953
taking 2950
70 2949
special 2948
##hwa 2947
##ساز 2947
troops 2945
##قرار 2941
AF 2937
Ga 2931
اعمال 2930
relations 2927
بودن 2927
##LA 2923
cooperation 2923
Europe 2921
Ta 2921
##امل 2920
##عب 2920
##کز 2917
coming 2908
##مندان 2905
2003 2905
election 2905
fire 2902
Ja 2900
نوع 2900
##CE 2893
trying 2892
##مل 2888
programme 2884
short 2884
##جاز 2882
کافی 2881
pay 2880
خوبی 2876
##ul 2870
app 2870
best 2870
cases 2870
##یون 2868
Some 2867
##نال 2862
انجمن 2862
اختیار 2859
##لان 2858
##M 2857
##صاص 2856
میگیرد 2856
ur 2855
KP 2852
##گن 2851
آنان 2851
##یند 2849
##یق 2846
policy 2845
##ri 2844
Oblast 2844
reports 2844
big 2843
جریان 2842
31 2841
cost 2840
issues 2839
University 2838
Lebanon 2837
citizens 2834
inter 2831
متر 2825
continue 2822
industry 2820
Prime 2818
community 2817
services 2817
##MA 2813
import 2812
##ES 2811
population 2811
top 2811
حوزه 2810
80 2809
whether 2807
طبیعی 2801
عمر 2797
joint 2796
##king 2793
measures 2792
سالهای 2792
##چار 2790
مستقل 2790
Ko 2788
house 2788
less 2787
##NB 2784
2006 2783
##فه 2779
##تری 2778
##شر 2777
ورود 2773
militant 2770
##رج 2769
Union 2768
Muslim 2766
agreed 2766
ab 2765
rep 2764
آخرین 2757
##wat 2756
fact 2754
##زاب 2750
کشف 2748
later 2746
After 2745
Asian 2744
اندازه 2740
why 2739
اضافه 2739
##قان 2736
dead 2736
return 2735
aid 2732
##واره 2729
Os 2729
bombing 2726
##پل 2723
خیابان 2722
Syria 2721
tribal 2720
##ya 2718
kind 2716
اسم 2715
بدن 2715
بیست 2712
##وشی 2711
again 2709
began 2709
##توقف 2701
##اقات 2697
play 2696
look 2695
##وله 2694
M 2693
##TI 2691
stop 2687
families 2683
دریا 2683
##نها 2681
##گون 2681
##دند 2680
present 2680
##تگاه 2677
##گل 2676
residents 2674
suspected 2674
بدست 2673
نامزد 2670
##gha 2663
live 2663
مرحله 2663
##خته 2661
believe 2661
plans 2657
نزدیکی 2657
clear 2656
side 2655
crisis 2654
##مول 2651
seven 2649
along 2648
کوه 2648
North 2645
youth 2644
district 2640
gu 2638
arrest 2637
outside 2637
مشابه 2635
##ندگی 2633
##فع 2630
تهیه 2628
early 2625
officers 2625
##urg 2621
##نز 2621
Ash 2617
across 2616
##j 2615
air 2611
bomb 2611
child 2610
خاص 2610
##u 2607
meet 2607
داشتن 2605
سعود 2605
پدر 2605
##حو 2604
debt 2603
فراهم 2601
##ha 2597
##سین 2597
sl 2597
budget 2596
##mo 2595
##علی 2594
source 2594
known 2593
Secretary 2591
field 2591
signed 2591
nuclear 2590
##ستانی 2584
بزرگترین 2584
##افع 2583
##WA 2582
##نع 2582
IM 2582
CA 2581
br 2581
All 2580
products 2578
res 2578
##دارد 2577
given 2575
PE 2571
Re 2570
bill 2569
lives 2569
##تاب 2567
non 2566
chairman 2564
fighting 2563
reform 2563
taj 2558
بهترین 2557
ژاپن 2556
##day 2554
تمامی 2553
discuss 2551
together 2549
call 2548
##باس 2547
lot 2547
عهده 2546
##IT 2545
##abad 2543
full 2540
##داران 2539
issued 2539
درس 2539
##ling 2538
##ra 2536
fight 2536
##ad 2535
ru 2534
died 2531
##ster 2529
##انو 2529
##ma 2528
anal 2527
interest 2527
pl 2527
protest 2527
##ST 2526
##بری 2525
Cairo 2523
construction 2519
شغل 2515
خون 2514
threat 2513
داستان 2512
##غا 2511
ترکیه 2511
##صوص 2508
though 2507
village 2507
times 2506
آمار 2504
East 2503
##نر 2502
موقعیت 2498
view 2497
حاکم 2496
action 2493
addition 2493
always 2493
##فات 2492
##less 2491
##re 2490
whose 2490
##یها 2489
senior 2489
rise 2485
Development 2480
##zh 2479
criminal 2473
##us 2472
##راح 2468
name 2467
روح 2464
خدا 2462
##han 2461
##sh 2459
decided 2457
regional 2456
##روس 2454
tax 2453
##تج 2452
demand 2452
طلا 2452
##راب 2449
hope 2447
late 2447
thing 2447
انسان 2447
##ic 2445
##ous 2441
##ئم 2439
##YP 2437
90 2436
body 2434
Department 2433
دسته 2433
اهل 2427
almost 2424
Du 2423
question 2421
##کاری 2420
further 2420
keep 2418
زیاد 2418
line 2417
35 2416
##افی 2413
pak 2412
ten 2410
Interior 2409
once 2408
F 2405
جرم 2404
post 2403
چار 2398
##unk 2395
##وح 2395
fear 2392
lack 2392
lost 2392
##ast 2389
These 2389
traffic 2388
##ncy 2387
##ned 2387
##غو 2386
2004 2385
however 2385
Obama 2382
light 2381
##اره 2379
بلند 2377
رفتار 2377
عشق 2377
##اظ 2376
##ne 2375
nation 2374
##عات 2373
conditions 2373
let 2372
counter 2371
talk 2371
strong 2370
RE 2367
ac 2367
ministry 2366
شدت 2366
درون 2364
involved 2363
province 2363
##ham 2360
victims 2360
##جم 2352
Be 2350
##ورو 2346
مقدار 2346
using 2345
##خبار 2344
##قدر 2344
##nce 2342
##nt 2340
AS 2340
یکدیگر 2340
##OR 2337
##ودی 2337
Fa 2336
پرواز 2336
وسیله 2335
تاکنون 2333
تعدادی 2332
phone 2331
value 2329
بریتانیا 2328
حساب 2327
##yst 2325
cannot 2325
course 2324
close 2319
central 2318
##ریا 2317
i 2316
فرهنگ 2316
##ION 2315
civil 2315
considered 2315
صنایع 2311
##تقد 2310
بالای 2310
توانست 2308
##بح 2307
People 2307
Ak 2305
Abdul 2304
job 2304
ابو 2302
##zar 2301
included 2301
ابتدا 2301
##ونا 2297
TT 2297
##hat 2296
##لال 2295
##kek 2294
agency 2294
ki 2285
فرزند 2285
##هور 2283
access 2282
L 2280
rest 2280
##وط 2279
##هداف 2278
ضمن 2278
woman 2275
prevent 2274
اکثر 2274
ka 2273
ll 2272
فوتبال 2272
##فاظ 2270
sm 2270
soon 2269
##رون 2267
America 2265
هنگامی 2265
centre 2263
##رش 2260
برج 2259
markets 2258
thought 2256
غربی 2256
Washington 2246
deputy 2243
برادر 2242
OS 2239
##سار 2237
various 2237
##ED 2236
Z 2234
buy 2234
enough 2234
البته 2233
My 2231
OF 2231
night 2228
price 2228
اختلاف 2226
##is 2225
##plosive 2223
gr 2223
legal 2223
themselves 2222
ethnic 2221
having 2217
اردو 2216
##دهای 2213
##رتبط 2213
responsibility 2213
جام 2212
هنگام 2212
hold 2209
##rista 2207
##تهای 2207
governor 2207
##خار 2206
##hm 2205
position 2204
result 2204
کره 2203
##حن 2201
done 2201
states 2201
##لامت 2199
400 2198
فصل 2197
FA 2195
south 2195
rather 2194
council 2193
often 2191
example 2188
##ging 2187
##اوری 2187
cu 2187
hospital 2187
regime 2184
step 2182
حقیقت 2181
##عتبار 2179
##ah 2177
Iranian 2177
talks 2177
سرعت 2177
##رض 2176
eight 2175
مستقیم 2175
Bis 2174
natural 2173
va 2172
تصویر 2172
Muhammad 2171
increased 2171
##ژاد 2169
حکومت 2169
reached 2168
##IC 2167
His 2164
target 2164
##NA 2163
حسن 2160
##ping 2159
##دهم 2159
check 2159
##افت 2158
road 2158
wanted 2156
commander 2155
personnel 2152
تضم 2152
##بلغ 2151
growth 2149
d 2146
ولایت 2146
form 2143
رفته 2142
station 2139
Te 2138
حسین 2138
##ایا 2135
French 2133
Nations 2133
حاصل 2133
Az 2131
reach 2131
##خاطر 2129
doing 2129
living 2129
resources 2129
prison 2128
Sudan 2127
improve 2127
گرم 2127
##صور 2125
تلویزیون 2124
##hman 2123
##ژه 2123
met 2120
hours 2119
move 2119
جب 2119
##ns 2118
##0 2117
##AT 2116
su 2116
##ba 2113
amount 2113
bring 2113
##cy 2112
Ad 2109
Is 2109
difficult 2108
Kur 2107
##da 2105
##لیک 2105
Lebanese 2104
uz 2103
##لد 2102
##ni 2101
Kabul 2100
شیر 2100
##روز 2098
##وشش 2098
##W 2096
PR 2096
administration 2093
drugs 2093
Hi 2090
build 2087
comes 2087
seen 2084
mother 2083
##یهای 2081
person 2081
British 2077
organisations 2077
thousand 2077
کد 2075
پیروزی 2073
##wa 2072
lead 2072
bodies 2071
##ces 2069
presidential 2068
history 2066
##سب 2065
matter 2064
علت 2064
Court 2063
inside 2062
##ستگی 2061
استاد 2061
اولیه 2061
##ؤسسات 2060
Assembly 2060
father 2060
##ke 2059
##یسی 2058
protect 2058
opened 2057
والد 2057
House 2053
conflict 2051
didn 2050
yet 2049
##راف 2045
##طه 2045
mu 2045
جذب 2045
##دام 2043
provided 2042
##di 2039
CO 2037
EU 2035
##NT 2034
accused 2033
##بط 2032
##dh 2031
پخش 2029
search 2028
ensure 2027
serious 2027
soldiers 2026
##ki 2022
45 2020
movement 2020
Middle 2019
Syrian 2019
##shan 2018
##ئن 2017
mis 2017
whole 2017
ذکر 2017
create 2016
##کم 2015
disa 2013
g 2013
plant 2013
سفید 2013
##رسال 2011
behind 2010
##روی 2008
electricity 2008
ازدواج 2008
##pro 2007
armed 2005
term 2001
Bal 2000
مدال 2000
medical 1997
##ate 1996
فرهنگی 1996
global 1995
front 1994
##led 1993
wounded 1993
def 1992
##قب 1991
organisation 1990
##ینه 1987
##le 1983
strength 1982
##هود 1981
بنیاد 1977
kill 1973
parents 1973
##lo 1972
آخر 1971
key 1970
بزرگی 1970
ass 1969
##وج 1967
freedom 1967
چهارم 1966
##ستند 1964
##صاب 1964
final 1964
##جل 1963
rates 1963
##za 1961
ky 1961
son 1960
خاک 1960
expressed 1955
آلمان 1955
##ding 1953
##ظام 1953
##هاند 1953
shall 1953
پاس 1953
delegation 1951
##ترنت 1948
فهرست 1948
reason 1947
Authority 1946
##بانی 1943
##ation 1942
##خراج 1941
Jordan 1941
شناخته 1941
necessary 1939
##age 1938
##ct 1938
Ahmed 1937
##تش 1936
خدمت 1934
related 1933
India 1931
##زام 1930
mosque 1930
بازیکن 1928
بعضی 1928
idea 1927
Health 1926
##ents 1924
Su 1924
رنگ 1924
stage 1923
##line 1922
##fa 1921
##سکو 1921
صنعتی 1919
sent 1918
##ped 1915
##AL 1913
##ties 1913
feel 1913
دوران 1913
##lash 1911
Tas 1911
2013 1909
des 1909
Abu 1908
Friday 1907
leadership 1907
o 1906
actually 1903
events 1902
ظاهر 1900
book 1899
دریایی 1899
##اذ 1889
مجموعه 1889
##عل 1887
illegal 1887
##یتی 1886
domestic 1886
southern 1886
##یای 1885
نبرد 1881
journalists 1880
مشغول 1879
girls 1878
program 1878
newspaper 1874
معرفی 1874
##یکی 1873
Meanwhile 1873
particularly 1872
مثال 1871
story 1869
results 1868
همسر 1868
شخصی 1866
##سایی 1865
موسیقی 1865
pressure 1864
##لام 1863
TV 1863
##ram 1860
##de 1859
150 1859
##AR 1857
##kent 1857
##قد 1856
Photo 1856
متفاوت 1855
earlier 1853
حذف 1847
Chinese 1845
match 1845
سان 1845
potential 1843
##ud 1841
##ثبت 1841
##pect 1840
##pha 1840
##فان 1840
##ولی 1839
فرودگاه 1838
##نیا 1837
weeks 1835
##عاد 1834
Ya 1833
civilians 1833
treatment 1833
upon 1832
discussed 1831
کوتاه 1831
gun 1830
مدن 1829
Africa 1827
قدیمی 1826
terms 1825
##دگی 1822
officer 1822
enforcement 1818
##body 1817
سرزمین 1816
##li 1810
##آوری 1809
launched 1808
nothing 1808
allow 1807
effect 1807
طراحی 1807
نیمه 1807
ever 1806
##طفال 1805
round 1805
gave 1804
raise 1804
##ch 1803
1999 1803
Me 1803
became 1803
##cing 1800
institutions 1800
روس 1800
##J 1798
##گانه 1798
charges 1796
parts 1795
provincial 1794
گروهی 1794
TA 1793
##صب 1789
noted 1788
بالاتر 1787
سالم 1787
list 1786
##dna 1785
confirmed 1785
works 1784
currently 1783
فضای 1783
equipment 1782
ri 1781
age 1780
##دب 1779
Tuesday 1779
developing 1779
عقب 1777
Trade 1776
##صه 1774
Cha 1774
La 1774
account 1773
##com 1772
thousands 1772
##ve 1771
##CH 1770
Muslims 1770
MI 1767
leave 1767
برنده 1767
Alma 1766
Author 1766
Day 1766
getting 1766
##قبال 1765
دومین 1765
blood 1764
##IL 1763
Deputy 1760
love 1760
##con 1756
growing 1755
How 1754
Sin 1753
Sunday 1753
try 1749
متوسط 1749
supply 1748
##vesti 1747
Far 1747
##دازد 1746
1990 1746
photo 1746
پنجاب 1746
##ian 1745
##id 1745
town 1745
نوشته 1745
released 1744
poor 1741
receive 1741
remain 1739
##هام 1738
PA 1737
carried 1735
بعدی 1735
J 1732
##عتماد 1729
African 1728
ready 1728
استقلال 1727
##ban 1725
طلب 1725
##ide 1724
experts 1724
##ta 1723
##ir 1722
##ro 1722
Centre 1722
bo 1722
low 1722
مجموع 1721
technology 1720
wa 1720
سنت 1720
##st 1718
turned 1717
##مده 1716
poli 1715
share 1713
points 1712
##حان 1711
Free 1710
More 1709
صاحب 1709
Two 1708
response 1708
den 1707
میگردد 1707
customs 1705
##الت 1704
available 1704
With 1703
crime 1703
facilities 1703
غرب 1703
launch 1701
West 1700
قومی 1699
Ahmad 1698
##der 1696
##va 1696
Laden 1695
##داب 1694
FOR 1694
tons 1694
prose 1693
خطوط 1693
##قال 1692
research 1691
heart 1689
mean 1689
shot 1689
Monday 1688
dollar 1687
develop 1686
includes 1686
Many 1684
Japan 1683
##رح 1681
funds 1681
مقاومت 1681
increasing 1679
##عف 1678
##قرر 1678
beginning 1677
Sheikh 1676
##توجه 1675
##ified 1672
positive 1672
Mohammad 1671
w 1671
روستا 1671
safe 1670
finance 1669
turn 1669
During 1668
##ریک 1667
destroyed 1667
##لیا 1666
address 1666
certain 1666
claimed 1666
himself 1665
BBC 1664
Chairman 1664
France 1664
Kar 1664
میآید 1663
doesn 1662
makes 1662
ground 1661
independent 1661
Chief 1660
stay 1660
Affairs 1658
stand 1658
##x 1657
saw 1657
spread 1655
##قابل 1654
corruption 1654
cotton 1654
کشتی 1652
##VE 1650
attention 1650
دستگاه 1650
Get 1649
Government 1646
arms 1645
Company 1642
حیات 1642
عامل 1642
##غل 1641
Abd 1640
##bara 1639
##اما 1639
org 1639
نهایت 1639
##dan 1636
needed 1636
experience 1635
##جن 1634
ایالت 1634
##حقق 1633
bin 1633
seized 1633
stress 1632
abroad 1631
cut 1631
host 1631
nine 1631
درد 1631
pi 1630
lo 1628
mind 1628
##ek 1627
##ments 1627
success 1627
##مت 1624
itself 1624
respect 1624
ثابت 1624
##ained 1622
message 1622
عظیم 1621
Group 1619
likely 1619
similar 1619
established 1617
انسانی 1616
Kan 1615
language 1615
قسمت 1615
##est 1614
Co 1614
منتقل 1614
شهری 1610
brought 1609
اواخر 1608
تونس 1607
اطراف 1606
شماره 1604
har 1602
event 1601
industrial 1600
gold 1599
600 1598
k 1598
ra 1598
ref 1598
happen 1597
cities 1596
Nur 1594
##وض 1593
network 1593
##sy 1591
##mit 1590
32 1590
terror 1589
##ME 1588
Association 1588
Dawn 1586
roads 1584
##روری 1583
##عید 1583
bus 1583
حالت 1582
##صف 1581
op 1581
##NI 1580
##یع 1580
سیاه 1579
Mohamed 1578
##llah 1577
مسجد 1577
##بیا 1575
##عم 1574
شیخ 1574
متن 1574
parliamentary 1573
##حد 1572
نسل 1572
##mon 1571
concerned 1571
Con 1570
speech 1569
##ON 1568
##am 1568
##سون 1568
##کننده 1568
Americans 1568
cause 1568
intelligence 1568
answer 1565
##عر 1564
kills 1564
looking 1564
عبور 1563
##وهای 1562
evidence 1562
حجم 1559
ساحل 1558
tell 1557
fuel 1556
##zing 1555
ban 1554
investors 1554
jobs 1554
##ghter 1553
previous 1553
لندن 1553
متعلق 1553
Shi 1552
##ning 1551
While 1551
activity 1551
calls 1550
##ئین 1549
impact 1548
tried 1547
Wednesday 1546
release 1545
تنظیم 1545
روستای 1545
نقطه 1545
##غی 1544
continued 1544
بدین 1544
##IN 1543
##el 1542
والی 1542
laws 1541
##cci 1540
investigation 1540
نمونه 1540
assistance 1539
##ring 1538
leading 1538
##ابی 1537
staff 1537
Fe 1535
فرق 1534
Ex 1532
trans 1532
whom 1532
paid 1531
uni 1531
##دور 1530
higher 1530
holding 1530
sec 1528
##dent 1526
##och 1526
meant 1525
north 1525
مجمع 1525
##RT 1524
Cup 1524
Images 1524
سبز 1522
opening 1521
request 1521
tonnes 1521
فوق 1520
Mar 1519
زنده 1519
##row 1518
university 1518
علوم 1517
##na 1516
effort 1513
Our 1512
##ak 1511
site 1510
قلب 1510
reduce 1508
understand 1508
##شتی 1507
##ay 1506
##our 1506
Most 1506
cultural 1506
required 1506
video 1506
##it 1505
risk 1505
travel 1505
##ia 1504
Arabia 1504
coalition 1504
stations 1503
سید 1502
عبدالله 1502
##sa 1501
presence 1501
##TO 1500
carry 1500
بما 1498
##kha 1497
rus 1497
شوروی 1497
banned 1495
common 1495
class 1490
figures 1490
قرن 1490
##لول 1489
##UT 1488
sure 1488
act 1487
culture 1487
win 1487
محمود 1487
female 1486
Commission 1485
built 1485
Punjab 1483
avoid 1482
Human 1481
largest 1480
##فتتاح 1479
##لق 1479
Pro 1479
اصول 1478
##زید 1476
quality 1476
read 1476
Ku 1475
targeted 1475
learn 1473
انقلاب 1473
failed 1471
flood 1471
threats 1471
##ze 1470
wants 1470
مهمترین 1470
##RI 1469
resolution 1469
self 1469
ways 1469
##رور 1467
changes 1467
ماده 1467
affected 1466
citing 1466
subject 1465
دین 1464
نیویورک 1464
commercial 1462
جنسی 1462
black 1461
harm 1461
##sing 1460
fields 1460
representatives 1460
everything 1459
forward 1459
انگلیسی 1459
responsible 1458
پایه 1458
Ni 1457
majority 1457
interests 1456
##فوذ 1455
happened 1454
شرق 1454
morning 1451
##dda 1450
goal 1449
##UR 1445
York 1445
##aran 1444
##ؤثر 1444
##غات 1444
closed 1443
##tia 1442
London 1442
popular 1442
witness 1442
استرالیا 1442
stability 1441
##اتور 1440
Such 1440
attacked 1440
providing 1440
##ent 1439
towards 1439
une 1439
##مپیک 1438
progress 1438
caused 1437
film 1436
governments 1436
basic 1434
نحو 1434
معنی 1433
باشگاه 1432
worth 1431
daily 1430
board 1428
lu 1426
##لین 1425
75 1425
negotiations 1425
km 1424
th 1424
AN 1422
annual 1420
planning 1420
الدین 1419
Bu 1418
Thursday 1417
approved 1417
mass 1417
meetings 1417
##جع 1416
bad 1416
hi 1416
reasons 1416
قبول 1416
##hre 1414
##مام 1414
Turkey 1414
ruling 1413
& 1412
strategy 1412
##ary 1411
##وسی 1411
##وضع 1408
proposed 1408
##رغم 1407
##ولا 1407
Kuwait 1407
RF 1407
##RE 1406
##cutor 1406
compared 1406
implement 1406
single 1406
##im 1405
معروف 1405
department 1403
wo 1403
##hi 1402
calling 1402
summit 1401
room 1400
AL 1399
روسی 1399
علمی 1399
##ded 1398
##ef 1398
crimes 1398
ob 1398
##lah 1397
contract 1397
importance 1396
semi 1394
##جانب 1393
محصول 1393
##plo 1392
##وبی 1392
forced 1392
جانب 1392
data 1391
##il 1390
farmers 1390
##ran 1389
Malik 1389
str 1389
باب 1389
##NG 1388
##ING 1387
##پور 1385
CBE 1385
##صار 1384
BA 1384
anything 1383
##ving 1381
RL 1381
organizations 1381
##tta 1380
balance 1379
federal 1379
تشخیص 1379
سقوط 1379
فعل 1379
موتور 1379
2014 1378
##BU 1377
##ova 1377
agricultural 1377
explosion 1377
remains 1377
##دئ 1376
san 1376
rule 1375
روستایی 1374
che 1373
##نور 1372
شرقی 1372
تاریخی 1371
organization 1370
vote 1370
inte 1368
running 1368
##لیج 1366
##زل 1365
800 1365
either 1365
prime 1365
##TE 1364
##em 1364
ones 1363
transport 1363
##ورت 1362
Abdel 1362
انتشار 1362
hands 1361
##bal 1360
##kar 1360
##la 1360
break 1360
regarding 1360
##ization 1359
##شناسی 1359
volume 1359
Mil 1358
costs 1358
hero 1358
##دین 1355
technical 1355
استخدام 1355
##لن 1354
##لند 1354
سنتی 1354
effective 1353
##ally 1352
##ID 1351
##کان 1350
##way 1349
شهرهای 1349
heard 1348
offer 1348
Director 1347
estimated 1347
pass 1347
promote 1347
##ندا 1346
places 1346
true 1346
رضا 1346
attempt 1345
internal 1345
lower 1345
رود 1344
##LL 1343
##عار 1343
concern 1342
establishment 1342
تلویزیونی 1342
published 1339
##tions 1338
مدار 1338
##iks 1337
Ho 1336
##ors 1335
cars 1335
##ves 1334
emergency 1333
Rights 1332
created 1332
achieve 1331
33 1330
ask 1330
battle 1330
series 1330
##had 1329
Da 1329
Tunisia 1328
conducted 1328
questions 1328
##dah 1327
##hir 1326
demo 1325
بات 1325
##ip 1323
##رغ 1322
##روج 1322
followed 1322
##ms 1321
sus 1321
tj 1321
direct 1320
##ening 1319
giving 1317
carrying 1316
personal 1316
safety 1316
##هه 1315
declared 1315
##ict 1314
latest 1314
##TION 1313
despite 1312
protection 1312
انگلستان 1312
candidates 1311
goods 1311
tur 1311
##ceed 1310
quo 1310
offered 1308
##PO 1307
Public 1306
longer 1306
patients 1306
##co 1305
sign 1305
MP 1304
St 1303
ble 1303
##اله 1302
Bush 1302
NG 1302
fighters 1302
accept 1301
consider 1301
ha 1301
showed 1300
رشته 1300
date 1298
##ries 1297
##sed 1297
tali 1297
teams 1297
Army 1296
born 1296
God 1295
poll 1295
##zi 1294
##yr 1293
Institute 1293
everyone 1293
framework 1293
opinion 1293
tri 1293
##ulla 1291
Go 1291
opportunity 1291
نظام 1291
250 1290
alone 1290
fall 1289
جایزه 1289
Ata 1286
establish 1286
music 1286
##Q 1285
Lau 1285
قهرمان 1285
##هما 1284
رقم 1284
700 1283
religion 1283
art 1282
##EC 1280
infrastructure 1280
بلوچستان 1279
Those 1278
##ani 1277
##et 1277
##eva 1277
##ft 1277
authority 1277
condition 1277
instead 1277
friends 1275
someone 1274
چاپ 1274
محسوب 1273
##قدم 1272
radio 1272
پارک 1272
##tor 1271
helped 1271
مشاهده 1271
##cre 1270
DE 1269
homes 1269
huge 1267
milita 1266
ordered 1266
paper 1266
sides 1266
Gen 1265
appeal 1265
join 1265
season 1265
بیر 1265
steps 1262
teachers 1261
##end 1260
super 1260
session 1259
described 1258
income 1258
Khu 1257
Soviet 1257
particular 1256
قهرمانی 1256
Education 1255
Jam 1255
HIV 1254
capacity 1254
incident 1254
policies 1254
studies 1254
regions 1253
ca 1252
chance 1251
districts 1251
li 1251
charge 1250
allowed 1249
##EA 1248
democracy 1248
##fied 1247
##أس 1247
defend 1247
فاصله 1247
ministers 1246
34 1245
Im 1245
benefit 1245
journalist 1245
opportunities 1245
وزن 1245
mission 1244
space 1244
boy 1243
##یلان 1242
Japanese 1242
extra 1242
##bi 1241
Federal 1241
Lahore 1241
sense 1241
رودخانه 1241
##مدار 1240
##مون 1240
Saturday 1240
basis 1240
planned 1240
##GA 1239
##ish 1239
36 1239
Ah 1239
wel 1239
##bas 1238
##ندن 1238
affect 1238
brother 1238
worked 1238
65 1237
Liberty 1236
شخص 1236
Why 1235
چینی 1235
##ali 1234
درجه 1234
##her 1233
seek 1233
German 1232
ill 1232
dialogue 1231
##itant 1230
tourism 1230
##دایت 1229
##ws 1228
fund 1228
shows 1228
First 1227
student 1226
1998 1225
combat 1225
entire 1225
identified 1225
modern 1225
game 1224
provinces 1224
toward 1223
##come 1222
##حق 1222
era 1222
prepared 1222
##ised 1221
passed 1221
راج 1221
High 1219
deficit 1219
independence 1219
quite 1219
returned 1219
اوایل 1219
##حب 1218
##راد 1218
hundreds 1218
spending 1218
کیلومتر 1217
loans 1216
##تین 1215
nearly 1215
summer 1215
##un 1213
committed 1213
takes 1213
wife 1213
دانشکده 1213
1997 1212
42 1212
biggest 1212
nor 1212
operating 1212
##ئه 1211
doctors 1211
complete 1210
stock 1210
##جان 1209
reporter 1209
significant 1209
Democratic 1208
علم 1208
LA 1207
activists 1207
alleged 1207
credit 1207
images 1206
linked 1206
Yemen 1205
affairs 1205
levels 1205
mo 1205
##red 1204
Hus 1204
fa 1204
thus 1203
Sar 1202
scheduled 1202
strike 1202
##وران 1200
management 1199
spent 1199
دن 1199
##if 1198
##ise 1198
##ادل 1198
##زون 1197
regard 1195
##رع 1193
##لوی 1193
trial 1193
Turkish 1192
raised 1192
##روند 1191
##صاد 1191
##قص 1191
acts 1191
جزیره 1191
sur 1190
throughout 1190
##مز 1189
played 1189
##لمان 1187
agreements 1186
average 1186
murder 1185
##wi 1184
focus 1184
ساختار 1184
مشهور 1184
##طار 1183
brain 1183
implementation 1183
resident 1183
Ara 1182
جولای 1182
Gulf 1181
ju 1181
##imo 1180
##لغ 1180
defence 1180
seems 1180
EX 1179
denied 1179
wrong 1179
همزمان 1179
##ys 1177
Congress 1177
Movement 1177
عوامل 1176
##ضل 1175
approach 1175
جشنواره 1175
##ruit 1174
fine 1174
mine 1174
television 1173
lawyer 1172
train 1172
##وتر 1170
books 1170
##بیت 1169
AK 1169
Today 1169
disease 1169
environment 1169
##bility 1168
ro 1168
ST 1167
figure 1167
disc 1166
##land 1165
aimed 1165
airport 1165
attended 1165
Service 1164
aim 1164
participate 1164
exercise 1163
justice 1163
words 1162
##ncing 1161
Bad 1161
Information 1161
##care 1160
##where 1160
begin 1160
clean 1160
connection 1160
vehicle 1160
آثار 1160
bomber 1159
dealing 1159
Republic 1158
asi 1158
businesses 1158
camp 1157
goes 1157
labour 1157
red 1157
attend 1156
##oud 1155
##um 1155
base 1155
revenue 1155
Mas 1154
statements 1153
John 1152
Since 1151
روشهای 1151
Ham 1150
active 1150
mid 1150
sentence 1150
setting 1150
Official 1149
husband 1149
kids 1149
شیمیایی 1149
##ved 1148
guards 1147
rules 1147
##ked 1146
55 1146
executive 1146
registered 1146
##وانی 1145
fourth 1145
شخصیت 1144
لحاظ 1143
وضع 1142
About 1141
Organization 1141
Federation 1138
نوعی 1138
Another 1137
borders 1137
northern 1137
sports 1137
درخت 1137
damage 1135
Western 1133
##vest 1132
##ck 1131
##ds 1131
##oun 1130
heavy 1130
secretary 1130
معنای 1130
documents 1129
materials 1129
##cs 1128
##ظم 1128
pipe 1128
Bas 1126
Fund 1126
##IA 1125
guard 1125
protests 1125
systems 1125
Social 1124
##hri 1123
ترکیب 1123
performance 1122
Indian 1120
ne 1120
status 1120
ملک 1120
##UN 1119
MA 1119
commitment 1119
deaths 1119
draft 1119
##sain 1117
##تال 1117
تقسیم 1117
Germany 1116
bat 1116
##adi 1115
##ese 1115
review 1115
##ter 1114
##خان 1114
add 1114
ci 1114
participation 1114
sta 1114
educational 1113
بازیهای 1113
Office 1112
Shu 1112
commission 1112
goals 1112
streets 1112
ahead 1111
initiative 1111
Rama 1110
Supreme 1110
competition 1110
developed 1110
follow 1110
##itarian 1109
##ئل 1109
starting 1109
##تس 1108
SC 1107
Women 1106
knowledge 1106
City 1105
agree 1105
traditional 1104
zone 1104
##pend 1103
bid 1103
blow 1099
sea 1099
minutes 1097
refugees 1097
##تور 1096
seeking 1095
##ee 1093
weak 1093
sort 1092
website 1092
##put 1091
Law 1091
moment 1091
انتظامی 1091
record 1090
runs 1090
##ration 1089
##طلب 1089
##قات 1089
Economic 1089
Hay 1089
amb 1089
##and 1088
produce 1088
تهران 1088
##ضع 1087
democratic 1087
روم 1087
##ges 1086
##نین 1086
##fir 1083
##nd 1083
attract 1083
##EL 1082
##ood 1082
38 1082
##hali 1081
football 1081
jail 1081
shut 1081
Ji 1080
NATO 1080
stopped 1079
unit 1079
hyd 1078
ag 1077
challenges 1076
COM 1075
employees 1075
fr 1075
houses 1075
Then 1074
buildings 1074
sat 1074
nego 1072
##فاف 1071
Af 1071
Ban 1071
League 1071
helping 1071
فرانسوی 1071
online 1070
send 1070
By 1069
mig 1068
negative 1068
numbers 1068
supporters 1068
##pped 1067
##کری 1067
##hel 1066
Ben 1066
Mis 1066
Ras 1066
century 1066
##وات 1065
wrote 1065
facing 1064
legi 1064
specific 1064
آپ 1064
##ارد 1063
Alam 1063
individuals 1063
author 1062
decree 1062
disaster 1062
girl 1062
ut 1062
##صورت 1061
##tic 1060
KG 1060
deep 1060
product 1060
ambassador 1059
enter 1059
occurred 1059
explained 1058
inn 1058
##TS 1057
##out 1057
##self 1057
Under 1057
programmes 1057
تحمل 1057
سبک 1057
47 1056
Inter 1056
##طق 1055
cover 1055
scored 1055
visited 1055
suggest 1054
enjoy 1053
fi 1053
funding 1053
poverty 1053
sell 1053
centres 1052
door 1052
کیلومتری 1052
adopted 1051
demonstration 1051
tra 1051
##zation 1050
48 1050
Last 1050
banking 1050
simply 1050
GO 1049
Sharon 1048
ran 1048
عصر 1048
fish 1047
observer 1047
resistance 1047
stated 1047
trip 1047
##fe 1046
Ismail 1046
watch 1046
120 1045
elected 1045
##dar 1044
street 1042
##les 1041
##ou 1041
##su 1041
completely 1041
##rri 1040
##گاههای 1040
37 1040
Abdullah 1040
Even 1040
positions 1040
Although 1039
rio 1039
Gil 1038
formed 1038
owned 1038
فوت 1038
##ants 1037
Kara 1037
Ora 1037
ability 1037
additional 1037
named 1037
willing 1037
##2 1036
immediately 1036
##ject 1034
Peace 1034
solve 1034
##ازن 1033
rev 1033
Br 1032
##طالب 1031
Defence 1031
##teral 1030
cell 1030
range 1030
##اسب 1029
Justice 1029
##ier 1028
Governor 1028
strategic 1028
ar 1027
possibility 1027
##hed 1026
property 1025
عام 1024
English 1023
gone 1023
suffered 1023
صفحه 1023
##ثر 1022
نویسنده 1022
Hassan 1021
##jur 1019
abuse 1019
Bara 1018
Well 1018
hour 1018
##فل 1017
ideas 1017
##پس 1016
quarter 1016
نظم 1016
##ium 1015
walk 1015
##ize 1014
else 1014
multi 1013
serve 1013
##as 1012
##لف 1012
Em 1012
although 1012
imposed 1012
ma 1012
scale 1012
jih 1011
بنی 1011
##الم 1010
housing 1010
mini 1010
##ائل 1009
elements 1009
##fy 1008
concerns 1008
talking 1008
vehicles 1008
##isation 1007
AG 1007
##LE 1006
##ختار 1006
players 1006
##ward 1004
chair 1004
moved 1004
presented 1004
supporting 1004
رمضان 1004
##fully 1003
interview 1003
##روف 1002
influence 1002
##ماع 1001
##گاری 1001
Karim 1001
Que 1001
individual 1001
Do 1000
lea 1000
##زدهم 999
sectors 999
لیگ 999
##ex 998
##take 998
encourage 998
##ka 997
##km 997
##الله 997
##کول 997
bila 997
occupation 997
suit 996
##gar 995
achieved 995
prayer 995
via 995
##ics 994
De 994
Said 994
##DP 993
reforms 993
مقدس 993
completed 992
ended 992
##ثبات 991
School 991
note 991
solution 991
FC 990
normal 990
عرضه 990
believes 989
changed 988
danger 988
nei 988
professional 988
##mp 986
lau 986
##ened 985
El 985
contributed 984
##eed 983
##قامت 983
##ead 982
##سور 982
lines 982
representative 982
prepare 981
Nas 980
refused 979
##ecu 978
couple 977
##AS 976
civilian 976
ایتالیا 976
##fat 975
##ls 975
##nista 974
challenge 974
candidate 973
incidents 973
##رهای 972
transfer 972
2015 971
learned 971
Of 970
Republican 970
cal 970
##lines 969
losses 969
plants 969
word 969
felt 968
##eas 967
middle 967
مدل 967
##diti 966
Because 966
medicine 966
عبارت 966
##ial 965
pur 964
##med 963
##ps 963
Dar 963
decisions 963
Korea 962
fled 962
rein 962
شریف 962
##ستور 961
actions 961
##AD 960
##دد 960
annually 960
demands 960
fundamental 960
oblast 960
BE 959
dozen 959
ایرانی 959
##down 958
43 958
headed 958
push 958
ren 958
قدر 958
Center 957
Mir 957
##lan 956
arrived 956
article 956
##NS 955
1992 955
standards 955
##ost 954
anyone 954
App 953
constitution 953
gra 953
villages 953
##rate 951
##عمل 951
friend 951
##ایز 950
George 950
dangerous 950
mentioned 950
communities 949
conduct 949
hopes 949
remember 948
کانادا 948
Pa 947
aims 947
برتر 947
##pe 946
generation 946
##uring 945
rose 945
##bar 944
##اصر 944
probably 944
sites 944
بابا 943
Mala 942
War 942
بوجود 942
مطابق 942
##res 941
aw 940
details 940
drop 940
##pic 939
##rda 939
cabinet 938
evening 938
happy 938
waste 938
##ever 937
##ll 937
##ss 937
##برت 936
duties 936
##cla 935
headquarters 935
loss 935
nature 935
remote 935
trust 935
##ure 934
sum 934
broke 933
suggested 933
table 933
therefore 933
wheat 933
قطر 933
##rm 932
##رال 932
failure 932
ide 932
mobile 932
operate 932
pun 932
Valley 931
damaged 931
nations 931
persons 931
##رط 930
##شیا 930
quickly 930
respond 930
victory 930
گاهی 930
spend 929
##sized 928
Every 928
doubt 928
sometimes 928
specialist 928
عرض 928
##زاده 927
successful 927
easy 926
جامع 926
سرطان 926
##OM 925
##ساس 925
Industry 925
ig 925
task 925
ul 925
##him 924
##جمع 924
ceremony 924
white 924
ظهر 924
AZ 923
Palestine 923
concluded 923
contribute 923
twenty 923
تعریف 923
##we 922
UK 922
internet 922
##hor 921
##pet 921
believed 921
##ala 920
##ew 920
claim 920
creating 920
organised 920
##cover 919
##شل 919
Administration 919
highest 919
neighbouring 918
para 918
##gent 917
eva 917
loan 917
Finance 916
Hamid 916
Other 916
notice 916
دینی 916
##cou 915
Bat 915
##bra 914
ord 914
winter 914
##iff 913
##min 913
##muk 913
Not 913
bar 913
ce 913
fina 913
هنری 913
fully 912
خلاف 912
##lam 911
White 911
Baghdad 910
Reuters 910
fresh 910
##od 909
##ther 909
fell 909
hat 909
radical 909
رفع 909
compete 908
##IR 907
cross 907
بیت 907
##ai 906
Tri 906
provides 906
##وام 905
##ویش 905
hear 905
republic 904
قال 904
مسلم 904
Am 903
David 903
involvement 903
Man 902
claims 902
scene 902
ind 901
reality 901
##ho 900
##rators 900
joined 900
lose 900
sy 900
treat 900
Astana 899
Organisation 899
center 899
fair 899
sa 899
##rdy 898
decades 898
railway 898
raising 898
taxes 897
جورج 897
چک 897
1980 896
bit 896
kept 896
##zed 895
44 895
Her 895
above 895
f 894
int 894
##do 893
Britain 893
dig 893
##IE 892
boys 892
limited 891
نسخه 890
##din 889
##rb 889
King 889
islam 889
teacher 889
explain 888
Republicans 887
eye 887
playing 887
بغداد 887
نقاط 887
باستان 886
eyes 885
##rga 884
agriculture 884
choice 884
reportedly 884
save 884
ship 884
surprise 884
wait 884
لذا 884
##ant 883
##وخ 883
heat 883
hur 883
tre 883
revealed 882
test 882
violation 882
اسپانیا 882
##mi 881
Australia 881
green 881
ina 881
ret 881
##ming 880
##تار 880
AIDS 880
Their 880
currency 880
previously 880
##ND 879
del 879
di 879
##ite 878
matters 878
##rack 877
MO 877
THE 877
command 877
Sea 876
offices 876
units 876
Hussein 875
politics 875
wide 875
contra 874
knew 874
beyond 873
heads 873
##uggling 872
environmental 872
grant 872
selling 872
violent 872
revolution 871
square 871
##mba 870
pen 870
Ca 869
anno 869
##ذهب 868
Ar 868
cat 868
decline 868
deliver 868
tribes 868
##tes 867
Ab 867
hide 867
patrol 867
قدم 867
موزه 867
moving 866
understanding 866
Gaza 865
Ki 865
climate 864
fired 864
marriage 864
mostly 864
petrol 864
52 863
crowd 863
express 863
territory 863
##خط 862
From 862
Tehran 862
##rn 861
##ug 861
Pas 861
daughter 861
festival 861
letter 861
##ocent 860
Press 860
firm 860
##edo 859
##ple 859
cuts 859
purpose 859
1991 858
relationship 858
##لر 857
establishing 857
isn 857
tea 857
##ance 856
Jan 856
##ویز 855
Helm 855
Three 855
chemical 855
favour 855
science 855
speak 855
##UE 854
##یایی 854
confidence 854
race 854
shown 854
sun 854
##UD 853
##sp 853
computer 853
خلق 853
##ja 852
Conference 852
Moscow 852
عثمان 852
##1 851
SA 851
lay 851
speaking 851
امروزه 851
عبارتند 851
##cent 850
##حمل 850
Fi 850
Geo 850
earthquake 850
struggle 850
گیا 850
Bar 849
نصب 849
##زات 848
advantage 848
grow 848
supported 848
##ine 847
rural 847
Express 846
warning 846
##qa 845
Bin 845
Research 845
relatives 845
imported 844
participants 844
ties 844
نشر 844
##حول 842
picture 842
secret 842
USA 841
Zi 841
fat 841
birth 840
شماری 840
##ated 839
##mun 839
image 839
owners 838
pot 838
sales 837
produced 836
نظیر 836
suffering 835
uns 835
##ab 834
##point 834
Say 834
cricket 834
leaving 834
sentenced 834
tourists 834
Or 833
controlled 833
directly 833
supplies 833
names 832
##ain 831
##rov 831
Political 831
fu 831
##RO 830
plot 830
##rid 829
considering 829
una 829
worse 829
##ages 828
Energy 827
##tle 826
1996 826
Hospital 826
continues 826
ph 826
انواع 826
##ill 825
##iye 825
Sun 825
مهر 825
universities 824
دون 824
##hu 823
##to 823
Frontier 823
تئاتر 823
##ame 822
##bad 822
##ci 822
Investment 822
camps 822
difference 822
quota 822
46 821
Bo 821
putting 821
worst 821
Le 820
Sad 820
Sharif 820
moderni 819
wish 819
##طان 818
trained 818
partnership 817
relief 817
##au 816
##pping 816
##fis 815
faith 815
proposal 815
AND 814
appropriate 814
informed 814
نامهای 814
Col 813
monitor 813
politicians 813
قد 813
##انات 812
baby 812
critical 812
double 812
##af 811
broad 811
demanded 811
##pri 810
##باب 810
Aziz 810
represented 810
resort 810
speed 810
transition 810
drive 809
equal 809
separate 809
thinking 809
سپاه 809
##DS 808
##pre 808
assassination 808
tourist 808
viola 808
##ght 807
##nst 807
##ئیس 807
Head 807
conde 807
material 807
union 807
قرآن 807
متعدد 807
gives 806
weight 806
ستاره 806
ایشان 805
##qui 804
54 804
primary 804
size 804
مراحل 804
##tive 803
requires 803
captured 802
ge 802
grain 802
minute 802
prior 802
Omar 801
Red 801
##tors 800
##wo 800
standing 800
##لل 799
85 799
AM 799
متولد 799
##vised 798
##عود 798
##ندس 798
Terror 798
greater 798
plane 798
##00 797
##lf 797
1994 797
adopt 797
eastern 797
pain 797
##chi 796
##tri 796
bag 796
fast 796
hotel 796
practice 796
remained 796
سلطنت 796
##ken 795
industries 795
SE 794
Sala 794
offensive 794
seem 794
hot 793
باغ 793
anniversary 792
Road 790
ano 790
charged 790
hospitals 790
##SE 788
کون 788
##ko 787
Kenya 787
perhaps 787
preparation 787
##ious 786
Agriculture 786
Baja 786
maintain 786
امیر 786
حافظ 786
Brotherhood 785
promised 785
##ena 784
##جتمع 784
preparing 784
95 783
AR 783
bombs 783
cancer 783
ent 783
teen 783
##lly 782
##حات 782
rain 782
rich 782
##ca 781
##ig 781
##minister 781
Business 781
benefits 781
directed 781
##pp 780
##rt 780
##DI 779
##go 779
##رمز 779
##گانی 779
ho 779
sound 779
تعمیر 779
##7 778
##rest 778
##sid 778
##تیک 778
##ying 777
##تنام 777
Tur 777
written 777
##ized 775
FR 775
wasn 775
ولا 775
##5 774
##hab 774
##مع 774
millions 774
Hamas 773
rescue 773
voters 773
یونان 773
##خص 772
Prince 772
becoming 772
shares 772
##DE 771
sold 771
Yu 770
diplomatic 770
محله 770
##gan 769
##laus 769
##عادل 769
ME 769
agenda 769
sale 769
ثم 769
##اغ 768
56 768
Control 768
Reg 768
interested 768
judge 768
rebels 768
uranium 768
##cons 766
##raf 766
Algeria 766
existing 766
receiving 766
coll 765
debate 765
fer 765
nationwide 765
discussion 764
faces 764
promise 764
Per 763
##kan 762
##اتها 762
MV 762
finally 762
reduction 762
1995 761
فیزیک 761
##SI 760
##pt 760
mountain 760
survey 760
torture 760
##PA 759
appeared 759
عباس 759
##dha 758
##hana 758
expert 758
prisoners 758
##اصل 757
39 757
administrative 757
foot 757
legislation 757
purchase 757
teach 757
##ffer 756
##iya 756
Border 756
waiting 756
miles 755
صلاح 755
##ga 753
##لات 753
IRA 753
pound 753
##os 752
circumstances 752
doctor 752
lift 752
raid 752
##rant 751
##یکل 751
allo 751
cor 751
medal 751
priority 750
##ric 749
attempts 749
##cel 748
##طن 748
destruction 748
dro 748
powers 748
voice 748
جمال 748
finished 747
looked 747
مهندسی 747
49 746
att 746
scholars 746
touch 746
##ny 745
##عداد 745
bombers 745
wedding 745
##cies 744
Mau 744
celebration 744
complex 744
hac 744
pop 744
teaching 744
western 744
##ibe 743
identify 743
ima 743
##نویس 742
becomes 742
همچون 742
Here 741
SH 741
airline 741
contracts 741
##mat 740
allegedly 740
route 740
##asi 739
items 739
الشرق 739
##یال 738
remaining 738
skills 738
convicted 737
draw 737
missing 737
organized 737
##mil 736
Let 736
begun 736
shop 736
وار 736
##نوی 735
colleagues 735
ea 735
صالح 735
disco 734
looks 734
programs 734
##his 733
##sha 733
Ei 733
approval 733
forms 733
principles 733
Korean 732
NA 732
asking 732
courts 732
entered 732
knows 732
pick 732
storm 732
تأسیس 732
citizen 731
represent 731
restore 731
مدتی 731
##nar 730
Somalia 730
contact 730
determined 730
enable 730
impossible 730
سینما 730
##far 729
##stri 729
document 729
games 729
##OP 728
##bly 728
##عدام 728
dono 728
file 728
##nes 727
Rec 727
aware 727
awareness 727
store 727
##lus 726
##plain 726
##po 726
57 726
editor 726
indicated 726
stories 726
##GE 725
##vi 725
##sher 724
comment 724
wound 724
41 723
Ass 723
Par 723
nearby 723
##uff 722
constitutional 722
Lo 721
Se 721
comprehensive 721
enterprise 721
rejected 721
spring 721
weekend 721
##NE 720
allocated 720
code 720
governmental 720
professor 720
##zo 719
fifth 719
procedures 719
##rib 718
##side 717
CH 717
Special 717
block 717
east 717
faction 717
tournament 717
سبب 717
##nov 716
Beirut 716
developments 716
gang 715
secure 715
track 715
##UL 714
##eri 714
##ks 714
bed 714
duty 714
pers 714
tight 714
شرح 714
##uk 713
SP 713
discovered 713
raw 713
##SS 712
##ions 712
##lation 712
Baba 712
##nts 711
Rep 711
effects 711
textile 711
##woman 710
##ادق 710
##شاه 710
Both 710
Despite 710
WB 710
aircraft 710
simple 710
##وامی 709
Sale 709
bringing 709
escape 709
manager 709
profit 709
##get 708
##tarian 708
900 708
Partie 708
chamber 708
fed 708
GDP 707
Has 707
casualties 707
ir 707
text 707
##شام 706
improving 706
shooting 706
##gating 705
##حرم 705
##دیا 705
Society 705
fe 705
meaning 704
sharp 704
Programme 703
essential 703
##عامل 702
Bai 702
Parliament 702
declined 702
gets 702
lived 702
pe 702
دیا 702
##دون 701
Abad 701
nar 701
path 701
##pers 700
appointed 700
college 700
highly 700
sq 700
Ay 699
Sc 699
powerful 699
scientific 699
##gab 698
##rupt 698
53 698
Commerce 698
creation 698
saving 698
##ford 697
##rc 697
##sul 697
Its 697
Murdoch 697
England 696
beat 696
toll 696
##ives 695
##tab 695
##شهر 695
Com 695
Force 695
Tu 695
desire 695
elders 695
targets 695
wi 695
##tis 694
Ur 694
activist 694
factory 694
peoples 694
require 694
##qi 693
Anti 693
Ik 693
NE 693
Ten 693
holiday 693
model 693
کالج 693
##ari 692
##cal 692
##ility 692
##نل 692
Air 692
statistics 692
پدرش 692
##rd 691
ON 691
movements 691
visiting 691
west 691
##ploy 690
Olympic 690
hu 690
reserves 690
##om 689
##oma 689
Board 689
##dom 688
عالم 688
##ura 687
Ibrahim 687
served 687
##lec 686
choose 686
58 685
driver 685
hearing 685
recovered 685
winning 685
##تمام 684
exhibition 684
highway 684
عناصر 684
##ight 683
ga 683
managed 683
physical 683
##rch 682
bear 682
design 682
helicopter 682
seats 682
tol 682
سلطان 682
##ify 681
expand 681
##ons 680
accordance 680
cash 680
appear 679
cult 679
مفهوم 679
##DA 678
##TER 678
##tov 678
##wan 678
finding 678
passengers 678
paying 678
بول 678
جون 678
##cate 677
##op 677
##ship 677
1993 677
producing 677
threatened 677
Ju 676
factors 676
fiscal 676
ou 676
نفس 676
##OD 675
51 675
Ai 675
Che 675
contain 675
defeated 675
mainly 675
severe 675
unable 675
آهنگ 675
##placed 674
Internet 674
PM 674
jo 674
مگر 674
auto 673
dr 673
guns 673
meters 673
struck 673
##he 672
##hip 672
##mine 672
##بق 672
Li 672
Over 672
conte 672
##haw 671
Las 671
dark 671
defeat 671
lands 671
ID 670
alternative 670
communications 670
wall 670
وجه 670
##rden 669
##3 668
##6 668
##vo 668
##رر 668
EC 668
condemned 668
star 668
truth 668
##pa 667
##دریس 667
Ne 667
apply 667
##rec 666
Tripoli 666
appointment 666
content 666
regular 666
views 666
آلمانی 666
##rif 665
##ush 665
63 665
Faz 665
link 665
##mployment 664
Thank 664
injuries 664
occupied 664
prominent 664
##pli 663
Saddam 663
unity 663
##ification 662
##wed 662
Convention 662
announcement 662
##ap 661
##ie 661
Areas 661
context 661
delay 661
implemented 661
insurance 661
recorded 661
امام 661
##eta 660
##ol 660
Osa 660
agents 660
decade 659
##ced 658
##rising 658
##ua 658
AP 658
Democrats 658
extended 658
limit 658
placed 658
پاریس 658
##fort 657
attitude 657
relevant 657
خالد 657
##bei 656
requirements 656
submitted 656
ami 655
structure 655
usually 655
SU 654
monitoring 654
##llet 653
##son 653
famous 653
trend 653
##ych 652
DI 652
assets 652
factories 652
haven 652
increases 652
iron 652
pra 652
موقع 652
##but 651
##part 651
compound 651
conservative 651
determine 651
keeping 651
sleep 651
##cus 650
Any 650
forum 650
la 650
##cution 649
##hen 649
Ambassador 649
Sai 649
irrigation 649
stands 649
##cot 648
##des 648
اعظم 648
العالم 648
##ology 647
##shed 647
##قام 647
##قصد 647
accounts 647
mart 647
tour 647
##ans 646
##light 646
##vene 646
et 646
vo 646
تخت 646
Italian 645
beautiful 645
refuge 645
##ciliation 644
##hold 644
##ti 644
Paris 644
San 644
clothes 644
deposits 644
exactly 644
privat 644
rocket 644
ya 644
##OT 643
##ey 643
##rop 643
##مال 643
Also 643
##hsil 642
##درس 642
Local 642
dia 642
farm 642
gar 642
interim 642
Only 641
offering 641
sexual 641
##per 640
##خارج 640
valley 640
##amed 639
##mpa 639
##nge 639
Uni 639
introduced 639
reaching 639
باند 639
##ائر 638
AD 638
Pre 638
resulted 638
settlement 638
##py 637
Water 637
practices 637
referred 637
##rain 636
alliance 636
flag 636
learning 636
strikes 636
##tee 635
defense 635
ji 635
slow 635
flight 634
meat 634
نزد 634
##8 633
##dz 633
Nazi 633
ski 633
##cation 632
72 632
newspapers 632
partners 632
respectively 632
پادشاه 632
##sper 631
ira 631
supposed 631
Abbas 630
Y 630
advance 630
assault 630
changing 630
designed 630
##aw 629
##ign 629
Children 629
Civil 629
Italy 629
Jewish 629
obvious 629
represents 629
پور 629
Chamber 628
metres 628
noting 628
promoting 628
بازیگر 628
##sti 627
bra 627
honour 627
island 627
orders 627
##lic 626
##pare 626
##tak 626
##آباد 626
Ask 626
club 626
reconstruction 626
till 626
Alexandria 625
eat 625
##CI 624
##mal 624
##stic 624
##sts 624
##بول 624
##حداث 624
Among 624
die 624
march 624
returning 624
weather 624
##ep 623
belonging 623
pose 623
practical 623
tou 623
type 623
140 622
fruit 622
page 622
##port 621
62 621
GA 621
##OL 620
##vez 620
##سع 620
pa 620
participating 620
sought 620
vice 620
سالگی 620
صدر 620
##ff 619
##mist 619
##ulated 619
Before 619
TR 619
assembly 619
reflect 619
turning 619
vital 619
##HI 618
##roga 618
##ریکی 618
links 618
showing 618
عدد 618
##she 617
##sion 617
##sse 617
##دات 617
Bahrain 617
Christian 617
communication 617
ens 617
ps 617
trouble 617
##ver 616
Je 616
V 616
decide 616
listen 616
obtain 616
فرایند 616
مجله 616
##cu 615
##gi 615
##cono 614
##si 614
admitted 614
consequences 614
dream 614
feet 614
net 614
##table 613
Qatar 613
Senate 613
estate 613
married 613
pes 613
reduced 613
solid 613
##bull 612
##het 612
##og 612
##دف 612
criticism 612
kinds 612
medals 612
tech 612
Four 610
euro 610
laid 610
liberal 610
mental 610
option 610
van 610
Spain 609
Yes 609
consumption 609
##ees 608
##mora 608
##power 608
##rated 608
##ress 608
##حیح 608
Allah 608
IT 608
RI 608
retreat 608
tank 608
Si 607
Times 607
absolute 607
emerge 607
methods 607
ongoing 607
منزل 607
##lini 606
wind 606
zones 606
##لوم 605
Rangers 605
allowing 605
broadcast 605
matches 605
NO 604
acting 604
couldn 604
handed 604
principle 604
CE 603
identity 603
participated 603
ratio 603
##ato 602
##ses 602
Don 602
Sri 602
accepted 602
serving 602
آنا 602
##dras 601
##ention 601
Us 601
cards 601
park 601
restrictions 601
شیعه 601
##gator 600
##izing 600
##llo 600
Fat 600
Pi 600
granted 600
فرض 600
##V 599
##duct 599
##rah 599
Nile 599
except 599
hundred 599
resolve 599
ruled 599
##OS 598
##ZA 598
##nu 598
##خاص 598
faced 598
quoted 598
Mus 597
bak 597
bi 597
discussions 597
fly 597
shops 597
warm 597
##kov 596
##اعات 596
##لها 596
1970 596
cold 596
cop 596
degree 596
differences 596
dog 596
je 596
##9 595
##ess 595
appears 595
continuing 595
owner 595
reducing 595
territories 595
victim 595
wave 595
##IG 594
accident 594
spot 594
Clinton 593
seeing 593
tom 593
u 593
##qan 592
Studies 592
causes 591
##kul 590
##raging 590
66 590
Dis 590
hon 590
improved 590
phase 590
punishment 590
caught 589
location 589
player 589
veg 589
Bou 588
Jo 588
char 588
patient 588
##mov 587
##pan 587
coach 587
consul 587
عن 587
##ence 586
##llion 586
judicial 586
unknown 586
##sel 585
Who 585
gathering 585
seize 585
silver 585
##ler 584
Games 584
Sp 584
attributed 584
dum 584
hall 584
protecting 584
seriously 584
##ability 583
##ner 583
64 583
Hu 583
Novo 583
clearly 583
shift 583
##hic 582
##hra 582
##tric 582
intended 582
ja 582
pack 582
partner 582
afternoon 581
bor 581
channel 581
dam 581
immediate 581
write 581
##ria 580
##sia 580
distribution 580
enemy 580
unless 580
مربع 580
##arat 579
##az 579
##bu 579
##ched 579
##ctions 579
##ord 579
competitive 579
institution 579
wear 579
فیلمهای 579
نامیده 579
##jah 578
350 578
neither 578
package 578
زاده 578
فارس 578
gen 577
improvement 577
mark 577
transportation 577
میرزا 577
##4 576
Ana 576
Labour 576
Lanka 576
cha 576
correct 576
count 576
dropped 576
medium 576
mention 576
vision 576
رسم 576
##جاه 575
Mag 575
grand 575
membership 575
rat 575
river 575
vol 575
##ET 574
##ddin 574
delivered 574
halt 574
mon 574
values 574
ژاپنی 574
##dul 573
##ky 573
Rashid 573
affiliated 573
ammunition 573
foundation 573
قیام 573
##MI 572
##pat 572
##vas 572
##برداری 572
collection 572
cubic 572
pretty 572
##act 571
##ivity 571
##rine 571
##rove 571
##صل 571
deals 571
facility 571
focused 571
qua 571
vi 571
رغم 571
##my 570
##timate 570
ناصر 570
##aye 569
##cedent 569
##dicate 569
1960 569
Just 569
Nu 569
dispute 569
initial 569
فقد 569
##pin 568
##ائی 568
1000 568
advisor 568
ale 568
tele 568
##shi 567
##wn 567
Der 567
Drug 567
escaped 567
offen 567
offers 567
seat 567
shock 567
ta 567
اندر 567
##OW 566
##eum 566
consulta 566
massive 566
##sity 565
76 565
Jerusalem 565
interior 565
oka 565
planted 565
##حور 564
extent 564
hung 564
earn 563
extremely 563
fri 563
measure 563
pred 563
requested 563
title 563
unique 563
68 562
Act 562
Medical 562
moral 562
##crat 561
##gree 561
##nation 561
entry 561
fans 561
master 561
withdrawal 561
مراد 561
##IV 560
##guard 560
##lu 560
##timi 560
Can 560
Sultan 560
alle 560
conflicts 560
feeling 560
reactor 560
ton 560
weapon 560
##just 559
##mend 559
Academy 559
River 559
interesting 559
signs 559
sit 559
standard 559
votes 559
تعلق 559
دفع 559
سرانجام 559
##tru 558
certificate 558
cho 558
gathered 558
holy 558
ordinary 558
urban 558
کاربرد 558
Former 557
Maj 557
certainly 557
lies 557
sending 557
soldier 557
Bi 556
Nan 556
Ye 556
cap 556
causing 556
crops 556
med 556
permanent 556
pret 556
sex 556
##hes 555
Pan 555
classes 555
impose 555
officially 555
truck 555
##sian 554
Commercial 554
Scotland 554
celebrate 554
direction 554
worship 554
نده 554
##lov 553
##quate 553
##roe 553
##قول 553
brief 553
flow 553
seemed 553
spirit 553
spite 553
stood 553
##ot 552
##rants 552
Om 552
allegations 552
risks 552
tar 552
##UM 551
##nds 551
Oil 551
Ze 551
ang 551
branch 551
emphasis 551
grown 551
scandal 551
##fere 550
##plaints 550
##شرف 550
Asa 550
ali 550
audience 550
register 550
مسکونی 550
##IB 549
##cca 549
##ining 549
##دههای 549
1967 549
intellectual 549
hair 548
studying 548
##ami 547
##fer 547
##makers 547
67 547
California 547
William 547
Zu 547
applied 547
artists 547
##lal 546
##rap 546
110 546
59 546
Facebook 546
II 546
SI 546
Tan 546
ceiling 546
existence 546
style 546
ترجمه 546
##lla 545
##una 545
Assad 545
Cricket 545
ama 545
au 545
eliminate 545
eventually 545
rising 545
shared 545
telephone 545
writing 545
##yed 544
##ym 544
En 544
##gra 543
Forces 543
attorney 543
decrease 543
fill 543
شعر 543
##EM 542
##aine 542
OP 542
driving 542
losing 542
marketing 542
shoot 542
worker 542
worldwide 542
##rry 541
proposals 541
##hance 540
##tun 540
130 540
Chi 540
Food 540
covered 540
destroy 540
devices 540
electronic 540
guilty 540
hitting 540
##rin 539
Corps 539
Football 539
Mexico 539
bought 539
card 539
consideration 539
reading 539
تفسیر 539
##uz 538
61 538
association 538
monthly 538
numerous 538
p 538
خورشید 538
نفری 538
##eem 537
##gle 537
##hing 537
Jang 537
Therefore 537
chi 537
extend 537
fail 537
perfect 537
ba 536
capable 536
desert 536
inspector 536
invited 536
##bab 535
##fit 535
##outs 535
Several 535
TJ 535
Ti 535
entrepreneur 535
fit 535
larger 535
ranks 535
users 535
##for 534
74 534
aren 534
inflation 534
investigate 534
issu 534
اسی 534
##hal 533
Aves 533
Eastern 533
Land 533
Medi 533
Youth 533
helps 533
##well 532
Khalid 532
Mia 532
blue 532
happens 532
hin 532
pet 532
recovery 532
wearing 532
مشروع 532
amounts 531
aspects 531
clock 531
##erted 530
##روان 530
Culture 530
Damascus 530
Export 530
سب 530
##car 529
##ising 529
##sm 529
##spect 529
career 529
guide 529
kick 529
located 529
vulnerable 529
##ating 528
animals 528
grew 528
representing 528
##coming 527
##dy 527
##fication 527
##ony 527
##tur 527
2020 527
artist 527
compensation 527
elsewhere 527
overall 527
prove 527
Cor 526
Somali 526
motor 526
##NC 525
##imi 525
Airport 525
exist 525
imam 525
perform 525
absence 524
academic 524
division 524
external 524
pri 524
sala 524
##ological 523
End 523
Six 523
euros 523
leads 523
snow 523
##bir 522
##lets 522
Zion 522
da 522
mining 522
proper 522
##ates 521
##cted 521
##ger 521
##جوم 521
Beijing 521
Sami 521
healthy 521
pull 521
##front 520
##صول 520
DO 520
movie 520
seeks 520
sister 520
und 520
دمشق 520
##leri 519
##جاب 519
##زاس 519
prop 519
satellite 519
##ren 518
crop 518
entering 518
obtained 518
royal 518
sons 518
##force 517
Imam 517
arm 517
closer 517
collapse 517
committees 517
fellow 517
mines 517
##cra 516
##ifa 516
##وث 516
Kun 516
opposed 516
solutions 516
widespread 516
لوک 516
##vai 515
cited 515
concept 515
hy 515
whatever 515
##UC 514
##gine 514
##gression 514
##ire 514
contacts 514
responded 514
##cks 513
##lp 513
##بندی 513
69 513
Vice 513
fatal 513
largely 513
objective 513
towns 513
##ib 512
##isal 512
##lg 512
##tar 512
character 512
heading 512
hop 512
jump 512
piece 512
scientists 512
صفر 512
##HC 511
##esh 511
##one 511
##ظهر 511
Economy 511
approximately 511
employment 511
nu 511
stan 511
##sc 510
##تبر 510
Bill 510
Custom 510
enemies 510
qualified 510
surrounding 510
##hib 509
##kes 509
Paul 509
analysis 509
application 509
athletes 509
networks 509
##its 508
##lin 508
##mates 508
##oper 508
##pel 508
##ستون 508
custody 508
symbol 508
treated 508
##hon 507
##mn 507
##ndering 507
##ulo 507
machine 507
Foundation 506
WHO 506
occasion 506
permit 506
sitting 506
stable 506
surrender 506
##me 505
##تصل 505
Sul 505
liquid 505
object 505
voting 505
##EE 504
##ait 504
##sni 504
##ضر 504
Each 504
cea 504
church 504
comparison 504
distributed 504
nic 504
sacrifice 504
##SC 503
##ction 503
##صرف 503
below 503
escala 503
##bours 502
##ji 502
generally 502
instal 502
messages 502
recognize 502
regulations 502
visitors 502
##bo 501
##ogu 501
##ular 501
Directorate 501
Sir 501
ball 501
firms 501
Cop 500
collect 500
customers 500
easily 500
gain 500
theatre 500
Dec 499
Religious 499
UP 499
diplomat 499
##NK 498
##are 498
##ens 498
concerning 498
crossing 498
execution 498
len 498
suspended 498
tip 498
##raid 497
##حث 497
82 497
device 497
fun 497
institute 497
tende 497
##eer 496
##law 496
##no 496
Was 496
bronze 496
hell 496
registration 496
removed 496
##tik 495
##سام 495
1979 495
Greece 495
Media 495
Umar 495
Where 495
cent 495
estimates 495
holds 495
militia 495
profits 495
recover 495
##habilitation 494
Are 494
Hera 494
Petroleum 494
Project 494
increasingly 494
mayor 494
organi 494
os 494
strongly 494
##RD 493
##gni 493
##tili 493
##yo 493
Sal 493
coordination 493
posts 493
signing 493
##hand 492
##ught 492
replace 492
twice 492
##jad 491
##ok 491
##راع 491
Men 491
affirme 491
experienced 491
none 491
visits 491
##ely 490
##تشاف 490
77 490
Fu 490
Grand 490
Northern 490
Nov 490
Spanish 490
##IF 489
##head 489
##ings 489
Op 488
alive 488
courses 488
rival 488
##AC 487
##cept 487
##لار 487
male 487
referendum 487
scheme 487
succeed 487
آواز 487
##lon 486
##yan 486
bridge 486
brothers 486
directors 486
kilo 486
older 486
##iti 485
##wing 485
KZ 485
Services 485
conducting 485
contest 485
factor 485
micro 485
plu 485
sixth 485
thanks 485
types 485
##bles 484
##house 484
##ski 484
AFC 484
Australian 484
Premier 484
Tourism 484
disputes 484
reaction 484
writer 484
73 483
anger 483
atmosphere 483
coal 483
judges 483
##ilitat 482
##ut 482
Amir 482
Ke 482
OK 482
advanced 482
branches 482
missile 482
rally 482
##mpt 481
##stitute 481
##صالح 481
Anthony 481
Canada 481
Cho 481
Il 481
allows 481
rock 481
taught 481
trees 481
watching 481
wins 481
##bang 480
##gri 480
##ice 480
##ru 480
00 480
films 480
formula 480
##cated 479
##ches 479
##ctive 479
##dic 479
##onate 479
Ed 479
championship 479
coast 479
diseases 479
temporary 479
##ily 478
##minat 478
Military 478
Sur 478
drink 478
formation 478
original 478
pump 478
rebel 478
##bs 477
##istic 477
chosen 477
corner 477
electric 477
friendly 477
obstacles 477
##خلاف 476
Club 476
Investigation 476
Second 476
deployed 476
intervention 476
passenger 476
##zov 475
Earl 475
Home 475
Michael 475
Syed 475
bureau 475
opinions 475
##dov 474
##fying 474
Er 474
backed 474
animal 473
manner 473
mer 473
surface 473
ظهور 473
##mad 472
##pone 472
associated 472
ice 472
loyal 472
mutual 472
sugar 472
##وجه 471
Raw 471
bases 471
filed 471
fra 471
assist 470
assistant 470
cool 470
planes 470
syn 470
صلی 470
##pass 469
##ppi 469
##قصر 469
Cooperation 469
manufacturing 469
proved 469
reca 469
spiritual 469
wake 469
##itar 468
##oro 468
86 468
Earth 468
MF 468
employee 468
pictures 468
port 468
psychological 468
##gram 467
##mitting 467
##rim 467
##ub 467
##الدین 467
##جلس 467
160 467
Moreover 467
Once 467
collective 467
consumers 467
contribution 467
involving 467
repair 467
##iz 466
##yar 466
Instead 466
Int 466
emerged 466
foods 466
proud 466
##nore 465
##ppo 465
##tain 465
##time 465
Following 465
Street 465
behalf 465
grave 465
historic 465
##nity 464
Oct 464
blog 464
facilitate 464
keen 464
preventing 464
tied 464
##osti 463
##room 463
Mrs 463
construct 463
funeral 463
rare 463
##night 462
##sters 462
Election 462
Tor 462
channels 462
gap 462
milk 462
##tely 461
Like 461
Sama 461
achieving 461
connected 461
conversation 461
meter 461
prac 461
##yl 460
Hai 460
Morocco 460
Your 460
joining 460
passing 460
posse 460
##san 459
ancient 459
behavior 459
closely 459
تعرف 459
##dko 458
##ency 458
Zhu 458
dress 458
ذو 458
##rren 457
recognition 457
scientist 457
select 457
virus 457
withdraw 457
##mar 456
##up 456
##ust 456
##ution 456
Dir 456
Provincial 456
fan 456
nurse 456
##arian 455
##frontation 455
##yk 455
AT 455
DNA 455
Had 455
bai 455
begins 455
drinking 455
floor 455
missiles 455
section 455
Defense 454
bonds 454
campaigns 454
fought 454
grants 454
journey 454
minimum 454
residence 454
soil 454
sto 454
Barack 453
Five 453
Leader 453
capabilities 453
capture 453
dus 453
##افر 452
Management 452
Va 452
attending 452
ending 452
shelter 452
Yesterday 451
pension 451
sad 451
##ici 450
##ture 450
Port 450
flights 450
processing 450
##cer 449
##gain 449
##hai 449
##lose 449
##ort 449
mono 449
otherwise 449
plays 449
r 449
ring 449
##CA 448
##IM 448
##by 448
James 448
entitled 448
expansion 448
humanity 448
map 448
remove 448
sees 448
supports 448
survivors 448
اصطلاح 448
##hro 447
##ume 447
Members 447
Yusuf 447
kara 447
literature 447
newly 447
صدی 447
##more 446
##ولت 446
Electric 446
Southern 446
gained 446
historical 446
metal 446
specialized 446
species 446
سعد 446
فیصل 446
##duz 445
##ten 445
Mohammed 445
dealt 445
declaration 445
departments 445
rice 445
strict 445
تابع 445
##cott 444
##erance 444
Division 444
Internal 444
Year 444
assessment 444
strange 444
##ph 443
clients 443
ends 443
expensive 443
predicted 443
quick 443
reporting 443
stages 443
##ade 442
##bbi 442
Faro 442
Los 442
traditions 442
wickets 442
مرات 442
##hid 441
##iate 441
##lv 441
450 441
activa 441
conclusion 441
اهالی 441
##sig 440
bio 440
praised 440
recommendations 440
sensitive 440
##ae 439
##cc 439
##cha 439
##vise 439
earth 439
om 439
younger 439
##bai 438
##pted 438
Jews 438
Rahman 438
SAM 438
mail 438
occur 438
overcome 438
transit 438
مساحت 438
##ctat 437
##یقی 437
Industries 437
cup 437
display 437
sky 437
مسعود 437
مما 437
##KI 436
##oy 436
College 436
Rus 436
broken 436
crew 436
payment 436
stake 436
yield 436
##X 435
##ager 435
##bit 435
##ulate 435
##zni 435
81 435
Arabic 435
Green 435
Major 435
Sep 435
dance 435
dra 435
exposed 435
penalty 435
web 435
Criminal 434
Gas 434
method 434
mountains 434
referring 434
solar 434
sport 434
stick 434
##amine 433
##fes 433
##here 433
##هاب 433
JA 433
Mi 433
Nabi 433
award 433
correspondent 433
fate 433
ham 433
intention 433
prevention 433
sufficient 433
180 432
Exchange 432
Kashmir 432
Mad 432
Olympics 432
apparently 432
april 432
hotels 432
moon 432
relatively 432
##dity 431
##rgan 431
advice 431
cells 431
cutting 431
info 431
initiatives 431
plastic 431
secondary 431
##gy 430
##veni 430
Twenty 430
motiv 430
rail 430
ارتفاع 430
##VI 429
##ass 429
ant 429
fashion 429
forth 429
introduce 429
penal 429
provisions 429
وسط 429
##bollah 428
##byl 428
##marks 428
Sinai 428
ear 428
las 428
mani 428
possession 428
telling 428
##RS 427
##ars 427
##git 427
##gula 427
noti 427
version 427
جیمز 427
##vert 426
##دق 426
Ir 426
Mans 426
Town 426
coup 426
extreme 426
fallen 426
familiar 426
preserve 426
starts 426
testi 426
wing 426
##siz 425
Independent 425
divided 425
expression 425
function 425
glass 425
kn 425
لیا 425
##BL 424
##ake 424
##war 424
##حاق 424
donations 424
##INE 423
##bling 423
84 423
Mark 423
actual 423
coverage 423
screen 423
فرود 423
##ished 422
##redi 422
##work 422
Daily 422
Market 422
Urdu 422
ari 422
drawn 422
finals 422
smaller 422
wealth 422
##ical 421
##nsi 421
##ori 421
##ue 421
##unce 421
Besides 421
skill 421
##PR 420
##bban 420
giant 420
hang 420
stabil 420
tradition 420
transferred 420
treaty 420
قم 420
##RC 419
Abi 419
Di 419
Texas 419
eru 419
##ara 418
##bili 418
##iri 418
##posal 418
##tees 418
##wit 418
##ئد 418
Qur 418
default 418
difficulties 418
feed 418
hits 418
inspection 418
maximum 418
slogan 418
##abo 417
##ark 417
##umi 417
##نمو 417
Cl 417
box 417
killer 417
length 417
percentage 417
studied 417
##key 416
##tock 416
Ala 416
FM 416
founded 416
pushed 416
situations 416
volunteers 416
##ory 415
##riate 415
##ros 415
##ugh 415
##vic 415
champion 415
civili 415
constant 415
libera 415
##hta 414
##oon 414
##plus 414
##usa 414
1989 414
93 414
SO 414
Tala 414
brutal 414
discrimination 414
follows 414
oppose 414
posted 414
##IP 413
##late 413
##thi 413
##ult 413
99 413
SEC 413
engaged 413
grounds 413
succeeded 413
uses 413
##AF 412
##arity 412
##rating 412
Summit 412
accusations 412
ena 412
instance 412
presidency 412
آذربایجان 412
خواننده 412
##eal 411
##oes 411
##zy 411
##لری 411
Kuna 411
UAE 411
contributions 411
falling 411
legislative 411
mandate 411
namely 411
ranking 411
regarded 411
relation 411
scholar 411
##TH 410
##dici 410
##ews 410
##fil 410
##ray 410
##ser 410
Anna 410
Corporation 410
Power 410
background 410
stepped 410
useful 410
##child 409
##tra 409
##جنس 409
cinema 409
conviction 409
effectively 409
eno 409
minor 409
operated 409
opponents 409
totally 409
weekly 409
##AA 408
Forum 408
Intelligence 408
Lu 408
Regional 408
UNICEF 408
dea 408
drawing 408
easier 408
founder 408
invitation 408
labor 408
sets 408
shape 408
##erm 407
##imu 407
##mini 407
##ply 407
##rts 407
Ph 407
Speaker 407
Suez 407
asp 407
importe 407
monet 407
options 407
tend 407
اخذ 407
##cket 406
##ined 406
aside 406
filled 406
##CT 405
##gler 405
mechanism 405
replaced 405
software 405
uniform 405
wild 405
لوگ 405
##ering 404
##pper 404
##احل 404
+ 404
Belarus 404
Canadian 404
arrangements 404
flooding 404
papers 404
widely 404
تپه 404
commun 403
investigations 403
seconds 403
خورشیدی 403
##aq 402
Tol 402
articles 402
funded 402
schedule 402
##hum 401
##peri 401
##حف 401
##ژن 401
Dam 401
Support 401
crucial 401
license 401
##ations 400
##cked 400
##cua 400
##ination 400
##rsa 400
guests 400
##of 399
##rmous 399
Relations 399
Ukraine 399
addressed 399
allies 399
arts 399
leaves 399
marked 399
pursue 399
skin 399
technologies 399
tension 399
##iat 398
##ile 398
Championship 398
Mana 398
Yet 398
shi 398
الشباب 398
##mising 397
##posing 397
##ters 397
Robert 397
Un 397
aide 397
confine 397
dele 397
disabled 397
limits 397
sight 397
tackle 397
حضرت 397
##ei 396
##fur 396
##iation 396
71 396
Commissioner 396
barrel 396
criticized 396
false 396
khan 396
profile 396
##UI 395
##tory 395
##شش 395
##عقد 395
78 395
Mira 395
bound 395
catch 395
consumer 395
distance 395
initially 395
loved 395
nur 395
pu 395
regularly 395
##nymi 394
##over 394
Cabinet 394
attempted 394
indicate 394
na 394
phenomenon 394
soft 394
نصف 394
##citing 393
##gue 393
##place 393
97 393
Congo 393
centers 393
collected 393
exception 393
observed 393
##clu 392
##eca 392
##lt 392
##rat 392
barrier 392
boat 392
brand 392
herself 392
rum 392
sharing 392
wars 392
اکبر 392
تیره 392
رسول 392
##ncies 391
##rea 391
##tu 391
##wl 391
##غیر 391
83 391
Amin 391
Upper 391
accompanied 391
expanding 391
pilot 391
##ect 390
##fo 390
##jan 390
Gama 390
PL 390
dates 390
elect 390
venture 390
##vs 389
Senior 389
UNESCO 389
comments 389
lawsuit 389
speciali 389
united 389
##hak 388
##lli 388
##ye 388
##غم 388
dogs 388
formal 388
greatest 388
relative 388
stars 388
##ail 387
##hry 387
##oint 387
##ora 387
Church 387
Dara 387
Fay 387
accuse 387
apart 387
arrival 387
bis 387
unan 387
upper 387
##plained 386
##rac 386
depends 386
gender 386
height 386
obligations 386
payments 386
promotion 386
##ket 385
##mitt 385
Pen 385
onto 385
##aki 384
##enis 384
##ider 384
##lant 384
125 384
98 384
Oh 384
Operation 384
Twitter 384
captain 384
demonstrate 384
sick 384
ایتالیایی 384
##als 383
##ders 383
##ied 383
##itur 383
##keeper 383
##mise 383
##ney 383
##som 383
89 383
Adam 383
cast 383
quiet 383
regardless 383
voted 383
##cce 382
##cta 382
##gres 382
##inite 382
##pur 382
##riot 382
88 382
Nasir 382
grade 382
infection 382
نظریه 382
##RN 381
##cei 381
##pert 381
##yu 381
87 381
Christians 381
ages 381
ser 381
العرب 381
##vestor 380
##ارف 380
Ans 380
Baza 380
Chu 380
Thus 380
advocate 380
bigger 380
elite 380
finish 380
flat 380
minority 380
raids 380
sized 380
##ash 379
##nological 379
##rip 379
##so 379
170 379
Holy 379
Musa 379
assigned 379
bot 379
electoral 379
graduates 379
parent 379
spin 379
testing 379
tree 379
##icate 378
##nor 378
Bay 378
Inc 378
Qu 378
crash 378
handle 378
surge 378
universe 378
vast 378
##cting 377
##ina 377
##viser 377
##wah 377
combined 377
experiment 377
imprisonment 377
pieces 377
quit 377
reputation 377
sor 377
##oni 376
220 376
Mary 376
hidden 376
latter 376
repeated 376
صوت 376
##bud 375
##kir 375
Coast 375
Inspector 375
TB 375
assure 375
followers 375
memory 375
reference 375
shortly 375
turns 375
##hee 374
##orat 374
##ssing 374
##was 374
##رجع 374
Emergency 374
Nigeria 374
Officer 374
Right 374
Sector 374
apartment 374
argued 374
contained 374
entrance 374
rei 374
seventh 374
##graph 373
750 373
cand 373
encouraged 373
generations 373
societies 373
tas 373
جعل 373
##cite 372
##fig 372
##tro 372
PC 372
considers 372
engage 372
gift 372
producers 372
tells 372
witnesses 372
##inted 371
##theless 371
##usly 371
Azerbaijan 371
Et 371
RA 371
fac 371
hoped 371
rooms 371
##bed 370
##fire 370
##nch 370
##pris 370
##rich 370
Nasser 370
Wales 370
drew 370
engineering 370
sim 370
دول 370
##lea 369
91 369
assassinat 369
mechanisms 369
pan 369
ranked 369
reveal 369
ایالتی 369
##ez 368
##iq 368
##now 368
08 368
92 368
Ok 368
Quo 368
Sol 368
acknowledged 368
mortal 368
performed 368
scores 368
tender 368
walking 368
قاسم 368
##cts 367
##ائز 367
##ساعد 367
Aa 367
Para 367
Pol 367
Young 367
closing 367
driven 367
smoke 367
walls 367
میلادی 367
##ias 366
##tal 366
##unsel 366
96 366
Global 366
Life 366
Protection 366
apo 366
behaviour 366
farming 366
generate 366
sustainable 366
##iness 365
##lana 365
##lou 365
Science 365
Tel 365
Uganda 365
aerial 365
ala 365
fie 365
finger 365
provision 365
rent 365
sand 365
se 365
volunteer 365
##ilities 364
##mens 364
##ruption 364
facts 364
farms 364
manage 364
secular 364
tin 364
tu 364
##sides 363
Vladimir 363
bombe 363
burning 363
selected 363
za 363
کندی 363
##hos 362
##ipa 362
1500 362
Hari 362
Mur 362
cleared 362
outbreak 362
realized 362
resignation 362
tools 362
transaction 362
##ered 361
##hah 361
Front 361
Strip 361
indicato 361
photos 361
reviewed 361
tests 361
tire 361
مولانا 361
##vot 360
Moro 360
Sports 360
Will 360
comme 360
flying 360
£ 360
##adow 359
1950 359
79 359
MS 359
Without 359
alcohol 359
edu 359
root 359
ups 359
workshop 359
وسائل 359
##ably 358
##gger 358
##sef 358
Journalist 358
Technology 358
acqua 358
fees 358
lie 358
moves 358
notes 358
trading 358
عمان 358
##hara 357
##kee 357
##uc 357
Bureau 357
CR 357
Georgia 357
NEWS 357
VI 357
beating 357
convoy 357
doors 357
sna 357
successfully 357
آیت 357
##UB 356
##bbed 356
##can 356
##io 356
##نچ 356
Editor 356
Statistics 356
attacking 356
boom 356
brings 356
consultant 356
significantly 356
specifically 356
winner 356
فتح 356
##hea 355
Angeles 355
Greek 355
Mediterranean 355
Shin 355
Transport 355
letters 355
massacre 355
##amma 354
##dish 354
##hus 354
##iza 354
##ozen 354
##ports 354
##upi 354
##yy 354
Executive 354
Kr 354
Um 354
Ve 354
ballot 354
controls 354
craft 354
native 354
origin 354
planet 354
records 354
sponsor 354
##che 353
##pects 353
stores 353
tensions 353
شاعر 353
##eath 352
##ih 352
##itions 352
##rce 352
94 352
Tribune 352
actively 352
div 352
managing 352
recalled 352
reserve 352
restaurant 352
trap 352
travelling 352
جسم 352
درگذشت 352
##bli 351
##parts 351
##pectations 351
##ral 351
AI 351
Kingdom 351
PP 351
b 351
bare 351
blocked 351
businessman 351
color 351
edge 351
expertise 351
hockey 351
languages 351
recommended 351
straight 351
techniques 351
منصور 351
##ana 350
##hin 350
##ingly 350
##kers 350
adults 350
folk 350
locals 350
theory 350
truly 350
لم 350
##ins 349
##lies 349
##uddin 349
Capital 349
Still 349
adds 349
bou 349
possibly 349
q 349
##press 348
##ton 348
Kamal 348
arra 348
exclusive 348
fixed 348
proof 348
scenario 348
split 348
waters 348
جنس 348
رمان 348
##rst 347
##worthy 347
Policy 347
Zimbabwe 347
belief 347
blind 347
bottom 347
courage 347
dramatic 347
dry 347
feels 347
frequently 347
ranging 347
unlikely 347
ایل 347
##bro 346
##tif 346
102 346
Dur 346
OR 346
Watch 346
belong 346
chose 346
magazine 346
prize 346
propaganda 346
trends 346
tribe 346
Kad 345
containing 345
efficient 345
extensive 345
jet 345
sei 345
##hmi 344
##iting 344
DA 344
Sub 344
Tara 344
alongside 344
closure 344
covering 344
neu 344
primarily 344
purposes 344
representation 344
steel 344
suggests 344
##mol 343
##use 343
1981 343
Banque 343
IC 343
beach 343
buried 343
earned 343
king 343
motorcycle 343
##ances 342
##rude 342
DR 342
Har 342
Richard 342
electrical 342
extension 342
heavily 342
moderate 342
radiation 342
survived 342
مطلق 342
##nymous 341
##rita 341
##rol 341
##val 341
Freedom 341
Guard 341
antic 341
destroying 341
evil 341
gradually 341
substantial 341
tr 341
variety 341
##een 340
##eh 340
AU 340
Great 340
Taiwan 340
equality 340
features 340
feelings 340
forming 340
pois 340
repeatedly 340
بنام 340
##demi 339
##ert 339
##kat 339
##oq 339
##vereignty 339
CEO 339
heritage 339
hija 339
organize 339
po 339
publicly 339
routes 339
##fold 338
##oza 338
##ppe 338
##sta 338
##wami 338
Construction 338
dinner 338
honor 338
migration 338
shell 338
verdi 338
websites 338
##bble 337
##ccupy 337
##hani 337
##nant 337
##ously 337
##rba 337
##rge 337
AB 337
Action 337
insisted 337
rape 337
##bby 336
##dans 336
##pot 336
##zir 336
Black 336
Communications 336
Isa 336
celebrated 336
clothing 336
completion 336
lists 336
politically 336
principal 336
resulting 336
roof 336
##نات 335
CS 335
Sen 335
Students 335
creative 335
emotional 335
explanation 335
pat 335
settled 335
window 335
writes 335
##centra 334
##hang 334
##lav 334
##rti 334
breast 334
indication 334
narrow 334
فرانس 334
##gs 333
##lad 333
Mara 333
Square 333
az 333
chances 333
convinced 333
drivers 333
efficiency 333
epi 333
lessons 333
ninth 333
operative 333
smo 333
soul 333
visual 333
اینچ 333
##avi 332
##fected 332
##sur 332
##using 332
##قط 332
Art 332
Bangladesh 332
Nad 332
category 332
critics 332
delivery 332
quantity 332
sac 332
sustained 332
watched 332
فاز 332
##holders 331
##sequently 331
1948 331
1988 331
Lake 331
arch 331
associate 331
baza 331
charity 331
clar 331
components 331
considerable 331
dedicated 331
failing 331
marks 331
preliminary 331
settle 331
##oti 330
##oum 330
##sco 330
##tans 330
Dubai 330
Liberation 330
Post 330
camera 330
equivalent 330
recognized 330
talent 330
##KA 329
##bour 329
##ea 329
##oe 329
##unt 329
Holding 329
Museum 329
Student 329
awarded 329
log 329
quant 329
اسپانیایی 329
لاتین 329
##erg 328
##iving 328
##tera 328
Network 328
Staff 328
el 328
grass 328
locations 328
organiser 328
stretch 328
universal 328
zero 328
منتخب 328
##jo 327
##lor 327
Mai 327
Region 327
Tom 327
ash 327
frequent 327
selection 327
sin 327
بعدها 327
##sci 326
##وطن 326
BR 326
Ce 326
Jun 326
MT 326
NT 326
operational 326
wood 326
##ussa 325
Dil 325
Swiss 325
elder 325
fur 325
intensive 325
listed 325
thi 325
زبانهای 325
##ema 324
##ication 324
##obe 324
##sk 324
##رداد 324
##نصر 324
Bach 324
Hot 324
Resources 324
burned 324
instant 324
stal 324
stronger 324
survive 324
جدول 324
متری 324
##aming 323
##cum 323
##ild 323
##ime 323
##later 323
##lis 323
##rani 323
##vested 323
Ireland 323
NB 323
Parti 323
achievements 323
arrive 323
defending 323
drove 323
eighth 323
hosted 323
mouth 323
theme 323
veri 323
welfare 323
##ano 322
##ard 322
##bber 322
##hul 322
Florida 322
badly 322
disse 322
illness 322
instruments 322
maintenance 322
mobil 322
separat 322
##ane 321
##ept 321
##lling 321
##ome 321
##rar 321
##sted 321
##vey 321
Aman 321
Assistant 321
Hakim 321
Ministers 321
TU 321
etc 321
examination 321
favorite 321
invasion 321
machines 321
neighbourhood 321
neutral 321
pupils 321
##cle 320
##pon 320
##urn 320
Akbar 320
Indonesia 320
Ram 320
beauty 320
equipped 320
opens 320
opp 320
protocol 320
} 320
##fiq 319
##ida 319
##plicit 319
##rese 319
##spects 319
##udi 319
##yn 319
Up 319
claiming 319
indeed 319
responsibilities 319
subjects 319
upcoming 319
ward 319
www 319
{ 319
##cating 318
##ntation 318
##sol 318
##tima 318
complicated 318
discover 318
silence 318
##afa 317
##fect 317
##hood 317
##inate 317
##kin 317
##ouse 317
##posit 317
##quiry 317
1st 317
Doctor 317
Norway 317
applications 317
controversial 317
degrees 317
forcing 317
gate 317
installed 317
##rza 316
##used 316
1982 316
Eight 316
Jamal 316
band 316
governance 316
precise 316
prevented 316
سوق 316
##dere 315
##ote 315
##sen 315
##tul 315
##zen 315
##فرد 315
09 315
Han 315
Zo 315
bet 315
determination 315
finds 315
grid 315
horse 315
personally 315
resigned 315
shoulder 315
##lda 314
##ops 314
##ption 314
##ras 314
##سس 314
Queen 314
breaking 314
favor 314
multiple 314
n 314
permission 314
producer 314
tape 314
##bing 313
##voy 313
Car 313
argument 313
bun 313
lots 313
throw 313
##mna 312
##smen 312
##sun 312
##علوم 312
categories 312
fraud 312
poc 312
pulled 312
songs 312
surgery 312
##clin 311
##kor 311
##uine 311
##اجد 311
##فرق 311
Haiti 311
Sus 311
Telecom 311
bene 311
bright 311
eating 311
exhibit 311
integrated 311
outcome 311
resource 311
routine 311
stayed 311
threw 311
ultimately 311
کارگردان 311
##lers 310
##que 310
##ull 310
Cove 310
Emirates 310
GR 310
dismissed 310
educated 310
empty 310
museum 310
rapid 310
researchers 310
roughly 310
##ery 309
##hme 309
##mis 309
240 309
Bob 309
Financial 309
Mexican 309
Pal 309
achievement 309
backing 309
entirely 309
explains 309
inspired 309
چشمه 309
کیا 309
##CO 308
##bat 308
##ock 308
##ool 308
##ore 308
##sive 308
##علان 308
Haji 308
Salim 308
Seven 308
Tak 308
reservoir 308
smart 308
##AM 307
##cco 307
##evi 307
##mir 307
##nded 307
##nis 307
##pensa 307
1986 307
Resident 307
Scottish 307
Though 307
accurate 307
cargo 307
concession 307
exile 307
experiences 307
fruits 307
kar 307
library 307
lit 307
mar 307
wei 307
معماری 307
##ath 306
##fortable 306
##has 306
##lay 306
##lih 306
##tam 306
Constitution 306
Stock 306
digital 306
economica 306
ideal 306
pool 306
settlements 306
speaker 306
منه 306
##arm 305
##ati 305
##illing 305
##sas 305
##sser 305
1973 305
aged 305
agent 305
concrete 305
furniture 305
remarkable 305
riding 305
seeds 305
دیلی 305
##bet 304
##bul 304
##nk 304
##sar 304
##set 304
GE 304
Park 304
adoption 304
bal 304
missions 304
pure 304
rifle 304
sessions 304
song 304
##oo 303
IR 303
Super 303
arena 303
climb 303
concert 303
contains 303
popularity 303
##lighted 302
##nyo 302
##سوم 302
Ari 302
Canal 302
Ethiopia 302
Pat 302
Tha 302
competing 302
computers 302
dir 302
distinguished 302
du 302
nationalist 302
religions 302
repeat 302
saved 302
switch 302
transparent 302
##cations 301
##dition 301
##mb 301
##riga 301
##rus 301
##sita 301
Ariel 301
EN 301
Hundred 301
Martin 301
Ser 301
Tal 301
coincide 301
forest 301
interference 301
output 301
stream 301
##emos 300
##fr 300
##mer 300
##nite 300
##raz 300
##vation 300
115 300
3000 300
Delta 300
Nor 300
Thousand 300
coordinate 300
deeply 300
flowers 300
perspective 300
toy 300
trucks 300
##SA 299
##ivation 299
Po 299
Speak 299
copy 299
departure 299
jointly 299
lab 299
proceeds 299
properly 299
signature 299
surrendered 299
surveillance 299
##eti 298
##mano 298
##rou 298
Cameron 298
centuries 298
circles 298
extraordinary 298
integration 298
objectives 298
ownership 298
publication 298
returns 298
structures 298
valued 298
##OC 297
##ang 297
##sible 297
##تقدم 297
112 297
Festival 297
Workers 297
collecting 297
firing 297
involve 297
par 297
squad 297
stone 297
ادبیات 297
تعلیم 297
پادشاهی 297
##isfaction 296
##لاند 296
Anwar 296
CP 296
Ol 296
Prophet 296
accord 296
destination 296
opposite 296
picked 296
poet 296
premier 296
prof 296
proven 296
restored 296
##los 295
##زمن 295
650 295
Real 295
continuat 295
executed 295
fishing 295
probe 295
##cited 294
##going 294
##para 294
Hindu 294
IA 294
assai 294
disappeared 294
leg 294
performing 294
retired 294
sol 294
topic 294
##active 293
##cula 293
Eng 293
Hong 293
ICC 293
affiliate 293
neighborhood 293
shopping 293
underground 293
##old 292
5000 292
Alliance 292
Eurasia 292
Ms 292
kilometers 292
maintaining 292
necessarily 292
##GI 291
##cisive 291
##dati 291
##hem 291
##ikh 291
##lift 291
##اعد 291
2016 291
Article 291
Good 291
Wall 291
professionals 291
refer 291
suddenly 291
transform 291
tro 291
##HS 290
##gret 290
##ssed 290
##water 290
BD 290
Hang 290
Kong 290
Winter 290
controlling 290
fewer 290
freight 290
injury 290
transmission 290
##asure 289
##cri 289
##ecta 289
##grat 289
##rious 289
##rush 289
##tt 289
CIA 289
Habib 289
Others 289
Sam 289
cancelled 289
dominated 289
eli 289
engineer 289
servant 289
sphere 289
tool 289
##ardi 288
##eo 288
##mann 288
##ression 288
##ulat 288
##ump 288
Bot 288
estimate 288
indicating 288
models 288
pin 288
plus 288
singer 288
suitable 288
##ams 287
##awa 287
##den 287
##open 287
##باط 287
2017 287
Khi 287
Sana 287
Sau 287
Top 287
contrast 287
greatly 287
overseas 287
stadium 287
##ele 286
##gic 286
##iner 286
##itation 286
##pense 286
Mustafa 286
coffee 286
core 286
foi 286
slowly 286
trains 286
##armaceutical 285
##erate 285
##gen 285
##ick 285
##perate 285
##uma 285
Camp 285
Lt 285
aggressive 285
assume 285
bench 285
immigration 285
tab 285
trauma 285
تعد 285
##ein 284
##hale 284
##rf 284
##rmed 284
battles 284
conclude 284
documentary 284
innovation 284
refuse 284
tasks 284
understood 284
نقص 284
##ove 283
##rian 283
105 283
Sang 283
constantly 283
detailed 283
elderly 283
keeps 283
lock 283
meg 283
nominated 283
pregnant 283
reso 283
ذات 283
##aging 282
##hut 282
##luat 282
##nti 282
##oz 282
Abbott 282
FBI 282
Planning 282
clubs 282
installations 282
pair 282
terrible 282
versus 282
##bies 281
##ene 281
##lul 281
##riat 281
##zer 281
Ken 281
Nobody 281
bol 281
chaos 281
dad 281
exists 281
lt 281
procedure 281
socio 281
trick 281
uno 281
##cho 280
##ition 280
##tici 280
##wis 280
##قدس 280
##هات 280
1975 280
Aya 280
CC 280
Cultural 280
Malaysia 280
hun 280
minori 280
resolved 280
##SP 279
##gul 279
##rse 279
##ssa 279
1987 279
Brown 279
Embassy 279
Lady 279
collaboration 279
rises 279
speaks 279
sponsored 279
tan 279
##building 278
##hod 278
##ker 278
##scription 278
##taw 278
BY 278
connect 278
contributing 278
indicates 278
july 278
row 278
storage 278
tested 278
##DO 277
##amo 277
##enty 277
##let 277
06 277
Shanghai 277
abandon 277
aut 277
describe 277
nationality 277
passion 277
poetry 277
seal 277
sole 277
##cious 276
##nder 276
##pair 276
##parti 276
Mama 276
Mel 276
Mosque 276
Palace 276
Plan 276
Professor 276
Sid 276
Th 276
criticised 276
enjoyed 276
expanded 276
manufacture 276
organ 276
slightly 276
solely 276
##eth 275
##nces 275
##vite 275
##wad 275
##wil 275
##zhi 275
Bomb 275
Station 275
excellent 275
introduction 275
panel 275
prohibited 275
segment 275
##back 274
##dro 274
##ivi 274
##oc 274
##wal 274
Bil 274
Family 274
Kai 274
Lower 274
attempting 274
decreased 274
diversity 274
intense 274
rapidly 274
significance 274
surrounded 274
taste 274
##aries 273
##ffers 273
##zers 273
Ob 273
Opposition 273
Recent 273
airs 273
appearance 273
convert 273
defined 273
depth 273
diverse 273
frame 273
internationally 273
strategies 273
##hair 272
##hav 272
##nia 272
##rmin 272
##sation 272
##vel 272
##ردو 272
Akt 272
Del 272
GS 272
Presidential 272
Tokyo 272
genetic 272
propose 272
##chas 271
##ehn 271
##htar 271
##lined 271
##list 271
Monetary 271
Sari 271
carbon 271
congressional 271
delayed 271
demonstrated 271
employer 271
flash 271
publish 271
##grad 270
##nate 270
##veri 270
Cross 270
Hotel 270
Len 270
Switzerland 270
Unfortunately 270
devoted 270
league 270
petition 270
prince 270
relie 270
usual 270
##ach 269
##fs 269
##ional 269
##ntial 269
##penses 269
##ssi 269
##the 269
##top 269
##usal 269
##vern 269
Charles 269
Mayor 269
Trust 269
divide 269
fede 269
instructions 269
moun 269
passes 269
ride 269
unions 269
##AG 268
##van 268
##زف 268
Chambers 268
Commander 268
Kim 268
artistic 268
china 268
extending 268
protected 268
##ahi 267
##berg 267
##board 267
##ego 267
##iled 267
##lys 267
Aug 267
Joint 267
Sciences 267
buses 267
canal 267
chapter 267
commissione 267
falls 267
receives 267
serves 267
sil 267
voiced 267
##lls 266
##oke 266
##ئر 266
230 266
Time 266
Ut 266
bearing 266
desta 266
disputed 266
##ception 265
##ell 265
##ghi 265
##hou 265
##mpo 265
##rvi 265
Alexander 265
Environment 265
Gol 265
Tai 265
Too 265
USD 265
Zealand 265
cameras 265
linking 265
pace 265
restoration 265
stem 265
مارچ 265
##cto 264
##eague 264
##mant 264
##mic 264
##ris 264
##tude 264
##ual 264
##while 264
##دیر 264
103 264
Din 264
Lord 264
argue 264
bowl 264
compiled 264
inhabitants 264
severely 264
tries 264
##ffa 263
##lax 263
##ruz 263
##tani 263
Kate 263
MW 263
Raja 263
Test 263
Until 263
Ward 263
criteria 263
findings 263
influential 263
nose 263
plain 263
##arch 262
##cap 262
##duction 262
##eet 262
##hart 262
##num 262
##tol 262
Declaration 262
KO 262
Nei 262
Norwegian 262
Peter 262
Vi 262
graduate 262
researcher 262
silent 262
tanks 262
taxi 262
visa 262
##lord 261
##lya 261
##فصل 261
##قالات 261
Agreement 261
Fr 261
Hasan 261
Vo 261
Zone 261
actors 261
ap 261
belt 261
cache 261
conferences 261
cont 261
eng 261
reflects 261
sal 261
وصل 261
##KS 260
##ack 260
##anc 260
##cher 260
##nan 260
##nian 260
##read 260
##tica 260
##zur 260
##ضم 260
Bab 260
Itt 260
Long 260
Member 260
abandoned 260
continent 260
hai 260
instructor 260
knowing 260
maintained 260
musical 260
palace 260
processi 260
temp 260
قریب 260
##cycle 259
##off 259
##umption 259
##yra 259
Housing 259
Industrial 259
See 259
Within 259
convince 259
detail 259
dreams 259
gains 259
infant 259
reflected 259
shed 259
##band 258
##ending 258
##oi 258
##oli 258
##rupted 258
##tika 258
##uns 258
##فاع 258
190 258
Armed 258
Rwanda 258
Star 258
asks 258
autumn 258
bro 258
journalism 258
motive 258
municipal 258
sheet 258
soa 258
whereas 258
##bin 257
##ledge 257
##یث 257
1978 257
Fl 257
Res 257
Rupert 257
capita 257
chronic 257
domain 257
entity 257
fighter 257
logic 257
parallel 257
pave 257
puts 257
tornado 257
##aat 256
##bot 256
##each 256
##fficial 256
##iba 256
##ife 256
##rily 256
##roc 256
Chicago 256
Crime 256
Dutch 256
Ming 256
Rad 256
Reform 256
Revolution 256
Treaty 256
apparent 256
entertainment 256
odd 256
politician 256
reaches 256
reas 256
renewed 256
shu 256
striking 256
string 256
##bak 255
##fast 255
##hol 255
##ira 255
##isfied 255
##mand 255
##ologist 255
##قبل 255
County 255
crossed 255
fines 255
lasted 255
publications 255
retain 255
roots 255
tactics 255
upgrade 255
ایک 255
سردار 255
##eci 254
##rowing 254
##yal 254
Chris 254
Mer 254
Near 254
academy 254
convention 254
corporate 254
governing 254
initiated 254
introducing 254
miss 254
mixed 254
pani 254
portion 254
proceedings 254
readers 254
relationships 254
supervision 254
sweet 254
unusual 254
دیس 254
##ima 253
##rab 253
##tics 253
##wards 253
ES 253
Higher 253
Royal 253
Tem 253
absent 253
acquire 253
citizenship 253
examples 253
focusing 253
india 253
mere 253
ships 253
tsunami 253
سرشماری 253
##app 252
##bn 252
##chang 252
##cute 252
##fan 252
##istance 252
##rra 252
##ssin 252
104 252
Big 252
Corp 252
Es 252
Judge 252
Report 252
Trans 252
X 252
ah 252
differ 252
diploma 252
household 252
wheel 252
##NO 251
##bba 251
##ckets 251
##hot 251
##isti 251
##nel 251
##nna 251
##ologists 251
##plane 251
##rali 251
##زال 251
##وتا 251
101 251
Open 251
Secretaria 251
garden 251
gross 251
mask 251
observe 251
questioned 251
##dino 250
##field 250
##ror 250
##usion 250
Child 250
Confederation 250
Finally 250
Harry 250
approaches 250
crise 250
critici 250
diet 250
le 250
profession 250
shore 250
##kt 249
##lau 249
##lied 249
##mber 249
##ob 249
1983 249
senator 249
shirt 249
unde 249
##ocide 248
##slim 248
##tch 248
Hall 248
earning 248
mari 248
originally 248
periodi 248
print 248
salary 248
vir 248
wire 248
##mble 247
##vile 247
Constitutional 247
Inde 247
exact 247
marry 247
symptoms 247
قائم 247
##diq 246
##idat 246
##lude 246
##pil 246
##tati 246
##visor 246
##واج 246
Furthermore 246
ben 246
carries 246
celebra 246
copies 246
cos 246
cultures 246
daughters 246
exploration 246
farmer 246
fault 246
processes 246
##alia 245
##cide 245
##hari 245
##how 245
##rk 245
##uce 245
Eritrea 245
HS 245
Mat 245
Take 245
Tax 245
attractive 245
belonged 245
deb 245
describing 245
donat 245
gala 245
guest 245
pm 245
pol 245
roll 245
strain 245
valuable 245
##cl 244
##fall 244
##fuge 244
##nger 244
##versi 244
Arizona 244
Madrid 244
Ou 244
Superintendent 244
advertising 244
lying 244
marking 244
reverse 244
score 244
##aba 243
##aro 243
##ule 243
##yard 243
##تصال 243
Fort 243
Reagan 243
evaluation 243
margin 243
rulers 243
sk 243
unclear 243
خانوار 243
##bik 242
##hti 242
##lian 242
##lle 242
##plant 242
Mal 242
Moore 242
Representative 242
chain 242
characters 242
consensus 242
hab 242
prompted 242
veterans 242
سریال 242
##gged 241
##gun 241
##ija 241
##irect 241
##ld 241
##logy 241
10000 241
Aid 241
Ars 241
PT 241
der 241
examined 241
hole 241
instrument 241
leaf 241
legs 241
mal 241
oriented 241
wine 241
هنرپیشه 241
##dge 240
##gil 240
##haus 240
##preme 240
Ci 240
Delhi 240
Maybe 240
adult 240
associations 240
colleges 240
involves 240
kur 240
regulation 240
rounds 240
thirty 240
thu 240
tune 240
##asu 239
##fus 239
##tling 239
Later 239
MM 239
Powell 239
SS 239
Sometimes 239
Strategic 239
advised 239
campus 239
column 239
continuous 239
curriculum 239
difficulty 239
exit 239
recognised 239
retail 239
scholarship 239
seed 239
strip 239
virtually 239
##ctors 238
##ites 238
##tles 238
Enterprise 238
Nine 238
Pacific 238
Population 238
drag 238
eu 238
proportion 238
tobacco 238
##bb 237
##bri 237
##flow 237
##gate 237
##int 237
##lement 237
##pta 237
##ron 237
##test 237
Representatives 237
cycle 237
musicians 237
pistol 237
praise 237
rivers 237
مواقع 237
##chen 236
##forced 236
##hdi 236
270 236
Cher 236
Independence 236
None 236
cloud 236
corps 236
economie 236
index 236
lady 236
poster 236
sounds 236
ster 236
tone 236
topics 236
uncertain 236
voices 236
windows 236
##atte 235
##eb 235
##lema 235
##mura 235
##ndum 235
Parliamentary 235
alma 235
conta 235
domina 235
engine 235
engineers 235
functions 235
golden 235
lake 235
novel 235
pattern 235
por 235
##50 234
##ator 234
##life 234
##oline 234
##position 234
##wood 234
Brazil 234
Colony 234
Communist 234
Dos 234
IEC 234
handling 234
id 234
photographs 234
rank 234
wishes 234
برگزار 234
##rits 233
##tation 233
##untary 233
##wai 233
##wise 233
##xie 233
Jean 233
Look 233
Next 233
Rom 233
birthday 233
ev 233
hel 233
jam 233
openly 233
physician 233
reserva 233
shifted 233
sudden 233
valid 233
##dly 232
##ksi 232
##ours 232
##rodu 232
##see 232
##ware 232
##zza 232
Mumbai 232
Romania 232
Sada 232
basin 232
controversy 232
endorsed 232
interpretation 232
pla 232
relating 232
restricted 232
توماس 232
##ais 231
##bilis 231
##state 231
##uter 231
Christmas 231
Did 231
Persian 231
Sara 231
Situation 231
Syn 231
Tim 231
disorder 231
isolated 231
landscape 231
literally 231
magic 231
organise 231
ports 231
ter 231
tie 231
twin 231
ty 231
vocation 231
قلعه 231
##CC 230
##erated 230
##gates 230
##mona 230
##stru 230
##uri 230
Nuclear 230
Oslo 230
Wi 230
depende 230
es 230
friendship 230
mag 230
ocean 230
pages 230
passage 230
rescued 230
trainer 230
turno 230
um 230
الحق 230
##bric 229
##ddle 229
##gage 229
##ingen 229
##kr 229
##teen 229
##trition 229
##wart 229
##wer 229
Def 229
Mata 229
Program 229
administered 229
aspect 229
commerce 229
equally 229
formerly 229
hem 229
##cti 228
##dne 228
##herent 228
##iding 228
##iet 228
##isten 228
##ridor 228
##rom 228
##thy 228
Armenian 228
Gold 228
Old 228
Thailand 228
banner 228
dying 228
gaining 228
impression 228
math 228
movies 228
##full 227
##lab 227
##ley 227
##mation 227
##pera 227
##poly 227
##sey 227
##tructed 227
1985 227
Atlanta 227
HP 227
Salah 227
childhood 227
hau 227
item 227
objects 227
peak 227
provoca 227
فان 227
محسن 227
##bala 226
##inte 226
##mou 226
##quis 226
##rre 226
##sies 226
##tago 226
##xpected 226
Island 226
Net 226
Out 226
Tea 226
accidents 226
competitions 226
credits 226
er 226
orientation 226
resto 226
##000 225
##ear 225
##emi 225
##gare 225
##long 225
##sla 225
##ulation 225
##win 225
##zim 225
##قاط 225
Aviv 225
EL 225
Pope 225
Yo 225
attracted 225
broadcasting 225
corresponding 225
inde 225
potentially 225
restaurants 225
##19 224
##books 224
##tract 224
##ui 224
##طاع 224
##لاری 224
Agricultural 224
Ez 224
Mirza 224
Third 224
challenging 224
collapsed 224
contemporary 224
drainage 224
label 224
operates 224
sing 224
suspension 224
traveling 224
vei 224
صفحات 224
##bari 223
##ctic 223
##date 223
##sure 223
##vid 223
##ثار 223
##هاست 223
280 223
Kennedy 223
Nation 223
TM 223
Wan 223
emissions 223
fifteen 223
lowest 223
normally 223
retirement 223
trials 223
##SF 222
##cribed 222
##dai 222
##rkan 222
##stu 222
##vio 222
##جمهور 222
Banks 222
Maria 222
Salman 222
cents 222
covers 222
dancing 222
fost 222
lade 222
manufacturers 222
pays 222
platform 222
resumed 222
videos 222
##20 221
##iant 221
##idd 221
##ila 221
##ino 221
##rity 221
##uf 221
##zzle 221
##متاز 221
##ناب 221
Johnson 221
Lee 221
Mass 221
Ryan 221
definition 221
eliminated 221
feature 221
holder 221
liber 221
literacy 221
oldest 221
quarters 221
tail 221
thrown 221
wise 221
##200 220
##MS 220
##barra 220
##cro 220
##gbo 220
##mel 220
##mines 220
##weight 220
Cu 220
ED 220
Ford 220
Jones 220
Med 220
Rana 220
intentions 220
load 220
pour 220
secretari 220
soccer 220
##book 219
##ching 219
##cking 219
##vent 219
Dan 219
Natural 219
Reading 219
automatic 219
boxes 219
charter 219
doubles 219
humans 219
owns 219
prese 219
supplied 219
##bah 218
##ited 218
##mu 218
##ono 218
##uck 218
Colonel 218
Price 218
Sept 218
Violence 218
Wo 218
actor 218
depending 218
faster 218
pia 218
residential 218
siege 218
vend 218
##cea 217
##ctor 217
##ront 217
##wei 217
106 217
135 217
1976 217
Charter 217
Community 217
GPS 217
Jose 217
explore 217
managers 217
manufactured 217
nomination 217
outra 217
winners 217
##dog 216
##ets 216
##ffle 216
##kki 216
##maker 216
Age 216
Amman 216
Euro 216
Gara 216
Geneva 216
Television 216
bitter 216
cruel 216
deployment 216
exhibitions 216
immigrants 216
lod 216
respected 216
salt 216
walks 216
فیلمها 216
##eping 215
##hida 215
##hn 215
##inat 215
##mbe 215
##nikov 215
##rum 215
##فورد 215
Czech 215
Hal 215
Joseph 215
Modern 215
Ukrainian 215
Vis 215
ak 215
colour 215
improvements 215
ku 215
outstanding 215
paintings 215
pollution 215
surgeon 215
عمرو 215
##NY 214
##dite 214
##ister 214
##tha 214
117 214
131 214
Agent 214
Having 214
Journal 214
Main 214
census 214
database 214
fare 214
kilometer 214
locally 214
obtaining 214
produces 214
scope 214
stolen 214
veteran 214
widow 214
##VA 213
##iration 213
##uti 213
Arabian 213
Tank 213
Vietnam 213
curta 213
emerging 213
engagement 213
fires 213
imprisoned 213
indigenous 213
islands 213
jury 213
loc 213
memorial 213
presentation 213
qualify 213
som 213
tall 213
territorial 213
yu 213
##dication 212
##ksa 212
##logist 212
##pti 212
02 212
Ama 212
Andrew 212
Atlantic 212
Elizabeth 212
economics 212
fairly 212
h 212
perse 212
pursuit 212
racial 212
z 212
##dering 211
##iter 211
##post 211
##roa 211
##sir 211
##sis 211
##unde 211
##urities 211
260 211
Almost 211
FAO 211
Faculty 211
Fighting 211
Have 211
Initiative 211
MD 211
acquired 211
agrees 211
attached 211
beaten 211
feeding 211
kitchen 211
peer 211
tenth 211
##ggere 210
##onstruction 210
##ook 210
##rable 210
##tration 210
Airlines 210
Mother 210
Observer 210
Patria 210
System 210
Team 210
Thomas 210
Yun 210
abu 210
awards 210
hub 210
luxury 210
qualifying 210
terminal 210
vest 210
##acher 209
##ata 209
##iers 209
##print 209
##sr 209
##wind 209
550 209
Ami 209
Jack 209
Jin 209
Protocol 209
Putin 209
Rai 209
Sources 209
alternatives 209
bird 209
concentrated 209
dependent 209
memories 209
ner 209
offs 209
pride 209
signal 209
فلسفه 209
##eba 208
##lica 208
##lot 208
##osing 208
##pliance 208
##rdi 208
114 208
175 208
ABC 208
CN 208
DC 208
Fate 208
Sm 208
Tag 208
bel 208
lasting 208
maternal 208
بلندی 208
##UP 207
##atul 207
##gad 207
##kas 207
##oat 207
##pati 207
##rator 207
##uari 207
##visi 207
##غرب 207
Kap 207
Latin 207
Sweden 207
Venezuela 207
alien 207
beliefs 207
commentary 207
element 207
hectares 207
legally 207
ni 207
notion 207
oa 207
periods 207
singing 207
##bon 206
##ceded 206
##cky 206
##ku 206
##lut 206
##met 206
##nted 206
##oul 206
##ree 206
##unta 206
##zada 206
ANC 206
Oman 206
SW 206
defeating 206
ende 206
hosts 206
machinery 206
moments 206
scenes 206
spoken 206
##cture 205
##gma 205
##got 205
107 205
Commonwealth 205
ET 205
Ray 205
biological 205
bridges 205
dama 205
geographical 205
hired 205
mix 205
occasions 205
relay 205
wider 205
##acy 204
##ale 204
##bye 204
##cussion 204
##diction 204
##ffe 204
##gist 204
##lera 204
##nda 204
##nou 204
##oom 204
##sor 204
##tral 204
##vous 204
##wr 204
##yers 204
##ylum 204
Aki 204
Body 204
acted 204
administrator 204
boxing 204
circle 204
comprised 204
define 204
diversi 204
kilometres 204
laboratory 204
libraries 204
removal 204
staged 204
unveiled 204
writers 204
ابن 204
شیمی 204
فارسی 204
##ada 203
##born 203
##don 203
##emble 203
##ghing 203
##hun 203
##ili 203
##kushima 203
##ures 203
Cai 203
Millennium 203
Seri 203
accessible 203
excessive 203
focuses 203
hosting 203
professors 203
therapy 203
ti 203
##ffin 202
##ghed 202
##lide 202
##sht 202
##ugu 202
##قطع 202
1964 202
2nd 202
Aby 202
Does 202
Heritage 202
Labor 202
Medvedev 202
Meeting 202
Qi 202
Rescue 202
aviation 202
combination 202
depression 202
hostile 202
kabul 202
licence 202
lifestyle 202
neck 202
pilots 202
random 202
secured 202
survival 202
unlike 202
visible 202
عهد 202
##HT 201
##mach 201
##nas 201
##nated 201
##oor 201
##rel 201
##tress 201
##vin 201
##ارب 201
##مبر 201
111 201
Brussels 201
Champions 201
Dad 201
Rather 201
Smith 201
Yer 201
artificial 201
ch 201
eleven 201
incumbent 201
ware 201
##bur 200
##chan 200
##hur 200
##kka 200
##qual 200
##sort 200
##tted 200
1977 200
2500 200
330 200
Adi 200
Murad 200
Unknown 200
bacteria 200
comprising 200
cousin 200
dancer 200
employed 200
formally 200
merely 200
parade 200
removing 200
resp 200
sheep 200
##ank 199
##hov 199
##iling 199
##mps 199
##orse 199
##phis 199
##rimi 199
##rist 199
##riti 199
##اث 199
07 199
= 199
Arts 199
Belgium 199
History 199
asta 199
breaks 199
clan 199
confusion 199
creates 199
elimination 199
flew 199
gi 199
isolation 199
kant 199
missed 199
momentum 199
paint 199
transported 199
حول 199
##amar 198
##inato 198
##lala 198
##rak 198
##sim 198
##sky 198
Change 198
Got 198
Ima 198
authors 198
circulation 198
dating 198
founding 198
generated 198
mise 198
publishing 198
sens 198
stones 198
رمز 198
##dab 197
##mination 197
##pelle 197
##shing 197
##ually 197
##wari 197
##xin 197
05 197
145 197
FAA 197
SN 197
Wein 197
boss 197
landed 197
lights 197
painted 197
roles 197
ادبی 197
الاتحاد 197
##abi 196
##gui 196
##mate 196
##ow 196
##puls 196
##tz 196
##فاق 196
4000 196
Address 196
Ankara 196
Catholic 196
Complex 196
Levi 196
admission 196
conspiracy 196
couples 196
dil 196
fever 196
files 196
gent 196
grandfather 196
nights 196
possibili 196
precio 196
scoring 196
voter 196
##anu 195
##logi 195
##medi 195
##mony 195
##qua 195
##rang 195
Aga 195
Kot 195
Lag 195
acid 195
designated 195
entities 195
hunting 195
personality 195
promoted 195
temperatures 195
##atta 194
##iga 194
##ried 194
##tte 194
##viet 194
##ارات 194
1974 194
320 194
Administrative 194
Cap 194
Contra 194
Dia 194
NS 194
Ocean 194
Soc 194
accommodate 194
aust 194
availability 194
belongs 194
cadre 194
cartoon 194
concepts 194
hire 194
makers 194
mile 194
modest 194
qualifier 194
reliable 194
smooth 194
suggesting 194
wealthy 194
##ini 193
##lue 193
##mot 193
##nya 193
##par 193
##wel 193
##صادر 193
Au 193
Dai 193
Xi 193
arranged 193
connections 193
evo 193
magnitude 193
motion 193
partly 193
swimming 193
topped 193
wrestling 193
##agg 192
##aid 192
##cella 192
##chy 192
##hom 192
##lb 192
##nali 192
##ordinator 192
##plice 192
##til 192
##ute 192
108 192
Audi 192
EA 192
Mike 192
Mon 192
assumed 192
boot 192
dem 192
exposure 192
ترانه 192
##AP 191
##bte 191
##ustration 191
##vacy 191
##yat 191
116 191
1200 191
144 191
1972 191
Ale 191
Bel 191
Currently 191
Hy 191
Matt 191
Romanian 191
blu 191
client 191
ele 191
milieu 191
mos 191
paral 191
sporting 191
subsequent 191
##EP 190
##gence 190
##ically 190
##mur 190
##reat 190
##yas 190
##اته 190
360 190
Ain 190
Aviation 190
Between 190
CL 190
Feb 190
Mali 190
Tam 190
divorce 190
eligible 190
meets 190
rak 190
recording 190
shots 190
tim 190
یونانی 190
##avour 189
##eries 189
##fu 189
##hau 189
##juana 189
##lak 189
##lands 189
##len 189
##lia 189
##mail 189
##real 189
##riy 189
##wall 189
##zara 189
##zard 189
Back 189
GC 189
Reports 189
ado 189
birds 189
describes 189
genera 189
murdered 189
muscle 189
presents 189
reactions 189
tennis 189
torn 189
tracks 189
##30 188
##LD 188
##erti 188
##haf 188
##lyi 188
##phone 188
##pou 188
##zu 188
##اول 188
##قوب 188
PAL 188
Person 188
Qua 188
Work 188
cooking 188
essentially 188
heroes 188
implications 188
listening 188
reception 188
yellow 188
##aching 187
##ega 187
##iest 187
##mental 187
##nea 187
##ners 187
##oked 187
##poli 187
##pts 187
##pul 187
##rud 187
##ulance 187
21st 187
Berlin 187
Frank 187
Nam 187
Organ 187
Sy 187
Tek 187
Travel 187
bore 187
completing 187
hometown 187
replacement 187
successive 187
ticket 187
viewers 187
ترقی 187
##dad 186
##landa 186
##pari 186
##rooms 186
##shment 186
Cham 186
Irish 186
Theatre 186
audio 186
contracted 186
defa 186
dust 186
perception 186
performances 186
supplement 186
ارمنستان 186
##beli 185
##ected 185
##eim 185
##gott 185
##ibility 185
##lato 185
##lod 185
##md 185
##oda 185
##trat 185
##ukat 185
420 185
Indonesian 185
Jim 185
Prof 185
Traffic 185
constructed 185
inaugurated 185
mol 185
typical 185
typically 185
انتشارات 185
مدد 185
##aff 184
##aha 184
##break 184
##eno 184
##houses 184
##lta 184
##ovat 184
##posed 184
##sic 184
##ste 184
##wear 184
1956 184
Dev 184
Disaster 184
Everything 184
FIA 184
IP 184
NASA 184
Ty 184
aver 184
bars 184
marche 184
##ames 183
##esti 183
##ffi 183
##jon 183
##mor 183
##phe 183
##rit 183
##sov 183
##tly 183
##uro 183
1969 183
Bed 183
Code 183
Des 183
Eric 183
Headquarters 183
Private 183
Sei 183
Through 183
Village 183
attendance 183
cattle 183
competitors 183
discipline 183
epic 183
juvenil 183
mort 183
relieve 183
جعفر 183
##IO 182
##fies 182
##gor 182
##nato 182
##oration 182
##osi 182
##pes 182
##pol 182
##thetic 182
850 182
Book 182
Budget 182
Desert 182
Fair 182
Resistance 182
Senator 182
ada 182
blocks 182
commented 182
discovery 182
dy 182
investigated 182
masses 182
retire 182
trips 182
utility 182
workshops 182
عقد 182
##bank 181
##du 181
##eady 181
##firmation 181
##gled 181
##hle 181
##ible 181
##logical 181
##oce 181
##ower 181
##uis 181
Call 181
Carolina 181
Disc 181
Gal 181
adjacent 181
ai 181
consists 181
divisions 181
drie 181
fleet 181
gay 181
gli 181
painting 181
rende 181
requiring 181
upset 181
##ica 180
##igu 180
##istent 180
##jects 180
##nage 180
##rie 180
##teed 180
##vy 180
##yle 180
210 180
Brooks 180
CAN 180
Democracy 180
Ivory 180
Music 180
Navy 180
Philippines 180
Same 180
barre 180
caps 180
exploitation 180
gram 180
guidance 180
lett 180
phrase 180
trace 180
##alla 179
##bor 179
##hay 179
##mas 179
##rco 179
##sium 179
##strat 179
##uat 179
##ured 179
##صال 179
1984 179
Attorney 179
Credit 179
Drugs 179
Gates 179
Given 179
Jersey 179
Michel 179
Rum 179
Tour 179
Tra 179
arriving 179
chest 179
drama 179
jur 179
populations 179
theo 179
uncle 179
عنصر 179
قدیم 179
##bh 178
##eni 178
##ivated 178
##liers 178
##market 178
##mond 178
##nabis 178
##trem 178
##zes 178
##ئس 178
Due 178
Inf 178
Lei 178
Roman 178
Supply 178
Tanzania 178
Use 178
beer 178
dressed 178
encounter 178
interviews 178
kW 178
referee 178
stationed 178
امریکا 178
##citi 177
##gging 177
##gna 177
##hit 177
##ilo 177
##kon 177
##mits 177
##stab 177
113 177
Bug 177
Pl 177
Socialist 177
bike 177
challenged 177
conservation 177
contacte 177
error 177
evident 177
seis 177
strand 177
قوم 177
له 177
##WN 176
##WS 176
##cular 176
##lat 176
##rul 176
##rust 176
##tom 176
BP 176
Crown 176
Greater 176
Ist 176
brown 176
deemed 176
defended 176
donated 176
females 176
independently 176
input 176
kingdom 176
philosophy 176
properties 176
requirement 176
respective 176
revenge 176
sisters 176
والا 176
##BS 175
##HD 175
##hei 175
##hil 175
##icient 175
##rates 175
##rophe 175
##sai 175
##sal 175
1947 175
Gun 175
Make 175
Pr 175
aftermath 175
arguments 175
capability 175
dies 175
escort 175
gener 175
grows 175
jurisdiction 175
mineral 175
patterns 175
predecessor 175
revival 175
substances 175
wis 175
##cor 174
##dole 174
##enti 174
##fair 174
##filiation 174
##gical 174
##imate 174
##ju 174
##mission 174
##nter 174
##roch 174
##xi 174
##zan 174
##أثر 174
##عاون 174
BS 174
FIFA 174
Istanbul 174
Medicine 174
Pri 174
architecture 174
bell 174
capa 174
flower 174
interviewed 174
morta 174
partisan 174
rap 174
##all 173
##case 173
##dou 173
##gro 173
##lar 173
##lux 173
##mons 173
##sat 173
##sume 173
##zon 173
Alzheimer 173
Attack 173
Eli 173
Engineering 173
Insurance 173
Sec 173
Transportation 173
custom 173
diabetes 173
informal 173
mainstream 173
recipient 173
لهستان 173
مکمل 173
##alo 172
##alt 172
##chu 172
##حمد 172
118 172
380 172
Cuba 172
Ghar 172
Joe 172
Mars 172
NC 172
Non 172
Training 172
actress 172
ana 172
classic 172
colonial 172
cree 172
diesel 172
fee 172
knee 172
northwest 172
operators 172
prej 172
ray 172
successor 172
تین 172
نامگذاری 172
##LS 171
##arma 171
##aza 171
##dest 171
##dible 171
##ghe 171
##nations 171
##vereign 171
##verse 171
##zal 171
##ازل 171
##دوارد 171
2030 171
Bila 171
IF 171
Kom 171
Mac 171
Met 171
Pass 171
Pop 171
Rome 171
Total 171
Transit 171
Unit 171
Wei 171
arguing 171
dimensions 171
email 171
intent 171
mirror 171
monument 171
preferred 171
sections 171
separated 171
si 171
sixteen 171
ska 171
studio 171
##bid 170
##gal 170
##gis 170
##pling 170
##ryn 170
##toni 170
Alla 170
Counter 170
Dem 170
Diana 170
Space 170
Sport 170
boa 170
component 170
februar 170
mes 170
mounted 170
pregnancy 170
recruited 170
statut 170
##away 169
##eu 169
##finite 169
##minent 169
##nh 169
##ways 169
CAS 169
Countries 169
Hill 169
Hope 169
Manga 169
Mongolia 169
Nato 169
Part 169
bond 169
conscience 169
murders 169
rarely 169
reign 169
subsequently 169
tap 169
traveled 169
##aken 168
##beat 168
##dova 168
##esi 168
##ffs 168
##iona 168
##marked 168
##matu 168
##nal 168
##qat 168
Building 168
Coalition 168
Daniel 168
Revolutionary 168
Sahara 168
Scientific 168
Should 168
approached 168
coastal 168
colony 168
consistent 168
experiments 168
fil 168
foren 168
judgment 168
mandato 168
marginal 168
mat 168
opposing 168
physically 168
script 168
ختم 168
##bors 167
##del 167
##lai 167
##pret 167
##reg 167
##through 167
##uing 167
119 167
124 167
1961 167
Area 167
Environmental 167
Goals 167
Nou 167
Sarah 167
Sarkozy 167
Would 167
calcul 167
curs 167
loose 167
maritime 167
mun 167
ol 167
pos 167
thick 167
tower 167
##10 166
##15 166
##anke 166
##cos 166
##dise 166
##etta 166
##eza 166
##icia 166
##ivat 166
##liz 166
##nating 166
##otic 166
##pire 166
##rami 166
##rno 166
##tas 166
##zia 166
Around 166
Jackson 166
Mem 166
Netherlands 166
Prison 166
Scott 166
Talk 166
Virginia 166
av 166
existed 166
init 166
outdoor 166
parking 166
prediction 166
renovation 166
symbols 166
temperature 166
withdrew 166
خلال 166
فیلمی 166
##cend 165
##cine 165
##eit 165
##esse 165
##iko 165
##kova 165
##national 165
##nten 165
##ox 165
##rya 165
##viat 165
203 165
Beach 165
Casey 165
Father 165
Girls 165
HR 165
artillery 165
balls 165
conventional 165
enhanced 165
ing 165
moh 165
orange 165
partial 165
update 165
منصب 165
€ 165
##ared 164
##bula 164
##geni 164
##lating 164
##pai 164
##unces 164
ACC 164
Against 164
Hebrew 164
Hollywood 164
Manager 164
Much 164
Nevertheless 164
YouTube 164
amended 164
bloc 164
consecutive 164
downtown 164
edition 164
graves 164
literary 164
obligation 164
purchased 164
terme 164
tunnel 164
جلد 164
##ESS 163
##WF 163
##cuum 163
##dine 163
##ink 163
##mark 163
##pir 163
##stituted 163
##tin 163
##tros 163
##zone 163
##أم 163
IB 163
NP 163
alter 163
carriers 163
extends 163
households 163
photographer 163
rede 163
revolt 163
rocks 163
عبر 163
##cluded 162
##elo 162
##estan 162
##ians 162
##mmet 162
##right 162
##tiny 162
##unn 162
4th 162
Colin 162
Democrat 162
Iz 162
Kaya 162
Oz 162
Sergei 162
colonel 162
competed 162
discours 162
fest 162
maxim 162
opera 162
pou 162
rivals 162
samples 162
بیولوژی 162
موت 162
##aj 161
##cht 161
##erre 161
##eus 161
##fah 161
##iated 161
##isted 161
##ulin 161
##uts 161
##vision 161
Av 161
Mission 161
Spin 161
Squad 161
Sydney 161
Technical 161
Tony 161
acceptance 161
churches 161
endangered 161
horses 161
inner 161
remembered 161
somewhat 161
translation 161
tribute 161
viewed 161
##cally 160
##ference 160
##kal 160
##taining 160
##tical 160
148 160
Emir 160
Naga 160
Nothing 160
Tunis 160
VA 160
beats 160
censo 160
coaches 160
exclusively 160
foundations 160
partially 160
perceived 160
pit 160
radar 160
replacing 160
teh 160
transformation 160
triple 160
مهدی 160
##atories 159
##aven 159
##ises 159
##kari 159
##lac 159
##mig 159
##rship 159
##zeera 159
##یاری 159
Bosnia 159
Franco 159
Institution 159
Migration 159
Wen 159
ane 159
customer 159
designs 159
excess 159
globe 159
gul 159
notably 159
texts 159
titled 159
##aria 158
##bod 158
##dle 158
##sumed 158
##tua 158
##ville 158
##yer 158
##نص 158
6th 158
Argentina 158
Oy 158
alias 158
chip 158
compare 158
enabled 158
fourteen 158
intera 158
mai 158
martial 158
printed 158
rating 158
traditionally 158
tuberculosis 158
user 158
winds 158
##CL 157
##aring 157
##bla 157
##fte 157
##mbling 157
##nary 157
##ndent 157
##ntly 157
##ogical 157
##ope 157
##rais 157
##tery 157
##uda 157
##uted 157
168 157
Popular 157
Previously 157
Small 157
bold 157
coat 157
distinguish 157
dual 157
festivals 157
gates 157
hus 157
immense 157
intelligent 157
naval 157
navy 157
observa 157
pursued 157
tribunal 157
ultimate 157
youngest 157
##FF 156
##avor 156
##cid 156
##cken 156
##egu 156
##hips 156
##hog 156
##ibes 156
##nish 156
##okat 156
##oured 156
##tue 156
2050 156
Carl 156
Dani 156
Det 156
LR 156
Spring 156
Turki 156
Wat 156
ann 156
arab 156
cite 156
kit 156
lah 156
premises 156
privately 156
qui 156
translated 156
twentieth 156
##PM 155
##ado 155
##cie 155
##closed 155
##era 155
##lmen 155
##mitted 155
##nni 155
##und 155
340 155
Peoples 155
Petra 155
combine 155
converted 155
drives 155
dues 155
marble 155
sciences 155
shipping 155
vet 155
wore 155
##cker 154
##cup 154
##elle 154
##nec 154
##onne 154
##otions 154
##xic 154
##اطور 154
##واعد 154
123 154
@ 154
Khalifa 154
Presse 154
Punjabi 154
Resolution 154
Ros 154
SB 154
Welsh 154
Zaman 154
aboard 154
communist 154
fame 154
grandmother 154
impressive 154
integra 154
simultaneously 154
##NF 153
##att 153
##irs 153
##isha 153
##ishing 153
##tere 153
##urance 153
##urs 153
##رجینیا 153
##سات 153
##شرات 153
122 153
1971 153
Carter 153
Cyprus 153
DEM 153
Dor 153
Fire 153
Mach 153
Vienna 153
Week 153
acquisition 153
creat 153
displayed 153
evolution 153
finali 153
til 153
travelled 153
visas 153
بهمن 153
شهرستان 153
##aly 152
##bil 152
##bis 152
##els 152
##log 152
##mated 152
##ادات 152
134 152
Mina 152
Mol 152
Mor 152
Orthodox 152
Plus 152
bias 152
boats 152
consent 152
corporation 152
draws 152
l 152
lecture 152
neighboring 152
ons 152
pas 152
permitted 152
pioneer 152
scrutin 152
slot 152
temporarily 152
بولی 152
##12 151
##aper 151
##eak 151
##ficial 151
##gative 151
##gga 151
##lance 151
##nese 151
##vity 151
109 151
1963 151
1966 151
1968 151
Ohio 151
Portugal 151
Senegal 151
dair 151
identification 151
inspiration 151
presenting 151
sail 151
مشتمل 151
##MP 150
##PER 150
##ace 150
##bol 150
##ett 150
##istant 150
##pora 150
##rical 150
##rish 150
##sum 150
##une 150
##vance 150
405 150
AC 150
Adel 150
Dome 150
Gala 150
Guinea 150
Hala 150
Hockey 150
PB 150
Please 150
Saw 150
Taylor 150
Timur 150
Van 150
Vol 150
Web 150
burial 150
chant 150
crashed 150
gallery 150
gear 150
landing 150
legacy 150
nomina 150
observation 150
sau 150
sits 150
tickets 150
unha 150
##astic 149
##done 149
##dran 149
##nik 149
##ogist 149
##omi 149
##rimage 149
##wag 149
121 149
1952 149
Collective 149
Cotton 149
Nigerian 149
Perry 149
Petro 149
Quran 149
Spiritual 149
basketball 149
boarding 149
boxer 149
confronti 149
defender 149
designer 149
engines 149
fant 149
lap 149
lecturer 149
mira 149
ras 149
twee 149
هیئت 149
وهم 149
##YS 148
##anya 148
##boy 148
##char 148
##idi 148
##llar 148
##nding 148
##operative 148
##ordination 148
##plications 148
##yi 148
137 148
1930 148
3rd 148
Atomic 148
Bei 148
Chad 148
GB 148
Love 148
ae 148
aka 148
donation 148
inauguration 148
inventor 148
printing 148
prisoner 148
sacred 148
screening 148
slide 148
suburbs 148
##forcement 147
##graphic 147
##haa 147
##rns 147
##run 147
##sale 147
##trus 147
##ula 147
##zin 147
Ava 147
Command 147
Consulta 147
Farmer 147
Fed 147
Gan 147
Hague 147
Hara 147
Igor 147
Mehr 147
comprises 147
concerts 147
cream 147
lifetime 147
lov 147
relate 147
span 147
##achment 146
##ators 146
##bran 146
##cam 146
##ector 146
##hama 146
##hr 146
##inou 146
##mati 146
##minated 146
##mire 146
##mone 146
##vage 146
6000 146
Amendment 146
Mountain 146
accounting 146
authorized 146
casu 146
classified 146
contributo 146
distinction 146
expelled 146
kis 146
lease 146
nai 146
pirates 146
posti 146
##eko 145
##iro 145
##mid 145
##nah 145
##nko 145
##ppy 145
##rage 145
##sin 145
Antonio 145
EF 145
SNP 145
Sky 145
Teachers 145
consciousness 145
dare 145
errors 145
heel 145
hep 145
installation 145
lover 145
organic 145
physics 145
spaces 145
##bidden 144
##hole 144
##ike 144
##plin 144
##rata 144
##reck 144
##regar 144
##rica 144
##rr 144
##ung 144
##zam 144
##ضح 144
##عبد 144
185 144
Armenia 144
Best 144
Bir 144
Brigade 144
Govern 144
Nag 144
Ronald 144
Singh 144
cable 144
chess 144
comprise 144
credited 144
forests 144
handled 144
plate 144
stereo 144
##FA 143
##ede 143
##itive 143
##lga 143
##low 143
##mes 143
##mut 143
##nova 143
##ots 143
##pressed 143
##ressed 143
##ruk 143
##shin 143
##visa 143
##xy 143
03 143
128 143
CD 143
Dow 143
Hen 143
NFL 143
Pere 143
Stadium 143
Win 143
acute 143
bli 143
detection 143
expedition 143
resti 143
sou 143
spell 143
tours 143
v 143
##BC 142
##ache 142
##bald 142
##communications 142
##gination 142
##istica 142
##kind 142
##loc 142
##may 142
##oms 142
##oning 142
##teg 142
##vik 142
1940 142
BT 142
Dama 142
Danish 142
Dash 142
EM 142
Fox 142
Iron 142
Lam 142
Miami 142
Prize 142
Railways 142
Step 142
Tech 142
affair 142
arrangement 142
brigade 142
empire 142
featured 142
finishing 142
footage 142
lectures 142
monuments 142
naturally 142
phases 142
portfolio 142
rear 142
spots 142
theater 142
undertaken 142
waves 142
حلب 142
مسلسل 142
##cut 141
##lated 141
##mak 141
##ode 141
##person 141
##uit 141
##بدأ 141
1958 141
2018 141
Amnesty 141
Autonomous 141
Challenge 141
MAN 141
Plant 141
boundaries 141
conform 141
consequence 141
diagnosed 141
distant 141
eighteen 141
expose 141
falt 141
kuru 141
nato 141
rele 141
robot 141
speakers 141
worn 141
yard 141
سوف 141
شمس 141
##cise 140
##cism 140
##dit 140
##hda 140
##iati 140
##mpi 140
##rman 140
##sto 140
##tec 140
##welfth 140
126 140
132 140
202 140
242 140
Alt 140
Brazilian 140
Chile 140
Dhabi 140
Hamm 140
Massachusetts 140
Minnesota 140
Money 140
Strauss 140
clip 140
generator 140
oral 140
pressi 140
refuses 140
separation 140
sever 140
thin 140
ویکی 140
##atic 139
##eren 139
##fession 139
##gd 139
##gone 139
##hl 139
##rock 139
##stra 139
##wder 139
##yt 139
1380 139
1962 139
225 139
Caucasus 139
Conservative 139
Country 139
Farm 139
Future 139
Lot 139
Sabah 139
Sud 139
dimension 139
gh 139
interaction 139
ko 139
les 139
operator 139
orchestra 139
sen 139
sentiment 139
strictly 139
tid 139
##aga 138
##amat 138
##hibition 138
##igh 138
##mans 138
##mul 138
##oking 138
##rche 138
##sers 138
##ships 138
##ums 138
##zz 138
##فضل 138
Associated 138
Gill 138
Guardian 138
Library 138
Production 138
Singapore 138
Vic 138
Video 138
autonomous 138
axe 138
differential 138
hala 138
hiri 138
januar 138
opponent 138
proclaimed 138
projecte 138
sap 138
vessels 138
لقب 138
##TV 137
##asse 137
##lights 137
##lit 137
##rog 137
##tista 137
##tre 137
136 137
Account 137
Aleksandr 137
Combat 137
Flood 137
Highway 137
Robinson 137
Unlike 137
companion 137
debates 137
december 137
dire 137
finances 137
inclusive 137
merchants 137
negli 137
nominee 137
revolutionary 137
substance 137
veto 137
ذا 137
روایت 137
قدمت 137
##II 136
##api 136
##dam 136
##ec 136
##entia 136
##hie 136
##hill 136
##hter 136
##ichi 136
##ision 136
##lom 136
##nut 136
##rary 136
##wala 136
01 136
04 136
Channel 136
Down 136
Guide 136
Study 136
Text 136
accomplished 136
brick 136
bulk 136
calculation 136
edi 136
junior 136
psychology 136
ritual 136
termina 136
throwing 136
ترکی 136
##LM 135
##brella 135
##clusion 135
##idu 135
##ief 135
##isa 135
##lap 135
##load 135
##oth 135
##pi 135
##sle 135
##vol 135
##zato 135
AA 135
Alabama 135
Arm 135
Elections 135
Iowa 135
KS 135
Ker 135
Metropolitan 135
ail 135
cricketer 135
cruise 135
cure 135
deceased 135
forti 135
fortune 135
judo 135
limita 135
merger 135
nephew 135
noise 135
progressive 135
stops 135
struggled 135
surviving 135
tos 135
transformed 135
vary 135
##ball 134
##held 134
##rill 134
##sou 134
165 134
7th 134
Alan 134
Bala 134
Bishop 134
Fourth 134
Hyderabad 134
Kurdistan 134
Michigan 134
Steve 134
Survey 134
allied 134
breed 134
cas 134
crystal 134
dont 134
ere 134
gradual 134
longest 134
shield 134
systematic 134
thirteen 134
totale 134
vis 134
##GO 133
##agu 133
##gin 133
##lier 133
##ngan 133
##oh 133
##polis 133
##rma 133
##rous 133
##rries 133
##sua 133
##taker 133
##tated 133
##موت 133
10th 133
147 133
Bola 133
Boston 133
Exhibition 133
Help 133
Holland 133
Memorial 133
Moi 133
Nepal 133
Pam 133
Qui 133
Schools 133
Soon 133
characteristics 133
classical 133
municipality 133
occurs 133
pati 133
providers 133
publisher 133
rebellion 133
reviews 133
separately 133
technique 133
ظل 133
##dia 132
##gina 132
##ilt 132
##ose 132
##riz 132
##titut 132
##yramid 132
##لوان 132
Alex 132
Angola 132
Care 132
Guatemala 132
Hum 132
Mot 132
Poll 132
Present 132
Unity 132
Works 132
aired 132
amongst 132
championships 132
commissions 132
connecting 132
doctrine 132
maker 132
replica 132
sir 132
##ave 131
##bov 131
##creta 131
##eep 131
##lock 131
##nap 131
##var 131
1300 131
Catherine 131
Everybody 131
Francisco 131
Info 131
Mississippi 131
Politics 131
RAW 131
accommodation 131
auction 131
dor 131
duc 131
menace 131
shaped 131
میلاد 131
##ag 130
##gant 130
##ground 130
##ides 130
##lve 130
##mana 130
##mira 130
##nici 130
##olis 130
##ported 130
##posite 130
##pun 130
##sce 130
##ven 130
##vers 130
##vil 130
1945 130
Ch 130
Kota 130
Little 130
Lou 130
NR 130
Number 130
Soldiers 130
Val 130
Wisconsin 130
boards 130
cele 130
ceremonies 130
corporations 130
enrolled 130
meta 130
noto 130
orbit 130
placing 130
quest 130
sample 130
submarine 130
withdrawn 130
ze 130
##ats 129
##bus 129
##essa 129
##fici 129
##fra 129
##hto 129
##ika 129
##ille 129
##lob 129
##ploring 129
##sit 129
##stro 129
##tah 129
141 129
156 129
440 129
Along 129
Ani 129
Den 129
Ethiopian 129
Google 129
Kevin 129
Nama 129
Shaw 129
boundary 129
colors 129
educator 129
fluid 129
malaria 129
metre 129
morale 129
nest 129
plural 129
teeth 129
tok 129
tracking 129
بلغ 129
##dies 128
##gers 128
##gli 128
##ications 128
##nari 128
##nat 128
##nche 128
##oa 128
##pec 128
##qe 128
##roll 128
##tea 128
##unda 128
155 128
1920 128
ATC 128
Austria 128
Chor 128
Early 128
Hat 128
III 128
Kelly 128
Rat 128
Reporter 128
Rose 128
Saba 128
Shen 128
baseball 128
cave 128
directora 128
disso 128
flows 128
german 128
loop 128
mir 128
motori 128
sensa 128
situated 128
steam 128
suburb 128
vessel 128
##GC 127
##aches 127
##cure 127
##hla 127
##ladi 127
##meti 127
##odi 127
##own 127
##rina 127
##tand 127
##vati 127
138 127
Blue 127
Dal 127
Full 127
Ina 127
Sierra 127
briefly 127
broadcasts 127
champions 127
faculty 127
intra 127
parks 127
preservation 127
presse 127
prizes 127
revela 127
trail 127
tv 127
##brities 126
##cin 126
##ctory 126
##erat 126
##gat 126
##gur 126
##ils 126
##kis 126
##laze 126
##net 126
##nir 126
##pice 126
##voi 126
##رضا 126
146 126
20th 126
Arch 126
Citizens 126
Come 126
GM 126
Golden 126
Kirk 126
Od 126
Prevention 126
Regis 126
Ren 126
advances 126
asl 126
dominant 126
dynamic 126
extraction 126
favourite 126
innovative 126
landmark 126
marine 126
populated 126
prema 126
rota 126
thereby 126
usage 126
vitamin 126
##UF 125
##bia 125
##dles 125
##eding 125
##hical 125
##ltan 125
##say 125
##siden 125
##uh 125
##utt 125
193 125
Alta 125
Barcelona 125
Christianity 125
GMT 125
Him 125
Kid 125
Malaysian 125
Manchester 125
Oscar 125
Saint 125
Working 125
afterwards 125
alto 125
certification 125
diagnosis 125
editorial 125
elaborate 125
evolved 125
graduated 125
hill 125
lion 125
loaded 125
mas 125
navigation 125
ore 125
pond 125
releases 125
releasing 125
repairs 125
sang 125
september 125
tumor 125
wings 125
حسب 125
عثمانی 125
##11 124
##14 124
##cision 124
##hera 124
##itis 124
##lk 124
##news 124
##opa 124
##wara 124
1953 124
Belgian 124
Chair 124
Davis 124
Ghana 124
Reid 124
Religion 124
Yeah 124
acres 124
brands 124
concentration 124
confused 124
counted 124
deed 124
editors 124
fights 124
lib 124
metro 124
mode 124
olive 124
ruler 124
scattered 124
secrets 124
sends 124
singers 124
stored 124
twelve 124
قصر 124
##25 123
##blo 123
##ckle 123
##erit 123
##hista 123
##omb 123
##rka 123
##ttes 123
##tud 123
##viti 123
##wak 123
##یستان 123
176 123
1949 123
201 123
ACT 123
Hand 123
Philadelphia 123
apartments 123
audiences 123
automobile 123
bas 123
corn 123
deporte 123
directions 123
essence 123
gaz 123
holes 123
magazines 123
malik 123
propos 123
shells 123
structural 123
troubles 123
##bea 122
##hasa 122
##ique 122
##iy 122
##liga 122
##liti 122
##pher 122
##tr 122
##tum 122
##turing 122
##vancing 122
##venti 122
##vera 122
##جرد 122
1600 122
290 122
8th 122
Being 122
Bol 122
Born 122
Branch 122
Data 122
Educational 122
Poland 122
Sikh 122
Walker 122
august 122
carrier 122
complement 122
dose 122
govern 122
nineteenth 122
poorly 122
swing 122
tables 122
whilst 122
##bes 121
##dina 121
##duc 121
##elet 121
##roni 121
##uas 121
##urne 121
##yg 121
##ؤلف 121
##جاج 121
##جامع 121
##وجود 121
Demon 121
Families 121
Missouri 121
Thai 121
abilities 121
adventure 121
bears 121
characterized 121
desired 121
kor 121
loser 121
moc 121
nas 121
objecte 121
sed 121
tam 121
ug 121
##eur 120
##rik 120
##stone 120
##ues 120
##yah 120
Balkan 120
Certain 120
Chan 120
DH 120
Emil 120
Gore 120
Half 120
RC 120
Rick 120
Strategy 120
TOUR 120
Welfare 120
Zara 120
assembled 120
bow 120
calendar 120
clinical 120
counts 120
equip 120
golf 120
hip 120
lane 120
measured 120
mora 120
patch 120
poem 120
qualifications 120
rough 120
مجال 120
نین 120
##AV 119
##lick 119
##mns 119
##nomy 119
##oos 119
##quent 119
##tional 119
1800 119
183 119
Doha 119
Female 119
Hillary 119
Kahn 119
Peninsula 119
Portuguese 119
Respublika 119
Very 119
archaeological 119
considerably 119
founders 119
influenced 119
mam 119
mystery 119
regulatory 119
romantic 119
sue 119
terrain 119
القدس 119
نال 119
##Net 118
##TF 118
##ative 118
##backs 118
##cist 118
##cological 118
##gana 118
##gem 118
##gile 118
##hada 118
##harge 118
##hia 118
##jib 118
##rta 118
##uba 118
##ulator 118
##view 118
##vro 118
Again 118
Andy 118
BM 118
Bridge 118
Legal 118
Mari 118
Middleton 118
Murray 118
Nick 118
Rural 118
Semi 118
Stan 118
TS 118
Territories 118
aluminium 118
carte 118
creature 118
dar 118
instruction 118
invented 118
statue 118
tant 118
titles 118
موسم 118
##dal 117
##egi 117
##kai 117
##kill 117
##lil 117
##mari 117
##roat 117
##sole 117
##uate 117
##vant 117
##zali 117
##zee 117
##zja 117
129 117
133 117
1954 117
Airways 117
Amer 117
Arctic 117
Dog 117
Film 117
Leone 117
Min 117
attraction 117
aus 117
ave 117
bankruptcy 117
binding 117
ed 117
grades 117
harbour 117
inspire 117
kas 117
te 117
##bano 116
##girl 116
##inio 116
##lik 116
##lma 116
##lory 116
##missa 116
##moni 116
##oca 116
##plete 116
##rige 116
##stand 116
##torium 116
##uation 116
##uj 116
430 116
Andre 116
Bang 116
Bus 116
Cell 116
Check 116
Crisis 116
Death 116
Djibouti 116
Fars 116
Gazeta 116
Houston 116
Jesus 116
Lac 116
Light 116
Maji 116
Miss 116
Prior 116
RT 116
Safety 116
Sia 116
Sim 116
barri 116
closest 116
consta 116
gray 116
handler 116
hati 116
hee 116
instances 116
polar 116
reads 116
rolle 116
spectrum 116
toma 116
underwent 116
updated 116
vu 116
##arten 115
##ase 115
##atile 115
##bust 115
##curs 115
##dat 115
##essi 115
##gas 115
##kam 115
##mare 115
##mme 115
##nee 115
##pop 115
##riche 115
##جلات 115
##طح 115
Additional 115
Athens 115
Austrian 115
BL 115
Base 115
Blair 115
EE 115
Entre 115
Fou 115
Hey 115
Indus 115
Jen 115
Jon 115
Liberal 115
Line 115
Raj 115
Swedish 115
Universal 115
Upon 115
accompanying 115
conventions 115
eggs 115
mm 115
seasons 115
warfare 115
yo 115
مدارس 115
منها 115
##ater 114
##cede 114
##city 114
##gabe 114
##jwa 114
##kra 114
##lever 114
##pace 114
##paro 114
##saw 114
##sieg 114
##sthetic 114
##uchi 114
##vili 114
##vocacy 114
##wes 114
##بون 114
154 114
5th 114
Hij 114
Hut 114
Keep 114
Mid 114
Olga 114
Order 114
Patrick 114
Rene 114
Show 114
USSR 114
Urban 114
Ver 114
armies 114
equation 114
erected 114
fet 114
irregular 114
programming 114
reveals 114
tomb 114
خاندان 114
مشرق 114
##SU 113
##bani 113
##berry 113
##clamation 113
##cora 113
##edi 113
##hout 113
##sena 113
##طول 113
1965 113
Ada 113
Agence 113
Cantor 113
Colombia 113
Denmark 113
Henry 113
Kali 113
Mill 113
Minor 113
Nat 113
Pot 113
Rice 113
SF 113
Ter 113
Thirty 113
Treasury 113
anchor 113
argues 113
automatically 113
beneath 113
constituent 113
crown 113
description 113
europea 113
lor 113
reside 113
rings 113
timber 113
volumes 113
##100 112
##60 112
##art 112
##clo 112
##ece 112
##erina 112
##fic 112
##heer 112
##ien 112
##izes 112
##most 112
##otion 112
##pak 112
##rations 112
##tila 112
##uo 112
##yre 112
151 112
1957 112
2022 112
Basin 112
Cali 112
Chemical 112
Late 112
Moss 112
Operations 112
Reza 112
Think 112
Wars 112
accusa 112
bone 112
chat 112
demolished 112
ela 112
hence 112
males 112
museums 112
ng 112
paus 112
sett 112
virtual 112
##ahe 111
##cena 111
##dra 111
##fn 111
##gah 111
##gation 111
##gg 111
##ipe 111
##kah 111
##limi 111
##pea 111
##rne 111
##ternal 111
##tone 111
##wd 111
##wne 111
##رسل 111
Analysis 111
Based 111
Cal 111
Elias 111
Excel 111
Large 111
MR 111
Renaissance 111
Section 111
Simon 111
Steel 111
Tre 111
constitue 111
copper 111
dina 111
fitness 111
god 111
heir 111
hori 111
maintains 111
nerve 111
proves 111
undergraduate 111
wrestler 111
##17 110
##OH 110
##air 110
##bre 110
##cat 110
##eli 110
##eme 110
##eon 110
##ith 110
##kol 110
##kur 110
##lige 110
##lti 110
##ndi 110
##neur 110
##nin 110
##nne 110
##not 110
##ough 110
##paper 110
##rdo 110
##rox 110
##rpa 110
##stitution 110
##titude 110
##tou 110
##ube 110
##warte 110
##wim 110
##zani 110
171 110
178 110
213 110
Auto 110
Award 110
Boy 110
Card 110
Championships 110
Cook 110
Gang 110
Hispanic 110
Mitchell 110
Morgan 110
Pennsylvania 110
Sand 110
Shake 110
Victoria 110
Zambia 110
bones 110
cura 110
dre 110
evi 110
mang 110
maps 110
musician 110
od 110
ruins 110
sui 110
##aling 109
##chny 109
##fers 109
##jr 109
##ldi 109
##mh 109
##oci 109
##sting 109
##tali 109
##tiga 109
##tron 109
##type 109
##urat 109
##vated 109
##xies 109
##عرض 109
142 109
158 109
338 109
Apart 109
Battle 109
Cambridge 109
Chancellor 109
Essa 109
Indies 109
Kay 109
Liberia 109
Mount 109
Nicolas 109
Railway 109
Serbia 109
Wiki 109
alphabet 109
athlete 109
comic 109
composed 109
identical 109
offshore 109
participant 109
pr 109
reader 109
reserved 109
revision 109
skip 109
wildlife 109
نوبل 109
##Pa 108
##aa 108
##aci 108
##celi 108
##dor 108
##hala 108
##ibi 108
##marka 108
##ngs 108
##nta 108
##ortion 108
##owment 108
##page 108
##plicitly 108
##tine 108
##uan 108
##خدم 108
127 108
950 108
Basque 108
Boeing 108
CT 108
Campaign 108
Cape 108
Das 108
Donald 108
Jawa 108
Lea 108
Mini 108
Mona 108
Potter 108
Seoul 108
county 108
critically 108
guardia 108
neo 108
ora 108
painter 108
theories 108
void 108
wooden 108
آلبوم 108
##KO 107
##LC 107
##andi 107
##av 107
##eathe 107
##ehr 107
##give 107
##ices 107
##ital 107
##kse 107
##lani 107
##llen 107
##oner 107
##phere 107
##teenth 107
##ulations 107
##uta 107
##vei 107
159 107
3500 107
370 107
410 107
Buddhist 107
Carlos 107
Chin 107
Conti 107
Crescent 107
Dag 107
Economics 107
Ethnic 107
Fin 107
Live 107
Made 107
Month 107
Mountains 107
Oklahoma 107
Rob 107
Salmon 107
Ski 107
Suicide 107
Tell 107
assisted 107
breeding 107
composition 107
geni 107
grader 107
joins 107
occurring 107
rankings 107
renowned 107
revised 107
signals 107
supporter 107
themes 107
zoo 107
استعمال 107
پنجابی 107
##MM 106
##ached 106
##anche 106
##bian 106
##dem 106
##eering 106
##hua 106
##nders 106
##sumi 106
##ural 106
##viv 106
11th 106
204 106
470 106
8000 106
Bro 106
Christ 106
Hana 106
Harvard 106
Mandela 106
Manning 106
Master 106
Miller 106
Olympia 106
Partnership 106
Remember 106
Rock 106
align 106
aval 106
defensive 106
drafted 106
electo 106
gall 106
genes 106
khu 106
mainland 106
mysterious 106
pie 106
rendered 106
serial 106
soli 106
statistical 106
stroke 106
آئی 106
##amp 105
##bee 105
##bound 105
##enomena 105
##fre 105
##imit 105
##lne 105
##pr 105
##quer 105
##rive 105
##ska 105
##uca 105
##usta 105
##هدف 105
18th 105
Economist 105
Inside 105
Million 105
Read 105
Shang 105
TER 105
Using 105
Viktor 105
appearing 105
axis 105
calor 105
dated 105
encountered 105
experimental 105
guerrilla 105
http 105
jer 105
layer 105
powered 105
rolling 105
rot 105
##fts 104
##hop 104
##love 104
##ola 104
##rons 104
##round 104
##sions 104
##tau 104
##usi 104
##yba 104
480 104
520 104
Captain 104
Cat 104
Cohen 104
Communication 104
Dale 104
Mine 104
Orang 104
Santa 104
Sui 104
dubbed 104
invention 104
litres 104
oni 104
pitch 104
realizat 104
theoretical 104
verbal 104
##80 103
##aja 103
##cas 103
##dis 103
##gian 103
##hru 103
##iance 103
##itable 103
##iu 103
##kta 103
##lama 103
##lie 103
##ography 103
##owed 103
##pse 103
##putation 103
##raba 103
##redible 103
##scope 103
##tives 103
##uting 103
143 103
275 103
9th 103
Argentine 103
Benjamin 103
Comment 103
Common 103
Companies 103
Dum 103
JAPAN 103
Lan 103
Locke 103
Nairobi 103
Professional 103
STAR 103
Seattle 103
Sergey 103
Similarly 103
Svetlana 103
Years 103
cables 103
demi 103
dub 103
enda 103
este 103
filter 103
governed 103
navi 103
permis 103
preserved 103
succession 103
tag 103
ارمنی 103
##hz 102
##iser 102
##jou 102
##mill 102
##named 102
##ogo 102
##otov 102
##pulsion 102
##quest 102
##rath 102
##ret 102
##ript 102
##tism 102
##ناصر 102
Aida 102
Barr 102
Climate 102
Cooper 102
Craig 102
Dada 102
Denis 102
Dialogue 102
Horn 102
IV 102
Indiana 102
Kill 102
Legislative 102
Phil 102
Sales 102
Scholar 102
Traditional 102
Tucson 102
assignment 102
bomba 102
circuit 102
format 102
geographic 102
graf 102
meri 102
november 102
queue 102
runner 102
superior 102
ولد 102
##iable 101
##ind 101
##mma 101
##mous 101
##ocence 101
##vour 101
##yse 101
139 101
182 101
1959 101
Aku 101
Aleppo 101
Belt 101
Columbia 101
Conflict 101
Dust 101
Fight 101
Further 101
Hampshire 101
Louis 101
Marty 101
Masa 101
McCain 101
Pearl 101
Property 101
Usa 101
arma 101
coin 101
constituency 101
designers 101
distinct 101
eman 101
gallo 101
lac 101
occasionally 101
patent 101
permanently 101
skull 101
slavery 101
taxa 101
temple 101
wol 101
الوسط 101
وچ 101
##ctical 100
##drat 100
##eel 100
##erts 100
##eze 100
##hna 100
##irat 100
##oss 100
##pah 100
##rai 100
##rave 100
##reen 100
##rmi 100
##tag 100
##uth 100
##vaded 100
##vention 100
##ابات 100
161 100
162 100
173 100
Acting 100
BMW 100
Birmingham 100
Brian 100
Century 100
Friendship 100
Jay 100
Mail 100
Marine 100
Mobile 100
Trump 100
Turks 100
Westminster 100
Yugoslavia 100
abolished 100
aki 100
arose 100
ata 100
consist 100
entre 100
gravity 100
intensity 100
noble 100
railroad 100
responses 100
seas 100
towers 100
vya 100
##base 99
##dig 99
##dir 99
##ertion 99
##ewing 99
##grade 99
##ico 99
##ido 99
##lib 99
##lings 99
##mers 99
##nai 99
##omo 99
##quire 99
##rence 99
##rz 99
##sif 99
##tims 99
##unit 99
##vali 99
##ئب 99
375 99
Ant 99
Apple 99
Basic 99
Cameroon 99
Dallas 99
Eu 99
Helen 99
Hungary 99
Juba 99
Maa 99
Mao 99
Must 99
Point 99
Princess 99
Vas 99
WORLD 99
Witness 99
Zero 99
abad 99
bang 99
climbing 99
comedy 99
emir 99
existent 99
fai 99
fiction 99
gene 99
hills 99
inch 99
inclusion 99
lakes 99
liaison 99
ly 99
mall 99
nan 99
sai 99
substitute 99
##bio 98
##cile 98
##das 98
##dei 98
##dr 98
##dum 98
##gali 98
##jee 98
##kina 98
##lika 98
##mah 98
##pere 98
##pired 98
##rth 98
##stica 98
##uary 98
##vab 98
##vka 98
##world 98
##ystem 98
##zda 98
##zid 98
184 98
188 98
Anderson 98
Bari 98
Else 98
Kuba 98
Off 98
Opera 98
Review 98
Umm 98
Yeni 98
biology 98
careers 98
conjunction 98
courte 98
gut 98
homosexual 98
journal 98
ranges 98
riches 98
sam 98
stor 98
tras 98
درمیان 98
##cul 97
##eat 97
##emma 97
##hoe 97
##inti 97
##lative 97
##qu 97
##raphy 97
##rusade 97
##scu 97
##vor 97
##حاد 97
1929 97
365 97
Allen 97
Broadcasting 97
CDC 97
Croatia 97
DM 97
Days 97
Dom 97
Eco 97
FL 97
Hard 97
Heavy 97
Kat 97
Metal 97
Mikhail 97
Nancy 97
Patriot 97
Pierre 97
Soo 97
Taking 97
True 97
athletic 97
atomic 97
chocolate 97
collector 97
critic 97
din 97
disorders 97
fastest 97
flexible 97
incorpora 97
knocked 97
licensed 97
measuring 97
minimal 97
quali 97
suburban 97
suite 97
tai 97
tale 97
tournaments 97
شپ 97
##CP 96
##ean 96
##given 96
##hall 96
##kwa 96
##mpe 96
##nc 96
##oned 96
##oste 96
##reshold 96
##rte 96
##uko 96
##wave 96
##شأ 96
152 96
166 96
177 96
233 96
425 96
580 96
Bora 96
Bos 96
Bowl 96
DVD 96
Engineer 96
FDA 96
Kis 96
Lewis 96
Never 96
Oba 96
PD 96
Rev 96
Ron 96
Set 96
Shan 96
Spa 96
Task 96
applicable 96
col 96
commissioned 96
crede 96
dedicat 96
loves 96
mah 96
ose 96
pad 96
passer 96
performers 96
planets 96
robots 96
server 96
snake 96
steep 96
synagogue 96
throne 96
venue 96
اسفند 96
کرن 96
##70 95
##EF 95
##aji 95
##asan 95
##aste 95
##lina 95
##nting 95
##odo 95
##pita 95
##rasi 95
##tem 95
##xe 95
##xu 95
1427 95
214 95
Aden 95
Bible 95
Bulgaria 95
Could 95
Fifty 95
Illinois 95
Jeff 95
Maha 95
Nature 95
Pay 95
Relief 95
Tang 95
Tibet 95
Tibetan 95
Tournament 95
UNAM 95
Vale 95
bout 95
brit 95
celebrity 95
cit 95
compounds 95
creator 95
delu 95
embargo 95
jazz 95
lever 95
mala 95
mild 95
mille 95
orde 95
pal 95
phi 95
settlers 95
specified 95
ver 95
ایلین 95
##13 94
##ads 94
##ange 94
##brica 94
##burg 94
##dida 94
##dio 94
##eration 94
##heme 94
##iles 94
##irin 94
##jar 94
##lena 94
##lur 94
##lves 94
##mia 94
##nac 94
##rati 94
##rig 94
##tai 94
##zmi 94
157 94
2025 94
228 94
460 94
Ave 94
Brigadier 94
Cambodia 94
Dei 94
Esta 94
Gallery 94
Murat 94
NBA 94
Need 94
ROM 94
Secondary 94
Southeast 94
Weather 94
alb 94
arti 94
bara 94
consisting 94
curve 94
decides 94
directing 94
dissolved 94
dot 94
elementary 94
frac 94
functional 94
indoor 94
inherited 94
innings 94
insects 94
kan 94
northeast 94
practiced 94
rebuilt 94
tehsil 94
toile 94
trait 94
usu 94
verses 94
vigor 94
##16 93
##ac 93
##any 93
##cade 93
##coa 93
##diat 93
##eria 93
##ete 93
##fik 93
##gno 93
##haber 93
##lmi 93
##lyn 93
##ovi 93
##rafi 93
##tinent 93
##uncia 93
##vis 93
##xide 93
153 93
181 93
205 93
325 93
Albert 93
BC 93
Beni 93
Cent 93
Flight 93
Grant 93
Jimmy 93
Jr 93
Key 93
Ltd 93
Monitoring 93
Municipality 93
Standard 93
Than 93
Tourist 93
Welch 93
alternate 93
anar 93
coins 93
continua 93
conversion 93
cour 93
divine 93
energi 93
feu 93
guided 93
lighting 93
liver 93
mor 93
optimal 93
teammate 93
کارگردانی 93
##FL 92
##bt 92
##dicat 92
##ient 92
##iv 92
##mem 92
##rber 92
##rna 92
##uant 92
##uli 92
##zli 92
Bon 92
Clear 92
Dat 92
Diego 92
Dol 92
Ela 92
Forest 92
Limited 92
ONE 92
Officers 92
Pel 92
Starting 92
Susan 92
Twelve 92
Vest 92
Yan 92
Yard 92
aller 92
certified 92
decorated 92
episode 92
fia 92
locali 92
queen 92
rod 92
stating 92
travels 92
لیستی 92
##bie 91
##djan 91
##eks 91
##hyl 91
##lca 91
##ngin 91
##ppet 91
##tay 91
##tsi 91
##tures 91
##works 91
##مرت 91
1900 91
Blood 91
Capitol 91
Directors 91
Fish 91
Garden 91
Gordon 91
Ibn 91
Interest 91
Ivanov 91
Mineral 91
Noi 91
Og 91
Primary 91
Put 91
Silk 91
Wang 91
Woman 91
believing 91
collections 91
commonly 91
dan 91
fifty 91
graduation 91
historian 91
implica 91
jan 91
lag 91
lung 91
mentor 91
photography 91
scorer 91
striker 91
vacant 91
wie 91
آبشار 91
درگذشته 91
شمسی 91
##alis 90
##bel 90
##cens 90
##cko 90
##dri 90
##inta 90
##ints 90
##master 90
##nic 90
##nte 90
##ntis 90
##rova 90
##ude 90
##via 90
149 90
198 90
207 90
215 90
438 90
7000 90
Ahli 90
Ball 90
Bangkok 90
Era 90
Hunt 90
Intel 90
Jacob 90
Juan 90
Maka 90
Pai 90
Ross 90
Similar 90
Watson 90
accidentally 90
bonus 90
clause 90
codes 90
dera 90
dictionary 90
footballer 90
mana 90
poems 90
repris 90
subsidiary 90
sul 90
turbine 90
wet 90
لفظ 90
کوئی 90
##cript 89
##due 89
##ernal 89
##lity 89
##max 89
##mina 89
##note 89
##obi 89
##onta 89
##osphate 89
##ucus 89
##valent 89
##wich 89
167 89
179 89
Anne 89
Burns 89
Dina 89
HM 89
IK 89
Lincoln 89
Milan 89
Mills 89
Morales 89
Orlando 89
Oro 89
Pos 89
Rao 89
Snow 89
WM 89
Williams 89
analyse 89
bowling 89
cluster 89
contents 89
dense 89
electronics 89
freestyle 89
grandson 89
hos 89
intermedia 89
lieutenant 89
litt 89
palm 89
pink 89
selle 89
sociali 89
uk 89
varied 89
versions 89
##DM 88
##aps 88
##atan 88
##blu 88
##cit 88
##ditions 88
##ferred 88
##hment 88
##ich 88
##icio 88
##istrat 88
##kud 88
##mbo 88
##organ 88
##owi 88
##pian 88
##piece 88
##rans 88
##rek 88
##reti 88
##sses 88
##star 88
##uka 88
224 88
Antoine 88
Bolivia 88
Chilean 88
EV 88
Michele 88
Moon 88
Niger 88
SK 88
Sign 88
Stephen 88
Wind 88
Xinjiang 88
Yahya 88
estima 88
excluding 88
flowing 88
generals 88
mau 88
modified 88
rainfall 88
قائد 88
نهر 88
##NP 87
##OK 87
##abb 87
##anti 87
##cil 87
##dito 87
##dits 87
##eil 87
##eman 87
##fia 87
##geld 87
##gies 87
##hore 87
##kel 87
##kun 87
##neous 87
##oga 87
##oll 87
##quito 87
##rod 87
##ruar 87
##rup 87
##yum 87
##zka 87
1428 87
1955 87
ABA 87
Alaska 87
Ang 87
Archbishop 87
Baker 87
Colorado 87
Edinburgh 87
Einstein 87
Microsoft 87
Safe 87
Try 87
ani 87
array 87
chu 87
ee 87
egg 87
floating 87
gases 87
herb 87
honored 87
horror 87
immigrant 87
mac 87
mit 87
prestigious 87
segments 87
switched 87
tunnels 87
##bou 86
##chel 86
##cida 86
##holder 86
##ita 86
##itors 86
##like 86
##maa 86
##mea 86
##omen 86
##pies 86
##rae 86
##rds 86
##rok 86
##rp 86
##stal 86
##tering 86
##uni 86
##utes 86
##vere 86
##yak 86
##سفر 86
##لوب 86
164 86
206 86
222 86
Banda 86
Face 86
Field 86
IL 86
Living 86
Maar 86
Manhattan 86
Nevada 86
Osman 86
Roads 86
Stop 86
Tau 86
amateur 86
architect 86
aun 86
bod 86
costi 86
debut 86
develops 86
dias 86
divorced 86
extinction 86
fiber 86
graphic 86
lent 86
merge 86
militari 86
prey 86
varieties 86
villa 86
##40 85
##PC 85
##SM 85
##ady 85
##bali 85
##enko 85
##mediate 85
##metric 85
##mta 85
##mus 85
##ndan 85
##orn 85
##raft 85
##صلاح 85
1400 85
192 85
1951 85
199 85
235 85
Boxing 85
Cinema 85
Clash 85
Congressional 85
Hermes 85
Inn 85
Ivan 85
Jonathan 85
Julia 85
Louisiana 85
Luis 85
Mitt 85
Poor 85
TD 85
Tamil 85
Together 85
accesso 85
congregation 85
consistently 85
das 85
dissolution 85
documentation 85
fortuna 85
humor 85
immune 85
linguistic 85
liter 85
patrona 85
plates 85
precursor 85
races 85
refers 85
runway 85
##aire 84
##cestors 84
##chers 84
##chis 84
##cia 84
##cology 84
##ender 84
##gment 84
##ngu 84
##nl 84
##oba 84
##ogy 84
##placement 84
##ptur 84
##quality 84
##rise 84
##runk 84
##sens 84
##sheva 84
##uld 84
##ulis 84
##ulse 84
##uza 84
##valence 84
##wide 84
##ycling 84
##yti 84
##zil 84
530 84
AE 84
Combined 84
Computer 84
Dee 84
Imagine 84
Jana 84
Jiang 84
Malawi 84
Map 84
Maxim 84
Merkel 84
Salem 84
Tennessee 84
Various 84
Victory 84
angle 84
basket 84
bay 84
defines 84
girlfriend 84
ke 84
monks 84
oxygen 84
rubber 84
spotted 84
trim 84
vicinity 84
vie 84
##IH 83
##TC 83
##arti 83
##gae 83
##jay 83
##pen 83
##rades 83
##rer 83
##tter 83
##uction 83
##uds 83
##umes 83
##zade 83
##zou 83
163 83
209 83
310 83
390 83
Cuban 83
Gary 83
Ian 83
Index 83
Nos 83
Ottoman 83
Shri 83
Weapons 83
chante 83
classification 83
continuously 83
dug 83
fod 83
franc 83
gras 83
impressed 83
interpreted 83
libr 83
mixture 83
nom 83
outer 83
panels 83
priest 83
prima 83
ratings 83
rounded 83
salva 83
sword 83
tissue 83
tongue 83
tube 83
venues 83
ئ 83
وفق 83
##VO 82
##aut 82
##bila 82
##fest 82
##iciency 82
##ilien 82
##inan 82
##irt 82
##las 82
##mbi 82
##petitor 82
##pis 82
##ranti 82
##tio 82
##vena 82
##yor 82
19th 82
265 82
680 82
911 82
Additionally 82
Amy 82
Band 82
Christopher 82
Detroit 82
Ek 82
Islands 82
Larry 82
Nom 82
Oral 82
Rebel 82
Reserve 82
Rod 82
Rule 82
accuracy 82
arrives 82
basement 82
complexity 82
detective 82
elu 82
fel 82
frequency 82
inches 82
injection 82
intact 82
legend 82
marathon 82
mater 82
mathematics 82
mills 82
modi 82
penn 82
poets 82
southwest 82
talents 82
zi 82
| 82
##DC 81
##aty 81
##ciation 81
##eco 81
##fields 81
##fish 81
##gai 81
##gest 81
##houd 81
##ito 81
##lbe 81
##lition 81
##plied 81
##ppa 81
##rad 81
##some 81
##stant 81
##tate 81
##try 81
##udence 81
##yman 81
194 81
1946 81
737 81
Abs 81
Adams 81
Canton 81
DP 81
Diplomat 81
Dy 81
Eis 81
Fear 81
Holmes 81
Hungarian 81
Jar 81
Lai 81
Malcolm 81
Meteor 81
Mit 81
Nobel 81
Note 81
Philip 81
Return 81
animation 81
calculated 81
departed 81
differenti 81
flies 81
informa 81
integral 81
nap 81
nearest 81
observations 81
outre 81
pronounced 81
raz 81
retained 81
salute 81
sculpture 81
summary 81
tha 81
ultra 81
قسم 81
##archy 80
##bation 80
##boards 80
##cano 80
##chie 80
##colo 80
##dil 80
##ductor 80
##ensi 80
##fum 80
##jun 80
##lio 80
##mente 80
##odu 80
##onato 80
##rgo 80
##rima 80
##tog 80
##town 80
##tung 80
##uden 80
##unis 80
##urre 80
##uso 80
##welling 80
1385 80
191 80
223 80
351 80
Alpha 80
Annual 80
Buddha 80
CBS 80
Empire 80
Ende 80
Estonia 80
FF 80
Germans 80
Ill 80
Kosovo 80
Milo 80
Municipal 80
Ng 80
Night 80
Physical 80
Rio 80
Rumania 80
Silva 80
Something 80
Utah 80
Vita 80
dit 80
feat 80
nominations 80
notable 80
regi 80
rhythm 80
بنت 80
قمری 80
##ama 79
##ashi 79
##cultural 79
##culture 79
##dera 79
##ela 79
##fet 79
##gea 79
##gua 79
##igue 79
##jis 79
##lova 79
##mada 79
##mali 79
##nga 79
##nita 79
##non 79
##orie 79
##rem 79
##str 79
##tist 79
##vate 79
##صغر 79
1100 79
169 79
226 79
540 79
CDs 79
Hale 79
Heart 79
Issues 79
KC 79
KM 79
Kari 79
Kids 79
Less 79
Lin 79
Lux 79
Penal 79
Serbian 79
Someone 79
Sue 79
Summer 79
Technologies 79
Ted 79
displays 79
enters 79
fora 79
historically 79
horn 79
jumping 79
materiali 79
ming 79
protein 79
que 79
southeast 79
tenure 79
thermal 79
معرف 79
##ander 78
##dels 78
##dhi 78
##die 78
##fare 78
##form 78
##hv 78
##iac 78
##ients 78
##inent 78
##istics 78
##lek 78
##mere 78
##oran 78
##pard 78
##tene 78
##terio 78
##vos 78
##walk 78
##یوک 78
217 78
Access 78
Ark 78
Bord 78
Conservation 78
Deal 78
Estate 78
Gand 78
Indians 78
Latvia 78
Mall 78
Multi 78
Sao 78
Sidi 78
candidat 78
continu 78
gardens 78
hectare 78
homi 78
invisible 78
lav 78
longtime 78
mechanical 78
portrait 78
sequence 78
spraw 78
آیووا 78
##GP 77
##ao 77
##bers 77
##bone 77
##bos 77
##cili 77
##cisi 77
##dl 77
##fel 77
##feri 77
##lei 77
##nance 77
##ngi 77
##nica 77
##omina 77
##org 77
##portation 77
##pu 77
##reng 77
##rios 77
##sam 77
##tial 77
##uke 77
##uses 77
##xa 77
208 77
211 77
560 77
Bali 77
Bit 77
Cleveland 77
Disease 77
Ever 77
Eye 77
Initially 77
Inst 77
Ivo 77
Leon 77
List 77
Lopez 77
MC 77
Margaret 77
Namibia 77
Nash 77
Oxford 77
SD 77
Shop 77
Soccer 77
Storm 77
Turn 77
Voice 77
Wes 77
agit 77
ante 77
blocs 77
comeback 77
fraction 77
mali 77
mate 77
merchant 77
mi 77
origins 77
piano 77
racing 77
sailing 77
soap 77
sob 77
ven 77
شیراز 77
##22 76
##ann 76
##ario 76
##aru 76
##bita 76
##dita 76
##father 76
##lates 76
##oid 76
##orem 76
##pens 76
##raphic 76
##rior 76
##sil 76
##srat 76
##ulent 76
##vement 76
172 76
187 76
195 76
620 76
Abraham 76
Cancer 76
Charlotte 76
Cole 76
Crimes 76
Critics 76
EP 76
ER 76
Edward 76
Engineers 76
Gate 76
Goodman 76
Graham 76
Lab 76
Laurent 76
Munich 76
Polish 76
Rest 76
Target 76
Ulla 76
Vos 76
Were 76
american 76
ballet 76
bana 76
bands 76
batteries 76
circular 76
disciplina 76
drift 76
erosi 76
eventual 76
forty 76
jap 76
probable 76
remainder 76
smallest 76
theatrical 76
volleyball 76
writings 76
##boro 75
##cera 75
##chenko 75
##culo 75
##dau 75
##efe 75
##fiti 75
##kku 75
##ligi 75
##mani 75
##mm 75
##neri 75
##ologie 75
##ong 75
##oto 75
##pac 75
##passing 75
##plies 75
##rono 75
##stat 75
##vich 75
##vings 75
##wali 75
##yga 75
##yna 75
##zards 75
12th 75
234 75
244 75
Costa 75
Give 75
Irma 75
Jennifer 75
KB 75
Lama 75
Levant 75
Michelle 75
NY 75
Neil 75
Nem 75
PKK 75
Rabat 75
Satellite 75
Save 75
Sophie 75
Throughout 75
Til 75
activation 75
ato 75
carri 75
casting 75
clay 75
colonies 75
coupled 75
databases 75
derived 75
dispose 75
dossier 75
featuring 75
fou 75
gov 75
nak 75
northwestern 75
ort 75
premiu 75
voltage 75
##eck 74
##fini 74
##kle 74
##kot 74
##monds 74
##nfo 74
##porte 74
##pulation 74
##rez 74
##roads 74
##roca 74
##tao 74
##took 74
##trici 74
##want 74
##wimmer 74
##zma 74
174 74
212 74
285 74
720 74
Campbell 74
Clarke 74
Duke 74
Eleven 74
Eventually 74
Lithuania 74
Maja 74
RS 74
Scientists 74
Self 74
Solid 74
Som 74
Way 74
chemistry 74
collision 74
dimensional 74
environments 74
fertile 74
goalkeeper 74
keys 74
kin 74
masters 74
milli 74
nominal 74
plantation 74
portraits 74
provisional 74
rud 74
similarly 74
suppression 74
underlying 74
unsuccessful 74
victories 74
x 74
هجری 74
##DB 73
##aft 73
##agon 73
##aler 73
##anut 73
##athlon 73
##cursions 73
##dden 73
##eran 73
##ette 73
##eye 73
##hany 73
##inge 73
##jik 73
##kna 73
##liv 73
##mara 73
##ndr 73
##olen 73
##ont 73
##plan 73
##posito 73
##reate 73
##rub 73
##taba 73
##taine 73
##tuti 73
##uch 73
##zat 73
##بدو 73
##تضمن 73
##حسن 73
##فض 73
1915 73
196 73
660 73
Chess 73
Current 73
FS 73
Fall 73
Fifth 73
Friends 73
Hanna 73
Hero 73
Iceland 73
Idris 73
Judicial 73
Know 73
Majlis 73
Marie 73
Marines 73
Mental 73
Moldova 73
Nelson 73
Plans 73
Richter 73
SAD 73
SM 73
Spot 73
Stein 73
Things 73
Une 73
attractions 73
barra 73
canton 73
ceased 73
endemic 73
morali 73
portal 73
renovated 73
resta 73
rode 73
stub 73
vague 73
حالات 73
خراسان 73
##aban 72
##alang 72
##cast 72
##chement 72
##ddi 72
##dru 72
##edia 72
##ener 72
##ere 72
##gou 72
##hado 72
##hane 72
##hd 72
##ibu 72
##nad 72
##nificent 72
##nok 72
##obia 72
##ona 72
##orte 72
##ota 72
##rgi 72
##rl 72
##rly 72
##rni 72
##sso 72
##stream 72
##titi 72
##tivi 72
##unge 72
##wir 72
##yclone 72
##zem 72
##zm 72
##لاف 72
335 72
378 72
570 72
Boys 72
Burundi 72
Chat 72
Consumer 72
Elite 72
Getting 72
Left 72
Mono 72
Morris 72
Norma 72
Robin 72
arte 72
cabin 72
chart 72
deem 72
documented 72
expressions 72
fort 72
fragment 72
laude 72
legislature 72
manuscripts 72
naming 72
occupa 72
socialist 72
strid 72
tales 72
wireless 72
##RF 71
##SR 71
##agan 71
##ason 71
##aze 71
##biy 71
##chin 71
##dox 71
##eg 71
##enter 71
##icu 71
##ifica 71
##je 71
##lene 71
##oks 71
##oze 71
1384 71
435 71
447 71
475 71
640 71
AV 71
Abe 71
Academic 71
Bear 71
Belo 71
Calder 71
Case 71
Cathedral 71
Dean 71
Deutsche 71
Follow 71
Glenn 71
Greg 71
Hare 71
Howard 71
ISS 71
Javier 71
Language 71
Mining 71
Motor 71
Nikolai 71
Ole 71
Orange 71
Path 71
Photos 71
Promotion 71
Qara 71
Toronto 71
costumes 71
durable 71
homem 71
idi 71
patron 71
predominantly 71
problema 71
qualification 71
recreational 71
residing 71
sentiments 71
toe 71
toured 71
vocal 71
##abe 70
##bati 70
##ckt 70
##edd 70
##ero 70
##eso 70
##hant 70
##icie 70
##idan 70
##iman 70
##maid 70
##mper 70
##ponenti 70
##quen 70
##rite 70
##thes 70
##vade 70
##word 70
221 70
266 70
268 70
293 70
344 70
Bald 70
Bold 70
Dana 70
Dead 70
Fred 70
Gay 70
Gray 70
Jet 70
Mahal 70
Phoenix 70
Portland 70
Response 70
Slovakia 70
Son 70
Steven 70
Tomorrow 70
Virgin 70
activated 70
asa 70
bere 70
cara 70
conserve 70
earliest 70
ef 70
influences 70
ker 70
mann 70
manual 70
mature 70
monastery 70
particles 70
provider 70
references 70
slave 70
spiral 70
sprint 70
ومن 70
##CS 69
##aida 69
##anda 69
##chev 69
##dder 69
##ement 69
##etin 69
##festo 69
##gradation 69
##hora 69
##inar 69
##lug 69
##lum 69
##ogh 69
##quita 69
##quo 69
##rja 69
##ths 69
##uga 69
##viation 69
##yana 69
##zzi 69
1700 69
227 69
245 69
315 69
384 69
670 69
860 69
Bere 69
Burg 69
Generale 69
Georgian 69
Ground 69
Hawaii 69
Isla 69
Jane 69
Latino 69
Lim 69
Marx 69
Model 69
Philippine 69
Play 69
Progressive 69
Question 69
Round 69
Shark 69
Syd 69
TIME 69
Tat 69
Teaching 69
Tip 69
Var 69
Venice 69
algorithm 69
barrage 69
biz 69
cum 69
depot 69
dio 69
fantasy 69
il 69
lesser 69
listing 69
mens 69
revived 69
sank 69
stare 69
styles 69
ud 69
##18 68
##24 68
##OCK 68
##acon 68
##arre 68
##chia 68
##cian 68
##col 68
##dara 68
##dre 68
##dur 68
##gnant 68
##imet 68
##making 68
##mys 68
##nara 68
##normal 68
##pili 68
##rmat 68
##rmo 68
##roy 68
##scal 68
##sona 68
##toe 68
##ulu 68
##urd 68
##wani 68
##بعد 68
243 68
252 68
9000 68
Anders 68
Andrei 68
Artist 68
Bell 68
Bonn 68
Cause 68
Chen 68
Darwin 68
Gene 68
Jamaica 68
Kentucky 68
Level 68
Lor 68
Making 68
Oleg 68
Pod 68
Problems 68
Ring 68
Sem 68
Stay 68
Stone 68
Treatment 68
YOU 68
acre 68
altered 68
analog 68
annum 68
battery 68
cadet 68
casino 68
ces 68
cn 68
drum 68
duration 68
feedback 68
filmed 68
hoc 68
honours 68
interactive 68
isola 68
mans 68
metall 68
misi 68
nit 68
northeastern 68
origina 68
outcomes 68
pale 68
quer 68
seg 68
sente 68
slaves 68
wheels 68
العمل 68
جبل 68
##aya 67
##box 67
##enberg 67
##ern 67
##ission 67
##iver 67
##jano 67
##kate 67
##mino 67
##ndo 67
##rime 67
##sma 67
##uja 67
##vari 67
##vie 67
##vir 67
##wati 67
##yon 67
##yong 67
##zor 67
231 67
248 67
Abbey 67
Baku 67
Botswana 67
Como 67
Haar 67
Individual 67
Killing 67
Laura 67
Liter 67
Manuel 67
Math 67
Max 67
NBC 67
Overall 67
Rae 67
Search 67
Tribunal 67
Tun 67
Understanding 67
Uruguay 67
Vegas 67
Wally 67
Yuri 67
analyses 67
assim 67
bachelor 67
battalion 67
bug 67
engl 67
exhibited 67
guides 67
indice 67
laps 67
lens 67
mars 67
oba 67
occasional 67
peaks 67
rit 67
##cial 66
##enga 66
##falls 66
##gene 66
##gum 66
##iral 66
##itti 66
##kie 66
##lko 66
##lse 66
##oons 66
##play 66
##rms 66
##tys 66
##ussion 66
##zare 66
##zel 66
1941 66
CM 66
Class 66
Close 66
Direct 66
Disney 66
Gabriel 66
Grace 66
Irina 66
Issue 66
Job 66
Mani 66
NH 66
Neu 66
Silver 66
Start 66
Tennis 66
adapted 66
avenue 66
characteristic 66
cm 66
descent 66
domination 66
genre 66
labels 66
minerals 66
originated 66
parce 66
probability 66
rated 66
susceptible 66
torre 66
val 66
امپراتوری 66
کنتاکی 66
##acki 65
##ades 65
##bert 65
##cended 65
##gari 65
##gon 65
##gu 65
##ibo 65
##illa 65
##iment 65
##jam 65
##lion 65
##logia 65
##lons 65
##menti 65
##mies 65
##nale 65
##olt 65
##roud 65
##rout 65
##sak 65
##trie 65
##urt 65
255 65
710 65
Competition 65
Ele 65
Electoral 65
Eve 65
Fel 65
Fernandez 65
Guards 65
Hold 65
Kings 65
LAN 65
Liu 65
Lund 65
Mahmud 65
Medal 65
Mee 65
Papa 65
Paula 65
RAI 65
Rosa 65
Teacher 65
Wilson 65
cemetery 65
centri 65
columns 65
deck 65
floors 65
ger 65
ghost 65
halve 65
hol 65
insan 65
levy 65
merged 65
metric 65
municipalities 65
null 65
pis 65
polis 65
stark 65
upgraded 65
variables 65
visi 65
الآن 65
وما 65
##EG 64
##bate 64
##bedded 64
##course 64
##dde 64
##fica 64
##graphy 64
##iar 64
##icap 64
##ii 64
##itted 64
##kil 64
##mt 64
##ogen 64
##rug 64
##stor 64
##tto 64
##ysk 64
232 64
254 64
262 64
267 64
630 64
ARM 64
ATM 64
Angela 64
Ann 64
Assessment 64
Austin 64
Basil 64
Basketball 64
Caribbean 64
Cele 64
Contact 64
Dick 64
Eit 64
Francois 64
Gandhi 64
Geological 64
Jacques 64
Outside 64
Proc 64
Progress 64
Sean 64
Slovenia 64
Stab 64
Telegraph 64
Thompson 64
Volunteer 64
bog 64
chains 64
corporal 64
hardware 64
inhabited 64
kuna 64
logo 64
molecules 64
narrative 64
oma 64
oz 64
partition 64
premiere 64
propone 64
runners 64
termin 64
violin 64
##ago 63
##arde 63
##bana 63
##cari 63
##ession 63
##evan 63
##gement 63
##geo 63
##geon 63
##gir 63
##gust 63
##iban 63
##inis 63
##initive 63
##lee 63
##made 63
##mised 63
##nka 63
##nus 63
##polo 63
##pra 63
##psi 63
##ribution 63
##stina 63
##uel 63
##wid 63
##zari 63
##zoo 63
246 63
256 63
312 63
334 63
Baby 63
Barbara 63
Bare 63
Beck 63
Cain 63
Clin 63
Coach 63
Finland 63
Goal 63
Hills 63
Jabal 63
Lisa 63
Low 63
Maryland 63
Mitch 63
Naval 63
Pole 63
Rogers 63
Rush 63
Toyota 63
abundant 63
appearances 63
artis 63
connects 63
domains 63
dynamics 63
embarked 63
flora 63
garage 63
habitat 63
mafia 63
manages 63
mina 63
pari 63
peninsula 63
promotional 63
slalom 63
التهاب 63
الرحمن 63
العمر 63
##ISE 62
##TP 62
##adu 62
##awn 62
##ccus 62
##chs 62
##ecule 62
##gani 62
##gnose 62
##hers 62
##icist 62
##issa 62
##itate 62
##lba 62
##lm 62
##lte 62
##nku 62
##nomi 62
##olo 62
##onis 62
##osen 62
##ptive 62
##stander 62
##uid 62
##yang 62
##ysis 62
##قرب 62
236 62
327 62
675 62
Airbus 62
Arms 62
Aur 62
Bet 62
CB 62
Clean 62
Comic 62
Continental 62
Ein 62
FIS 62
Framework 62
Frankfurt 62
GT 62
Jakarta 62
Kamil 62
Maya 62
PhD 62
SL 62
Sebastian 62
Standing 62
View 62
Yang 62
Zum 62
accredited 62
ach 62
architectural 62
bits 62
chapters 62
commanded 62
corre 62
cylinder 62
explorer 62
generali 62
instrumental 62
jungle 62
karate 62
locality 62
mouse 62
ori 62
proximity 62
pub 62
souvenir 62
stati 62
tatt 62
traded 62
##64 61
##90 61
##borne 61
##cents 61
##emlin 61
##gam 61
##gara 61
##giene 61
##icis 61
##ips 61
##itch 61
##ksud 61
##loaded 61
##mori 61
##nam 61
##pate 61
##rent 61
##rj 61
##rsk 61
##station 61
##unted 61
##uss 61
##vit 61
##ورات 61
15th 61
1924 61
1936 61
197 61
239 61
249 61
311 61
314 61
317 61
4500 61
466 61
Amazon 61
Christie 61
Cut 61
Different 61
Dream 61
Ecuador 61
Fine 61
Foto 61
GP 61
Male 61
Martha 61
Past 61
Petersburg 61
Pin 61
Quartet 61
Selim 61
Temple 61
Tora 61
Trophy 61
UC 61
Wu 61
bela 61
carica 61
counties 61
density 61
exhibits 61
isa 61
offense 61
performs 61
rotation 61
sari 61
sculptures 61
sensible 61
siblings 61
statues 61
tier 61
trailer 61
tropical 61
tun 61
zom 61
الحسن 61
##2010 60
##akov 60
##alan 60
##aren 60
##arki 60
##bow 60
##dicated 60
##gos 60
##hanol 60
##heim 60
##hone 60
##isma 60
##kum 60
##loa 60
##mbu 60
##nog 60
##nue 60
##oka 60
##olition 60
##onat 60
##pas 60
##pos 60
##sfeld 60
##vani 60
##ثل 60
17th 60
186 60
272 60
302 60
490 60
780 60
Bono 60
Boris 60
Cheney 60
Cold 60
Commons 60
Flash 60
Fortuna 60
Gall 60
Hutchinson 60
Jobs 60
Kark 60
Keith 60
Koch 60
Massimo 60
Notice 60
Permanent 60
Place 60
Roth 60
Seth 60
Sgt 60
Shakespeare 60
Trail 60
VIP 60
Visa 60
Zanzibar 60
adam 60
boyfriend 60
deri 60
fibre 60
filming 60
franchise 60
kings 60
manufacturer 60
misma 60
pupil 60
riders 60
rivalry 60
robe 60
satellites 60
strings 60
viral 60
##bining 59
##bst 59
##burn 59
##clave 59
##fand 59
##fina 59
##leman 59
##nect 59
##oya 59
##pende 59
##rimo 59
##rtu 59
##shu 59
##stin 59
##sty 59
1937 59
257 59
276 59
295 59
Admiral 59
Bring 59
Cass 59
Castro 59
Deng 59
Dov 59
Ese 59
Garde 59
Genocide 59
Glasgow 59
Hugo 59
Impact 59
Jenny 59
Lines 59
MIT 59
Memphis 59
Northwest 59
Nurse 59
Own 59
Paz 59
Risk 59
Roosevelt 59
Short 59
Song 59
Stars 59
Status 59
Tribe 59
Zen 59
adaptation 59
apartheid 59
catalogue 59
colours 59
commence 59
ei 59
eldest 59
ep 59
focal 59
historians 59
intersection 59
leis 59
leo 59
messe 59
patria 59
philosophical 59
platforms 59
saint 59
sel 59
speeds 59
stari 59
tyre 59
yards 59
##27 58
##45 58
##aka 58
##bring 58
##club 58
##emia 58
##feste 58
##gay 58
##group 58
##hya 58
##ipper 58
##jir 58
##lari 58
##liff 58
##nction 58
##nse 58
##passed 58
##plosion 58
##quist 58
##rail 58
##rone 58
##sad 58
##tib 58
##vad 58
##vasi 58
##writing 58
##xica 58
##xico 58
##yel 58
##فظ 58
238 58
412 58
Alexa 58
Alexandra 58
Als 58
Amb 58
Ambrose 58
Bloomberg 58
Carr 58
Deep 58
Document 58
Eat 58
Fast 58
Groups 58
Jefferson 58
Learning 58
Lives 58
Matthew 58
Mercedes 58
Oliver 58
Oriental 58
PS 58
Perez 58
Pine 58
Presiden 58
Race 58
Rain 58
Rein 58
Tian 58
Trend 58
Wedding 58
abstract 58
advocated 58
album 58
animated 58
aq 58
batting 58
cognitive 58
correspond 58
costume 58
distinctive 58
dock 58
download 58
elevated 58
extensions 58
fitted 58
fut 58
hydrogen 58
nationally 58
nicknamed 58
novels 58
renta 58
singles 58
sodium 58
traits 58
unu 58
uri 58
url 58
آبادی 58
##adh 57
##ako 57
##alu 57
##bury 57
##china 57
##dres 57
##fine 57
##fty 57
##gid 57
##gio 57
##hende 57
##itu 57
##jud 57
##kou 57
##kwondo 57
##lent 57
##liner 57
##lita 57
##nty 57
##pion 57
##pose 57
##rew 57
##rick 57
##tage 57
##tual 57
##uent 57
##yne 57
##ائف 57
##طلاق 57
218 57
264 57
283 57
284 57
313 57
442 57
730 57
AH 57
AIM 57
Alle 57
Blind 57
Casablanca 57
Clark 57
Contemporary 57
Cost 57
Design 57
Emily 57
Heights 57
Kansas 57
Les 57
MTV 57
Marina 57
Mirror 57
Principal 57
Rap 57
Really 57
SAR 57
Settlement 57
Shortly 57
Story 57
String 57
Systems 57
Tata 57
Walter 57
Wildlife 57
Ying 57
aby 57
bala 57
beam 57
colored 57
complexes 57
elevation 57
empat 57
financier 57
grey 57
hurricane 57
inaugural 57
maha 57
nau 57
ot 57
parameters 57
porta 57
portrayed 57
prestige 57
projection 57
rector 57
ادب 57
##28 56
##35 56
##ael 56
##ards 56
##dd 56
##duce 56
##elling 56
##ffice 56
##gia 56
##heit 56
##itan 56
##itative 56
##kyn 56
##menta 56
##nom 56
##oki 56
##oof 56
##ringe 56
##roma 56
##rong 56
##seen 56
##sement 56
##tech 56
##uil 56
##uze 56
##yet 56
##ائد 56
##ثال 56
##ورپ 56
318 56
777 56
870 56
Amar 56
Arthur 56
Ayn 56
Burkina 56
Cardiff 56
Discovery 56
Easter 56
Effect 56
Electronic 56
Esti 56
Evans 56
Find 56
Finding 56
Game 56
Girl 56
HD 56
Happy 56
Ice 56
Jos 56
Junior 56
Kumar 56
Lawrence 56
Lay 56
Micro 56
Miguel 56
Revenue 56
Rim 56
Roy 56
Schwarz 56
Sr 56
TC 56
Ultimate 56
Und 56
Victor 56
Vietnamese 56
Wadi 56
Wakefield 56
Warren 56
Wide 56
bbc 56
calle 56
civilisation 56
consisted 56
coral 56
diagnostic 56
drums 56
fog 56
gauge 56
interactions 56
mara 56
medicina 56
placa 56
qualitat 56
quantum 56
recordings 56
refere 56
rege 56
renamed 56
tige 56
typ 56
vain 56
worm 56
##assa 55
##ben 55
##did 55
##eda 55
##efficient 55
##eir 55
##enger 55
##eve 55
##face 55
##fari 55
##gus 55
##kali 55
##meri 55
##nsa 55
##okie 55
##ores 55
##passes 55
##peli 55
##phon 55
##pla 55
##pred 55
##rayal 55
##rci 55
##roi 55
##rui 55
##sch 55
##tym 55
##umo 55
##vsky 55
##zyn 55
##صنع 55
1441 55
1933 55
241 55
345 55
356 55
Ako 55
Basa 55
Benin 55
Bernard 55
Better 55
Bond 55
Carol 55
Chiefs 55
Dear 55
Elena 55
Ellis 55
Events 55
Falls 55
Fleet 55
Fran 55
Gonzalez 55
Hair 55
Hell 55
Metro 55
Pastor 55
Pers 55
Pet 55
Process 55
SDP 55
Sino 55
Stephenson 55
Vancouver 55
Vor 55
Yi 55
arter 55
ay 55
chim 55
contested 55
dos 55
drawings 55
extensively 55
graduating 55
holl 55
io 55
legendary 55
makeup 55
nov 55
philosopher 55
possessions 55
princes 55
punct 55
satu 55
sem 55
sensor 55
spor 55
wit 55
y 55
##23 54
##HL 54
##alle 54
##celli 54
##chet 54
##cline 54
##corre 54
##dli 54
##ech 54
##eke 54
##gol 54
##grapher 54
##heritance 54
##ilm 54
##iol 54
##ix 54
##kak 54
##kaz 54
##koi 54
##lemen 54
##lice 54
##lip 54
##mos 54
##mosi 54
##nera 54
##oris 54
##osa 54
##rela 54
##solidated 54
##sula 54
##tos 54
##ttage 54
##ury 54
##wy 54
##zok 54
##دخل 54
13th 54
189 54
426 54
Avenue 54
Beyond 54
Brothers 54
Cities 54
Edwards 54
Extreme 54
Hawk 54
Kenneth 54
Lagos 54
MH 54
Marshal 54
Meg 54
Mines 54
Nina 54
Nixon 54
Opening 54
Rabbi 54
Rand 54
Russell 54
Speech 54
Talking 54
Truth 54
Ural 54
Vatican 54
Veterans 54
armi 54
artifacts 54
beau 54
chun 54
coaching 54
distances 54
finalist 54
hormone 54
incorporated 54
intermediate 54
intern 54
kilometre 54
manifestations 54
nickname 54
nun 54
placement 54
pole 54
polo 54
shallow 54
sizes 54
studios 54
superiori 54
vent 54
##agh 53
##anne 53
##ategi 53
##chard 53
##cion 53
##dos 53
##enta 53
##game 53
##icien 53
##idable 53
##ior 53
##maga 53
##mmer 53
##msa 53
##omy 53
##pulse 53
##rane 53
##rapher 53
##rion 53
##sem 53
##stein 53
##tami 53
##tern 53
##tie 53
##tti 53
##venes 53
##vig 53
##volve 53
##vu 53
050 53
229 53
247 53
292 53
305 53
401 53
415 53
Addis 53
Associations 53
Belfast 53
Brand 53
Cam 53
Fan 53
Gabrielle 53
Growth 53
Ini 53
Leadership 53
Leave 53
Listen 53
Looking 53
Luther 53
Mozambique 53
Nicholas 53
Normal 53
Reno 53
Riot 53
Room 53
Run 53
Seychelles 53
Shell 53
Sit 53
Stockholm 53
Want 53
Yugoslav 53
apa 53
atti 53
brun 53
developers 53
elevato 53
exceptions 53
imperial 53
lub 53
nou 53
plaza 53
portions 53
preceding 53
productions 53
regulated 53
shorter 53
styl 53
tenant 53
tren 53
vand 53
varying 53
وله 53
# 52
##32 52
##PS 52
##gru 52
##heart 52
##ids 52
##match 52
##onic 52
##ponent 52
##sein 52
##simo 52
##terra 52
##tini 52
##uer 52
##uha 52
##vang 52
##vet 52
##yes 52
219 52
273 52
277 52
299 52
333 52
427 52
Alice 52
Alternative 52
Barra 52
Dragon 52
Faso 52
Fraser 52
Himalaya 52
Host 52
Johnny 52
Justin 52
Kale 52
Karl 52
Manu 52
Mart 52
Mt 52
Nes 52
Oregon 52
Plaza 52
Resource 52
Roger 52
Sacramento 52
Score 52
Session 52
Solar 52
Spirit 52
Stewart 52
Strike 52
Strong 52
Train 52
Yao 52
ample 52
comparable 52
diameter 52
dili 52
equity 52
hoa 52
lat 52
layers 52
maj 52
monster 52
qu 52
rang 52
rupture 52
vers 52
##boat 51
##ddy 51
##fing 51
##glo 51
##hne 51
##ights 51
##ilu 51
##justed 51
##kles 51
##locke 51
##mbar 51
##ml 51
##naire 51
##nay 51
##nie 51
##nies 51
##noi 51
##phi 51
##rku 51
##ryl 51
##sca 51
##uida 51
##wand 51
##wels 51
1386 51
237 51
258 51
300000 51
Andrews 51
Ano 51
Appeal 51
Blog 51
Brooklyn 51
Castle 51
Census 51
Centers 51
Charlie 51
Commandant 51
Dalai 51
Davies 51
Expo 51
Final 51
Francis 51
Generation 51
Graduate 51
Greeks 51
Haifa 51
Harris 51
Hon 51
Immigration 51
Jeffrey 51
Kant 51
Katie 51
Liber 51
Lieutenant 51
Lloyd 51
Morning 51
Newton 51
Pain 51
Pla 51
RAF 51
Rams 51
Results 51
Roberts 51
Santo 51
Scouts 51
Select 51
Series 51
Simple 51
Sixth 51
Stal 51
TN 51
Togo 51
Trading 51
USC 51
Value 51
Welle 51
Yates 51
ancestral 51
barn 51
cel 51
commanding 51
debat 51
designa 51
fossil 51
interne 51
locomotives 51
mano 51
maso 51
merci 51
minus 51
nasce 51
optional 51
quell 51
receiver 51
reconnaissance 51
simulation 51
sind 51
temples 51
verse 51
voi 51
##film 50
##hong 50
##itz 50
##jak 50
##kus 50
##lim 50
##lise 50
##lub 50
##media 50
##mert 50
##nton 50
##oken 50
##phones 50
##rey 50
##tara 50
##tow 50
##uno 50
##vr 50
259 50
306 50
309 50
362 50
770 50
Barclay 50
Cara 50
Chelsea 50
Coll 50
Connecticut 50
Copenhagen 50
Die 50
Donna 50
Dub 50
Dublin 50
EPA 50
Fernando 50
Franklin 50
Gerald 50
Gross 50
Hoa 50
Hun 50
Jessica 50
Jong 50
Knowledge 50
Lance 50
Lukas 50
Nowa 50
Odin 50
Personal 50
Producer 50
Radical 50
Regions 50
Southwest 50
Warner 50
Wolf 50
affluent 50
altitude 50
baja 50
bei 50
chef 50
denomina 50
dini 50
disk 50
fem 50
kr 50
menu 50
mil 50
mois 50
molecular 50
nos 50
parasit 50
pine 50
politici 50
relocated 50
spille 50
trophy 50
چکی 50
کرمان 50
##26 49
##GS 49
##HF 49
##aday 49
##aras 49
##ature 49
##cades 49
##cter 49
##cz 49
##eds 49
##eld 49
##ente 49
##figur 49
##gge 49
##gini 49
##gles 49
##gn 49
##haya 49
##heen 49
##kab 49
##lava 49
##lding 49
##mont 49
##oko 49
##ored 49
##stre 49
##tena 49
##tero 49
##tinen 49
##tw 49
##yen 49
216 49
2200 49
303 49
322 49
448 49
Across 49
Betty 49
Billy 49
Chapter 49
Dave 49
Denver 49
Extra 49
Form 49
Guy 49
Jak 49
Jis 49
Julian 49
Kerry 49
Kyoto 49
Magazine 49
Marshall 49
Midwest 49
Mod 49
Montreal 49
Ottawa 49
POP 49
Palm 49
Parts 49
Pittsburgh 49
Protestant 49
Rachel 49
Supporting 49
Tower 49
Via 49
Welcome 49
accent 49
anni 49
archives 49
blad 49
comparative 49
computing 49
fills 49
fragments 49
indo 49
j 49
mill 49
niya 49
ove 49
pne 49
radi 49
sci 49
spelled 49
tot 49
بدور 49
بهعنوان 49
##21 48
##34 48
##action 48
##br 48
##dik 48
##ection 48
##esa 48
##eves 48
##fta 48
##graphs 48
##holm 48
##hosa 48
##imin 48
##ldo 48
##mande 48
##mek 48
##ntal 48
##onte 48
##oria 48
##rater 48
##rot 48
##ston 48
##uise 48
##uye 48
##vide 48
##yri 48
##zana 48
##علم 48
332 48
361 48
386 48
432 48
444 48
510 48
760 48
Architecture 48
Bandar 48
Believe 48
Bio 48
Clive 48
Croatian 48
Crow 48
Daddy 48
Depression 48
Especial 48
Fra 48
Fuel 48
Golf 48
Heads 48
Johannesburg 48
Lev 48
Lions 48
Maritime 48
Page 48
Panel 48
Rally 48
Rodriguez 48
Salt 48
Santos 48
Seo 48
TNT 48
Tone 48
Trip 48
UV 48
VOLUME 48
armor 48
castle 48
cathedral 48
comedian 48
compatible 48
conception 48
inferior 48
lang 48
laser 48
massa 48
medieval 48
mur 48
pairs 48
passive 48
rapport 48
stat 48
thrash 48
toa 48
ultima 48
##CD 47
##aco 47
##bec 47
##fida 47
##four 47
##iras 47
##izi 47
##izo 47
##jat 47
##lien 47
##mises 47
##monia 47
##orter 47
##rell 47
##sara 47
##sea 47
##sl 47
##tma 47
##torial 47
##uzi 47
##خرج 47
16th 47
281 47
282 47
308 47
443 47
555 47
Absolute 47
Armstrong 47
Berlusconi 47
Brien 47
Bronx 47
Career 47
Christine 47
Database 47
Eddie 47
Emile 47
Facility 47
Grad 47
Gupta 47
Heat 47
Ille 47
Lok 47
Mann 47
Masjid 47
Matter 47
Milli 47
Mora 47
Moses 47
Ny 47
OM 47
Paradise 47
Petrov 47
Principles 47
Rapid 47
Schneider 47
Seis 47
Sheriff 47
Simpson 47
Solutions 47
Verde 47
Vision 47
Wade 47
Wayne 47
Wood 47
atom 47
chromosome 47
clerk 47
climat 47
coma 47
commandant 47
conquest 47
explored 47
faz 47
lied 47
peculiar 47
proceeded 47
spre 47
translator 47
usa 47
varies 47
مغربی 47
##33 46
##apo 46
##balt 46
##beck 46
##bine 46
##bulo 46
##eek 46
##graphe 46
##iology 46
##iven 46
##kim 46
##lts 46
##mai 46
##mospheric 46
##ndar 46
##nial 46
##oby 46
##rium 46
##rto 46
##session 46
##sie 46
##tad 46
##tano 46
##telling 46
##tler 46
##tons 46
##twa 46
##uman 46
##yka 46
##اتب 46
##سبب 46
253 46
269 46
454 46
535 46
960 46
970 46
Cardinal 46
Concept 46
Crowley 46
Dmitri 46
Ea 46
Friedman 46
GSM 46
Gender 46
Hub 46
Jerry 46
Julie 46
Lithuanian 46
ML 46
Madras 46
Marc 46
Marketing 46
McDonald 46
Mei 46
Melbourne 46
Monaco 46
Murphy 46
NET 46
Pac 46
Record 46
Rough 46
Route 46
Samuel 46
Secret 46
Sound 46
Thu 46
Wallis 46
XML 46
absorbed 46
adulte 46
cam 46
catalog 46
cc 46
ceremonial 46
comics 46
cyn 46
daun 46
episodes 46
estates 46
facade 46
ferry 46
hierarchy 46
honorary 46
ibn 46
lan 46
masse 46
sid 46
sig 46
sung 46
tae 46
thereafter 46
veste 46
vin 46
° 46
##38 45
##42 45
##acha 45
##cars 45
##dak 45
##doni 45
##familia 45
##fin 45
##giver 45
##hima 45
##inin 45
##ires 45
##itt 45
##joy 45
##leu 45
##lop 45
##mmy 45
##nur 45
##onar 45
##ows 45
##pal 45
##ques 45
##rag 45
##ramm 45
##rici 45
##rmen 45
##rue 45
##tary 45
##thers 45
##tura 45
##uin 45
##umon 45
##vak 45
##veno 45
##vial 45
##worth 45
##قتل 45
286 45
336 45
367 45
840 45
843 45
> 45
Anton 45
Apache 45
Bull 45
Canyon 45
Chang 45
Cindy 45
Danny 45
Digital 45
Dollar 45
Duchess 45
Ent 45
Felipe 45
Felix 45
Garcia 45
Hamburg 45
Hello 45
Hitler 45
Honey 45
Kata 45
Mayo 45
Name 45
PSA 45
Pasha 45
Playing 45
Princeton 45
Rin 45
Sole 45
Statistical 45
Valencia 45
Zona 45
alla 45
compact 45
conductor 45
eligibility 45
fond 45
han 45
ken 45
knockout 45
kt 45
lar 45
marketed 45
mic 45
motto 45
pastor 45
sama 45
sixty 45
von 45
السلام 45
حرب 45
وهو 45
##400 44
##44 44
##55 44
##NV 44
##ader 44
##arna 44
##bold 44
##bora 44
##bori 44
##bru 44
##cipation 44
##cka 44
##dari 44
##dian 44
##dola 44
##eng 44
##enu 44
##fen 44
##gall 44
##gre 44
##ione 44
##ius 44
##lite 44
##lter 44
##rico 44
##saka 44
##sional 44
##tens 44
##tex 44
##ulte 44
##ups 44
##ئات 44
1850 44
1942 44
271 44
316 44
321 44
385 44
920 44
Advisory 44
Amon 44
Antoni 44
Baltic 44
Battalion 44
Beth 44
Borg 44
Buenos 44
Burma 44
Comprehensive 44
Dunn 44
Evan 44
Evidence 44
Gut 44
Herald 44
Hurricane 44
Jacobs 44
Kamen 44
Launch 44
Lear 44
Malta 44
Myanmar 44
Nadir 44
Patel 44
Peru 44
Plastic 44
Records 44
Reynolds 44
Rich 44
Sandra 44
Sharp 44
Slavic 44
Superman 44
Warning 44
Weekly 44
antique 44
backup 44
banque 44
centimeter 44
desa 44
ego 44
entries 44
essay 44
excellence 44
facto 44
favore 44
graph 44
hak 44
influenza 44
interface 44
min 44
numbered 44
pel 44
podium 44
remis 44
superficial 44
traces 44
vel 44
vertical 44
اصفهان 44
توابع 44
لهستانی 44
##aic 43
##ares 43
##bilan 43
##buk 43
##chant 43
##cir 43
##ckpit 43
##dag 43
##dzi 43
##eka 43
##eling 43
##gel 43
##heng 43
##hian 43
##ines 43
##itten 43
##iyah 43
##kom 43
##lesi 43
##nast 43
##nchi 43
##passe 43
##racia 43
##rade 43
##ref 43
##rial 43
##sance 43
##sano 43
##stop 43
##tende 43
##ules 43
##uras 43
1910 43
251 43
289 43
445 43
449 43
Aires 43
Always 43
Barros 43
Bee 43
Behind 43
Bella 43
Bey 43
Brit 43
Bron 43
Charity 43
Cola 43
Colle 43
Constable 43
Dahl 43
Dominique 43
Dre 43
Elder 43
Fresh 43
Fun 43
Gregory 43
Gud 43
Isle 43
Jazz 43
Johns 43
Lesotho 43
Luc 43
Madagascar 43
Marriage 43
Minneapolis 43
Montenegro 43
Move 43
Muse 43
Nicole 43
Orient 43
Philippe 43
Reader 43
SR 43
Seminar 43
Tiger 43
Till 43
Trial 43
Type 43
USS 43
Universities 43
Walsh 43
Wild 43
Word 43
architects 43
archive 43
brass 43
carved 43
contestants 43
corte 43
finite 43
granite 43
gravi 43
ia 43
insect 43
insula 43
kaya 43
lieu 43
mogu 43
noi 43
predator 43
qualifie 43
reliant 43
solo 43
streams 43
tat 43
trails 43
trio 43
##36 42
##aju 42
##avier 42
##cable 42
##chn 42
##cles 42
##cm 42
##dali 42
##dene 42
##dim 42
##giers 42
##giz 42
##hik 42
##inu 42
##kley 42
##lasse 42
##leni 42
##nata 42
##oan 42
##oot 42
##pit 42
##quin 42
##raria 42
##rics 42
##tel 42
##tones 42
##uable 42
##vian 42
##yano 42
##zym 42
1383 42
1922 42
1928 42
1944 42
287 42
304 42
307 42
326 42
355 42
358 42
416 42
546 42
575 42
590 42
690 42
880 42
Apr 42
Block 42
Brain 42
Buckingham 42
Burton 42
Dark 42
Dhaka 42
Fellow 42
Figures 42
HBO 42
Hate 42
Kent 42
Leading 42
Observatory 42
Orleans 42
Pete 42
Phase 42
Phys 42
Products 42
Rasmussen 42
Restaurant 42
Rica 42
Rivers 42
Smart 42
Stories 42
Sugar 42
Tigers 42
Una 42
Zee 42
centered 42
communal 42
descendants 42
diving 42
elev 42
ene 42
evolutionary 42
exemplar 42
favorable 42
genome 42
hybrid 42
mot 42
nazi 42
ole 42
partisans 42
perspectives 42
pitched 42
priests 42
processor 42
ry 42
sketch 42
stran 42
unes 42
انعام 42
##85 41
##BB 41
##ctural 41
##det 41
##dien 41
##dique 41
##eto 41
##fahan 41
##hard 41
##hli 41
##jin 41
##liya 41
##minence 41
##mming 41
##nen 41
##plex 41
##risti 41
##rny 41
##sko 41
##sne 41
##suna 41
##tains 41
##tir 41
##uara 41
##udd 41
##verdi 41
##versa 41
##xan 41
##yid 41
##zze 41
329 41
Angel 41
Anniversary 41
Arnold 41
Beat 41
Boom 41
Bryant 41
Buck 41
Conde 41
Conrad 41
DOM 41
Dona 41
Duncan 41
Emperor 41
Erik 41
Factory 41
Greene 41
Grove 41
Herr 41
Lecture 41
Luxembourg 41
Mauritius 41
Motors 41
Nadia 41
Nara 41
Nashville 41
Pero 41
Planet 41
Product 41
Quick 41
Rey 41
Territory 41
Theater 41
Wake 41
ara 41
artwork 41
bind 41
carro 41
cassette 41
divers 41
dun 41
emigrated 41
flor 41
formations 41
homo 41
iPhone 41
jug 41
mathematical 41
num 41
seating 41
sultan 41
syndrome 41
timer 41
tribu 41
tuli 41
ukr 41
vs 41
xe 41
zu 41
عشر 41
وصف 41
##83 40
##EB 40
##GL 40
##abu 40
##anga 40
##ania 40
##anja 40
##arse 40
##asy 40
##aud 40
##blem 40
##cnic 40
##cout 40
##craft 40
##crit 40
##euvre 40
##fal 40
##ffet 40
##gano 40
##genes 40
##gnan 40
##gnet 40
##iso 40
##lendi 40
##mael 40
##mena 40
##nke 40
##nsky 40
##pala 40
##pist 40
##rama 40
##regat 40
##ride 40
##rson 40
##rut 40
##sana 40
##ssu 40
##tador 40
##tins 40
##uen 40
##undan 40
##urm 40
##uy 40
##varo 40
##version 40
##week 40
##won 40
##zhen 40
##zul 40
##صدر 40
288 40
422 40
428 40
467 40
603 40
615 40
625 40
830 40
Aber 40
Awards 40
Berg 40
Bissau 40
Bruce 40
Citizen 40
Devil 40
Drive 40
Greco 40
Guinness 40
Hood 40
Jason 40
Kei 40
Leo 40
Lew 40
Mean 40
Monument 40
Ost 40
Rules 40
Sally 40
Schwartz 40
Tome 40
Translation 40
WWE 40
Wait 40
Wing 40
airing 40
andre 40
bob 40
caves 40
crowned 40
cycles 40
depi 40
emperor 40
fann 40
gal 40
grammar 40
iPad 40
intel 40
jurist 40
mama 40
measurements 40
messa 40
mia 40
mph 40
pelle 40
postal 40
presenter 40
riche 40
rs 40
starring 40
telle 40
theology 40
utilise 40
valida 40
voyage 40
البحر 40
لها 40
##31 39
##aina 39
##aman 39
##aris 39
##ax 39
##bola 39
##bron 39
##ceni 39
##dura 39
##esta 39
##hidi 39
##ieve 39
##jian 39
##lass 39
##lco 39
##lka 39
##llas 39
##llin 39
##meno 39
##mera 39
##nology 39
##ody 39
##olari 39
##ott 39
##plication 39
##pment 39
##ptic 39
##rei 39
##rky 39
##rner 39
##sei 39
##tend 39
##tim 39
##tting 39
##tus 39
##usha 39
##uto 39
##vede 39
##wen 39
##zek 39
##ziya 39
1938 39
1939 39
301 39
342 39
379 39
404 39
408 39
875 39
964 39
< 39
Aaron 39
Alexei 39
Amsterdam 39
Arkansas 39
Atlantis 39
Bau 39
Bruno 39
Cars 39
Colo 39
Colombo 39
Conte 39
Eva 39
Filipino 39
Focus 39
Frost 39
Gabon 39
Going 39
Hans 39
Honor 39
Hopkins 39
Jens 39
Joy 39
LG 39
Magic 39
Marka 39
Mask 39
Match 39
Monitor 39
Monte 39
Nazis 39
Ned 39
Noah 39
PK 39
Polis 39
Rapport 39
Riva 39
Rocky 39
Santiago 39
Sanz 39
Sina 39
Stand 39
Stanford 39
Titan 39
Tommy 39
UA 39
Uncle 39
Windows 39
aa 39
aggregate 39
amica 39
cet 39
charts 39
dee 39
desse 39
diz 39
dollari 39
edited 39
est 39
ft 39
gifte 39
imaging 39
kad 39
missionary 39
ns 39
parish 39
pathway 39
playoff 39
ros 39
sept 39
sog 39
sorti 39
spacecraft 39
trop 39
ubi 39
variable 39
volcanic 39
##65 38
##ables 38
##aborative 38
##aires 38
##ald 38
##corn 38
##eid 38
##eis 38
##ested 38
##etz 38
##fford 38
##hanna 38
##hrax 38
##iato 38
##iments 38
##ingi 38
##lano 38
##lev 38
##lgar 38
##lifi 38
##mle 38
##nent 38
##ogs 38
##ole 38
##ond 38
##phen 38
##rand 38
##rante 38
##rau 38
##rio 38
##rology 38
##siste 38
##tli 38
##trica 38
##xt 38
##zne 38
1916 38
261 38
274 38
278 38
298 38
324 38
348 38
364 38
389 38
417 38
455 38
458 38
476 38
516 38
549 38
808 38
Above 38
Alberto 38
Angle 38
Animal 38
Ashton 38
Bangalore 38
Barrett 38
Bhutan 38
Bremer 38
Cologne 38
Dari 38
Dennis 38
Dogs 38
Driver 38
Faith 38
Finnish 38
Found 38
Gambia 38
Gone 38
Harbor 38
Herbert 38
Herman 38
Indigenous 38
Karin 38
Kazin 38
Liebe 38
Liverpool 38
Luck 38
Manila 38
Mario 38
Meet 38
Mind 38
Minh 38
Neville 38
Omer 38
Pic 38
Pool 38
Pradesh 38
Quality 38
Ranger 38
Resort 38
Robertson 38
SMS 38
Saints 38
Sans 38
Sent 38
Sera 38
Sexual 38
Ship 38
Shooting 38
Spania 38
Stirling 38
Store 38
Tin 38
Vu 38
Worldwide 38
Yorker 38
Zhang 38
brak 38
camping 38
copie 38
crosses 38
gods 38
gur 38
hal 38
hardcore 38
kai 38
lik 38
liner 38
node 38
proposition 38
southeastern 38
tak 38
touring 38
##52 37
##asa 37
##card 37
##cki 37
##cole 37
##dling 37
##ences 37
##ension 37
##evo 37
##festa 37
##gulo 37
##iang 37
##ikt 37
##mee 37
##mila 37
##ndre 37
##oel 37
##oin 37
##onde 37
##quet 37
##reste 37
##rle 37
##rook 37
##sent 37
##smo 37
##tza 37
##united 37
##usement 37
##vete 37
##vist 37
##zala 37
##zyk 37
##بشر 37
1860 37
1890 37
1912 37
1926 37
2300 37
468 37
485 37
517 37
525 37
820 37
854 37
865 37
ACB 37
Ange 37
Appeals 37
Artists 37
BB 37
Barber 37
Barre 37
Bavaria 37
Bollywood 37
Bow 37
Buffy 37
Buy 37
CF 37
Calling 37
Charleston 37
Civilization 37
Coca 37
Dinamo 37
Doug 37
Douglas 37
Dry 37
Experience 37
Gaga 37
Hart 37
Heroes 37
Hit 37
ISO 37
Ing 37
Jeremy 37
Judaism 37
Karen 37
Lang 37
Lost 37
Mae 37
Mason 37
Moll 37
Mons 37
Patrol 37
Pirates 37
Porto 37
Powers 37
Practice 37
Rang 37
Restoration 37
Saturn 37
Taipei 37
Teams 37
Thor 37
Thunder 37
Toy 37
Wine 37
Wrestling 37
Wright 37
bon 37
disbanded 37
dove 37
editing 37
feminist 37
ido 37
infantry 37
interval 37
jog 37
journals 37
maiden 37
marker 37
naturali 37
notar 37
organisms 37
playoffs 37
prototype 37
quart 37
raza 37
recorde 37
ridge 37
sculptor 37
tee 37
tek 37
الدم 37
کیتی 37
##99 36
##acle 36
##asti 36
##atar 36
##bic 36
##cale 36
##cension 36
##citation 36
##cola 36
##cris 36
##dira 36
##dja 36
##dler 36
##fait 36
##feld 36
##fera 36
##fice 36
##fique 36
##hini 36
##hiro 36
##inger 36
##isk 36
##kada 36
##lace 36
##link 36
##lke 36
##lki 36
##llan 36
##mune 36
##nches 36
##oso 36
##ovu 36
##ples 36
##pter 36
##rca 36
##sala 36
##tein 36
##tiker 36
##tono 36
##tora 36
##unct 36
##uu 36
##vt 36
##yth 36
##zmu 36
##خول 36
##علام 36
1911 36
1917 36
354 36
357 36
376 36
392 36
397 36
411 36
424 36
456 36
527 36
628 36
715 36
810 36
890 36
Anno 36
Anything 36
Barn 36
Barry 36
Brennan 36
Cabral 36
Carnegie 36
Connor 36
Dent 36
Enough 36
Fisheries 36
Fuller 36
Glen 36
Hindi 36
Hiroshima 36
IUCN 36
Joel 36
Laboratory 36
Lane 36
Lyndon 36
Medina 36
Mode 36
Monica 36
Mont 36
Nya 36
Prix 36
Rafael 36
Rate 36
Sendai 36
Sex 36
Side 36
Slim 36
Survivor 36
Thought 36
Toro 36
Villa 36
WR 36
Woo 36
alpine 36
angles 36
assists 36
calcium 36
clima 36
composer 36
conceived 36
copyright 36
coups 36
depicting 36
developer 36
humour 36
locomotive 36
oak 36
ok 36
performer 36
principals 36
roller 36
romance 36
tal 36
tala 36
troupe 36
venti 36
vom 36
معلومات 36
##43 35
##FC 35
##GB 35
##TM 35
##aan 35
##agi 35
##artu 35
##bart 35
##blished 35
##boa 35
##bridge 35
##cay 35
##cen 35
##claves 35
##cony 35
##copa 35
##dani 35
##enz 35
##etting 35
##eurs 35
##ezh 35
##flower 35
##iot 35
##kad 35
##lach 35
##loni 35
##lope 35
##nere 35
##nges 35
##nit 35
##nition 35
##nth 35
##ocke 35
##ojo 35
##pm 35
##reo 35
##rika 35
##tari 35
##teran 35
##tina 35
##tya 35
##uali 35
##usse 35
##ux 35
##veen 35
##vout 35
##wamp 35
##wyn 35
001 35
1943 35
319 35
406 35
459 35
506 35
565 35
654 35
705 35
712 35
767 35
812 35
A3 35
Albania 35
Anglo 35
Angry 35
Balance 35
Blatt 35
Brad 35
Brunei 35
Changing 35
Comics 35
Course 35
DS 35
Demo 35
Devi 35
Dong 35
Drama 35
Eagle 35
Factor 35
Falcon 35
Ferrari 35
GL 35
Gerard 35
Gus 35
Hear 35
Holiday 35
Honour 35
Hornet 35
Ile 35
Jesse 35
Kod 35
Lie 35
Mats 35
Mega 35
Mile 35
Mori 35
Nico 35
Nicola 35
Ola 35
Pack 35
Partners 35
RB 35
RP 35
Reference 35
Rhodes 35
Romans 35
Rubin 35
SMA 35
Siberia 35
Source 35
Stage 35
Stanley 35
Tae 35
Towards 35
Transformers 35
Vladislav 35
Webb 35
coached 35
composers 35
confini 35
correspondence 35
dag 35
darin 35
deriva 35
designation 35
dynasty 35
ecc 35
egy 35
energie 35
extinct 35
figur 35
fortress 35
guitar 35
hay 35
hed 35
hypothesis 35
immer 35
induced 35
ks 35
mentions 35
midfielder 35
mixing 35
reproduction 35
resides 35
rin 35
simplified 35
sketches 35
triangle 35
variation 35
vinta 35
wilde 35
العام 35
بلاد 35
فوج 35
مسئله 35
معظم 35
نائب 35
##anese 34
##aniu 34
##bom 34
##cant 34
##cience 34
##cita 34
##contra 34
##curi 34
##dges 34
##dw 34
##gla 34
##halt 34
##ilis 34
##inea 34
##iyo 34
##js 34
##kara 34
##kovic 34
##leb 34
##lima 34
##matica 34
##mero 34
##mortal 34
##name 34
##nika 34
##ntic 34
##prese 34
##pressa 34
##rance 34
##rde 34
##rme 34
##sdale 34
##servation 34
##sias 34
##sio 34
##stas 34
##sus 34
##tard 34
##tent 34
##terns 34
##tiary 34
##tner 34
##tour 34
##tream 34
##tse 34
##tuk 34
##uar 34
##udo 34
##vice 34
##yd 34
##yte 34
##حصل 34
##چون 34
1880 34
1908 34
1925 34
2100 34
2700 34
279 34
294 34
352 34
452 34
453 34
465 34
473 34
543 34
636 34
683 34
722 34
740 34
Berna 34
Boga 34
Bulgarian 34
CJ 34
Certificate 34
Cheryl 34
Coal 34
Dance 34
Date 34
Diseases 34
Double 34
Flor 34
Foster 34
Havana 34
Hour 34
Ivoire 34
Jared 34
Jericho 34
Johnston 34
Kiba 34
Kirchner 34
Kit 34
Knight 34
LC 34
Latvian 34
Linda 34
Majesty 34
Mercy 34
Milk 34
Murder 34
Pace 34
Phillips 34
Picture 34
Pilot 34
Ravi 34
Shane 34
Silicon 34
Stephanie 34
Tonight 34
Tottenham 34
Track 34
Treasure 34
Truman 34
Vir 34
Yn 34
Zur 34
accede 34
arc 34
averaged 34
bien 34
bishop 34
cai 34
cane 34
colos 34
diagram 34
dome 34
exposition 34
frames 34
groupe 34
harr 34
hom 34
housed 34
hr 34
kam 34
longs 34
lyrics 34
manifestation 34
multitud 34
natal 34
peaked 34
plat 34
prints 34
retiring 34
shek 34
tram 34
ung 34
varia 34
vene 34
ویب 34
##arono 33
##babil 33
##baki 33
##bare 33
##bbit 33
##bere 33
##bina 33
##bna 33
##cible 33
##dolo 33
##finals 33
##geri 33
##gly 33
##ident 33
##ipo 33
##isi 33
##jing 33
##juma 33
##kins 33
##leigh 33
##mendi 33
##nium 33
##noma 33
##nyi 33
##oge 33
##olla 33
##ols 33
##pent 33
##portant 33
##rana 33
##rdan 33
##rdin 33
##rkin 33
##ske 33
##soni 33
##stair 33
##style 33
##tten 33
##uder 33
##uva 33
##vul 33
##writer 33
##yir 33
##ئط 33
##فوس 33
1397 33
14th 33
2019 33
263 33
291 33
328 33
331 33
343 33
387 33
436 33
462 33
498 33
509 33
566 33
597 33
695 33
985 33
Adrian 33
Adult 33
Ages 33
Arc 33
Aria 33
Basel 33
Bela 33
Bourg 33
Bradley 33
Brewer 33
Bros 33
Correa 33
Count 33
Demi 33
Destruction 33
Diane 33
Drew 33
Eisenhower 33
Eugene 33
Forget 33
Gamma 33
Horizon 33
Innovation 33
Jura 33
Kada 33
Kazan 33
Kind 33
Kohl 33
Kuala 33
Kurt 33
Lakers 33
Laws 33
Lumpur 33
Masters 33
Meat 33
Moving 33
Neo 33
Olive 33
Oval 33
Parker 33
Peer 33
Poet 33
Por 33
Prague 33
Promise 33
Psycho 33
Range 33
Raymond 33
SMP 33
Sarajevo 33
Secrets 33
Seit 33
Selection 33
Server 33
Sf 33
Single 33
Sinn 33
Stuart 33
Supplement 33
Sv 33
Teheran 33
Terme 33
Terry 33
Tests 33
Typ 33
User 33
VY 33
Veterinary 33
Weber 33
Zahl 33
Zurich 33
bada 33
banda 33
baron 33
biography 33
bir 33
chorus 33
coli 33
communis 33
continental 33
doctorate 33
edges 33
faire 33
futur 33
hil 33
kV 33
learns 33
mare 33
marina 33
modifications 33
momento 33
narra 33
nich 33
particle 33
populace 33
primitive 33
radios 33
rend 33
rugby 33
settings 33
slope 33
soy 33
stemme 33
township 33
مرض 33
##amaa 32
##avo 32
##bih 32
##chid 32
##cun 32
##dote 32
##edu 32
##eller 32
##gender 32
##gom 32
##hner 32
##hola 32
##icy 32
##ifer 32
##ij 32
##iler 32
##inen 32
##inn 32
##lami 32
##lder 32
##lman 32
##mei 32
##mum 32
##nha 32
##ntes 32
##ods 32
##prem 32
##rini 32
##rins 32
##rro 32
##sby 32
##strate 32
##stres 32
##tada 32
##tok 32
##ully 32
##vader 32
##verte 32
##web 32
##zah 32
080 32
1923 32
1932 32
323 32
353 32
359 32
396 32
513 32
612 32
635 32
702 32
725 32
864 32
888 32
Amelia 32
Artur 32
Bassa 32
Beginning 32
Bethlehem 32
Birds 32
Brother 32
Caroline 32
Casa 32
Cash 32
Changes 32
Clare 32
Coming 32
Cope 32
Dio 32
ESPN 32
Elmi 32
Faye 32
Finals 32
Frederick 32
Gran 32
Hamlet 32
Helsinki 32
Historical 32
Horse 32
Hyde 32
IBM 32
Image 32
Jill 32
Kiev 32
Kore 32
Languages 32
Lenin 32
Loan 32
MB 32
Marche 32
Minsk 32
Missing 32
Montana 32
Nicaragua 32
Orchestra 32
Paraguay 32
Player 32
Position 32
Reed 32
Role 32
Sens 32
Sony 32
Speed 32
Sporting 32
Stevens 32
Suba 32
Tall 32
Timothy 32
Tina 32
Uttar 32
Ved 32
Voda 32
Wakil 32
Wonder 32
Yellow 32
additions 32
affaires 32
albums 32
alt 32
amenities 32
bells 32
champ 32
codi 32
hen 32
inland 32
ket 32
leve 32
lid 32
lord 32
mapping 32
motors 32
plaque 32
purple 32
soms 32
uniforme 32
uten 32
utiliza 32
vas 32
vera 32
vistas 32
آلان 32
لیکن 32
##41 31
##82 31
##97 31
##WR 31
##aise 31
##allo 31
##arda 31
##aves 31
##bato 31
##beri 31
##cans 31
##cem 31
##cito 31
##disi 31
##eig 31
##erk 31
##ezer 31
##gt 31
##igan 31
##inal 31
##jil 31
##kala 31
##krit 31
##lex 31
##liko 31
##loads 31
##married 31
##mmi 31
##oney 31
##order 31
##osis 31
##preti 31
##rigo 31
##rmon 31
##sg 31
##shire 31
##smith 31
##tail 31
##tecte 31
##teri 31
##tings 31
##tne 31
##ubi 31
##union 31
##wet 31
##wie 31
##xia 31
##yin 31
##ymo 31
##zig 31
##zna 31
##zom 31
1914 31
1934 31
368 31
369 31
471 31
488 31
495 31
511 31
514 31
522 31
533 31
545 31
579 31
581 31
607 31
617 31
622 31
759 31
775 31
835 31
845 31
AAA 31
Aberdeen 31
Berkeley 31
Bird 31
Books 31
Bright 31
Bristol 31
Bronze 31
Build 31
Celebration 31
Ching 31
Choi 31
Circle 31
Collection 31
Collins 31
Color 31
Consortium 31
Cruise 31
Dakota 31
Darul 31
Electrical 31
Elia 31
Fact 31
Geographic 31
Hanoi 31
Hours 31
Internationale 31
Jag 31
Lakes 31
Lisbon 31
Luanda 31
MY 31
Macedonia 31
OECD 31
Palmer 31
Paper 31
Patricia 31
Patriots 31
Pictures 31
Pier 31
Quarter 31
Quebec 31
Queensland 31
Regular 31
Roland 31
Roma 31
Romano 31
Running 31
Safari 31
Seed 31
Shopping 31
Standards 31
Stat 31
Stefan 31
Surgery 31
Suzuki 31
Teen 31
UD 31
Uma 31
Villar 31
Written 31
XI 31
acids 31
astronom 31
causa 31
chan 31
demographics 31
fala 31
folklore 31
garrison 31
ginn 31
informe 31
modification 31
monumental 31
pala 31
premi 31
pris 31
progression 31
quasi 31
rama 31
salon 31
scales 31
scientifica 31
simples 31
slopes 31
southwestern 31
spectacle 31
stav 31
tentative 31
جزر 31
کیمی 31
##48 30
##FK 30
##MC 30
##WC 30
##aus 30
##ayo 30
##bun 30
##chuk 30
##cque 30
##deo 30
##dok 30
##ebre 30
##efa 30
##ege 30
##ennial 30
##eris 30
##erman 30
##ezi 30
##hte 30
##igo 30
##izer 30
##jer 30
##jie 30
##jista 30
##kla 30
##kob 30
##lang 30
##lare 30
##leti 30
##lid 30
##lime 30
##liste 30
##logie 30
##lz 30
##mitter 30
##mne 30
##namite 30
##ndri 30
##nesia 30
##niti 30
##nych 30
##orial 30
##riva 30
##rony 30
##rrell 30
##rrow 30
##school 30
##sley 30
##stol 30
##tainer 30
##tit 30
##tku 30
##tore 30
##tteri 30
##uche 30
##upe 30
##uv 30
##wick 30
##wu 30
##yf 30
##yla 30
##zko 30
##دوات 30
1830 30
1886 30
1904 30
339 30
349 30
374 30
3D 30
419 30
421 30
483 30
484 30
507 30
515 30
529 30
623 30
764 30
772 30
848 30
925 30
943 30
Americas 30
Archaeology 30
Arrow 30
Assassin 30
Baltimore 30
Beatles 30
Belgrade 30
Below 30
Bing 30
Boa 30
Bride 30
Carey 30
Chuck 30
Clifton 30
Comme 30
Concorde 30
Fans 30
Flag 30
Freud 30
Hilton 30
Hotels 30
Idaho 30
[...]
